#version: 0.2
t h
th e</w>
i n
a n
t i
r e
e r
o n</w>
e n
e d</w>
o n
o f</w>
a r
o u
t o</w>
in g</w>
o r
e r</w>
an d</w>
i n</w>
r o
e s</w>
a l
i t
a t</w>
s t
i s</w>
a t
o r</w>
i c
ti on</w>
o m
a c
i s
o u</w>
e c
a l</w>
a s</w>
y ou</w>
v e</w>
w h
e l
a n</w>
a s
th at</w>
i t</w>
s i
n o
l e</w>
e n</w>
p ro
e s
u r
f or</w>
h e</w>
l i
a tion</w>
h a
l y</w>
m en
l e
u s
c on
b e</w>
l o
' s</w>
r i
u n
d i
i l
t s</w>
c om
s u
er e</w>
a b
m e</w>
s h
l d</w>
th e
a p
w it
d e
wit h</w>
a g
ti on
c e</w>
a d
b e
a y</w>
p o
m e
al l</w>
e x
t r
u l
g h
ou ld</w>
w as</w>
no t</w>
c h
men t</w>
ar e</w>
s e
f or
o p
t a
b y</w>
ou t</w>
. .
p l
.. .</w>
n e
ou n
ha ve</w>
v i
q u
th is</w>
at e</w>
' t</w>
n 't</w>
f i
k e</w>
b u
it y</w>
d o
th er</w>
s p
u c
ou r</w>
a i
ti c
o l
t ed</w>
p ar
a m
v er
t er
gh t</w>
tion s</w>
i m
s e</w>
on e</w>
re d</w>
g o
c i
e t</w>
en t</w>
f ro
d o</w>
p e
fro m</w>
h i
f f
a r</w>
e m
p re
w e</w>
p er
an t</w>
d s</w>
t o
s t</w>
us t</w>
h is</w>
ur e</w>
ic h</w>
c o
r e</w>
v er</w>
T he</w>
er s</w>
m o
s o</w>
wh ich</w>
m a
si on</w>
h e
t er</w>
d er</w>
p or
w or
r a
g i
bu t</w>
m y</w>
no w</w>
m is
i f</w>
c e
w e
b er</w>
c l
2 0
y our</w>
g r
ti ve</w>
the y</w>
el l</w>
ou r
c an</w>
b o
in g
t ing</w>
d ing</w>
t e
il l</w>
d ed</w>
st r
an ce</w>
f in
h o
k ing</w>
wh at</w>
ab le</w>
c h</w>
d uc
a u
s om
re n
m in
es s</w>
ha d</w>
o d</w>
at ed</w>
d e</w>
a y
' re</w>
sh all</w>
l l</w>
th ing</w>
al ly</w>
ai d</w>
ti es</w>
w n</w>
' m</w>
o ther</w>
re c
i on</w>
h as</w>
ac c
w ill</w>
v e
us e</w>
es s
t h</w>
th ere</w>
f e
an y</w>
com p
m ar
h er</w>
n o</w>
mis sion</w>
g u
it s</w>
m or
be en</w>
w ere</w>
l a
sh ould</w>
w ould</w>
hi m</w>
men ts</w>
s a
i r</w>
w i
as e</w>
u m
t y</w>
li ke</w>
po s
a d</w>
tic le</w>
ar y</w>
u p</w>
ar d</w>
s er
k now</w>
for m
h ere</w>
p u
e v
on s</w>
ic e</w>
sp ec
re g
ab out</w>
d ec
con t
20 0
n a
p r
d is
di d</w>
g h</w>
at es</w>
s he</w>
wh en</w>
u s</w>
g et</w>
re s</w>
C om
y e
a tions</w>
the ir</w>
ti me</w>
k s</w>
d u
s ec
t u
tion al</w>
j ust</w>
g e</w>
com m
c er
d er
o b
ag e</w>
su b
t en
mor e</w>
in to</w>
ac k</w>
c ould</w>
cl u
c re
f ac
Y ou</w>
the m</w>
m ay</w>
qu i
j ec
es t</w>
pro duc
wh o</w>
w ay</w>
for e</w>
s o
a f
wh ere</w>
b le</w>
k ed</w>
u ro
m on
n a</w>
ing s</w>
d en
i r
pl ic
as t</w>
l ed</w>
in e</w>
g e
som e
on ly</w>
wi th
' ll</w>
p p
s el
es e</w>
oun d</w>
v is
pre s
lo w
th in
me m
lo o
s ti
ou gh</w>
st e
p ri
or i
m ust</w>
g n
k e
f ic
c u
A n
el y</w>
I t</w>
ser v
ap plic
be t
fi r
a in
ad e</w>
ul ation</w>
pro vi
c a
ri ght</w>
c oun
on g</w>
th an</w>
m an
g en
ou s</w>
au th
t e</w>
t ly</w>
un der</w>
w o</w>
' ve</w>
g on</w>
o se</w>
W h
in ter
re s
t ec
tr an
a v
s y
su ch</w>
w ell</w>
at ing</w>
ver y</w>
i c</w>
A r
se e</w>
S t
i ght</w>
g o</w>
t ur
l is
d ic
b as
op er
c ar
e ment</w>
ne w</w>
w ant</w>
f u
c our
ti v
f o
b ec
spec i
uro pe
r u
le g
ta ke</w>
ay s</w>
thin k</w>
al so</w>
urope an</w>
in form
p a
th ese</w>
mem ber</w>
as s
do wn</w>
em ber</w>
me as
s aid</w>
por t</w>
ap pro
ho w</w>
n ed</w>
b ack</w>
an d
st s</w>
p le
ar s</w>
ff ic
t ri
pro ce
c es</w>
go t</w>
or s</w>
m an</w>
or y</w>
v ed</w>
d ay</w>
ac e</w>
e g
ac h</w>
ff ec
sh o
wor k</w>
al i
en d</w>
d y</w>
ci al</w>
som e</w>
T h
th en</w>
il ity</w>
us ed</w>
n ing</w>
inform ation</w>
re e</w>
n ec
ar ticle</w>
v ing</w>
t wo</w>
Com mission</w>
fir st</w>
or d
y ing</w>
a use</w>
con si
be fore</w>
re qui
re f
Ar ticle</w>
par tic
do es</w>
com mission</w>
per i
na tional</w>
s ure</w>
o ver</w>
th ose</w>
p en
di rec
l ic
pu b
un der
e st
an s</w>
l ing</w>
ap p
in clu
dec is
com e</w>
h el
I n</w>
ch an
af ter</w>
f e</w>
f ol
c ase</w>
g re
en ce</w>
b i
r y</w>
c al
con cer
H e</w>
ar i
v el
b r
ic al</w>
ta in</w>
u res</w>
al s</w>
u e</w>
we en</w>
an y
in v
k et</w>
r is
h ed</w>
su l
bet ween</w>
m s</w>
E U</w>
i st
t le</w>
or der</w>
men t
ren t</w>
ac t</w>
po in
per s
An d</w>
op le</w>
c or
si gn
ou ght</w>
bec ause</w>
u m</w>
m ade</w>
ma ke</w>
it e</w>
p ur
su p
go ing</w>
20 1
oun t</w>
t re
f a
' d</w>
ne ed</w>
p h
sh i
pe ople</w>
si ble</w>
m at
f un
ag r
lo c
un ity</w>
s ur
re l
j u
e l</w>
e ffec
th r
m it
ff e
go od</w>
sel f</w>
v en
com pe
el i
t or</w>
a in</w>
ta k
M ember</w>
fi ed</w>
m il
ta in
t al
se t</w>
ev en</w>
f f</w>
en ti
ic es</w>
c ap
E C</w>
li c</w>
c ri
p le</w>
meas ures</w>
j o
ul ar</w>
a m</w>
c y</w>
d at
p i
in te
fin an
st ed</w>
w a
la w</w>
u t</w>
t ure</w>
tr y</w>
decis ion</w>
l s</w>
some thing</w>
f t</w>
W e</w>
with in</w>
lo w</w>
s ay</w>
t ell</w>
tran s
i es</w>
l it
w an
the re
c en
ti c</w>
vi e
mar ket</w>
st o
mo st</w>
ye ars</w>
re gi
p s</w>
c ur
c lo
o k</w>
l es</w>
a re
sp on
en ts</w>
ffic i
thr ough</w>
le t</w>
ar ds</w>
ce p
si de</w>
em p
pub lic</w>
fol low
sa me</w>
re ad
c ol
jec t</w>
st ates</w>
r it
N o</w>
pro vis
auth or
er al</w>
pl ace</w>
e d
re spon
st an
s ed</w>
v al
T his</w>
str uc
f r
i ons</w>
is e</w>
de vel
agr ap
f ul
st ate</w>
w s</w>
v es</w>
st ar
a h</w>
cour t</w>
fu l</w>
nec ess
Wh at</w>
st u
m i
is ed</w>
w at
ab lis
v en</w>
par agrap
in ce</w>
om e</w>
con di
est ablis
n um
ex t</w>
sti tu
k no
ag re
e p</w>
p ec
im por
0 0</w>
ha pp
ec on
I f</w>
g er</w>
di ffe
wh e
lit tle</w>
ch ar
in d</w>
ste m</w>
su m
o w</w>
uc h</w>
ti m
dat a</w>
pro tec
c a</w>
r ul
ver y
gr am
ve l</w>
qu es
con tr
he y</w>
pu t</w>
fi c</w>
c le
bo dy</w>
sti ll</w>
e ach</w>
wh y</w>
ne ver</w>
d ur
to o</w>
B ut</w>
b l
ori ties</w>
d es</w>
p e</w>
re as
e uropean</w>
g a
loo k</w>
im ple
reg ulation</w>
necess ary</w>
devel op
peri od</w>
sy stem</w>
re sul
w er</w>
vie w</w>
r an
h an
par t</w>
ch o
l ong</w>
gi ve</w>
re qu
with out</w>
econ om
1 9
re le
li fe</w>
U n
in cre
acc ord
er red</w>
c as
b ro
er i
appro pri
provi ded</w>
l ess</w>
e ver</w>
f ri
partic ular</w>
E uropean</w>
for m</w>
St ates</w>
e very
inte re
finan cial</w>
l ast</w>
t es</w>
cont ro
ou s
leg al</w>
m uch</w>
read y</w>
pr in
D i
on d</w>
o m</w>
s s</w>
is su
d es
ma in
on al</w>
auth orities</w>
R eg
paragrap h</w>
pro b
e y</w>
re ally</w>
f l
g an
fin d</w>
accord ance</w>
g ed</w>
pro gram
y es</w>
ye ar</w>
b re
g y</w>
we ver</w>
applic ation</w>
ci l</w>
o wn</w>
b en
rul es</w>
an n
shi p</w>
th ree</w>
o ff
ac ti
or t</w>
s ince</w>
h ar
num ber</w>
o c
th er
de red</w>
d el
ap pe
o ff</w>
al ity</w>
pos sible</w>
t y
ac tion</w>
ch il
th ought</w>
w ays</w>
le vel</w>
an other</w>
gh ts</w>
Th at</w>
po lic
s ol
i le</w>
b ility</w>
condi tions</w>
d ate</w>
e f
is h</w>
I n
l in
tec h
a il
ab ility</w>
ar ly</w>
ad di
ter s</w>
man ag
ta king</w>
tiv es</w>
f ound</w>
ri ed</w>
den ce</w>
ag ain</w>
Reg ulation</w>
tak en</w>
produc ts</w>
there fore</w>
st ance</w>
acc ount</w>
ex am
concer ned</w>
fic ation</w>
po si
pro pos
t al</w>
k ay</w>
te e</w>
serv ices</w>
comp le
s it
d ure</w>
me ans</w>
bas is</w>
ob jec
ou t
o ver
follow ing</w>
u p
den ti
l ar
p ay
d ent</w>
l at
as s</w>
d re
m any</w>
pl an
ri bu
or gan
ter min
ad op
poin t</w>
rele v
pro c
appropri ate</w>
s m
g ation</w>
w om
me an</w>
ren ce</w>
re spec
s en
do cu
ass ess
l an
d r
li m
vi r
comm it
be ing</w>
f il
dur ing</w>
f ra
s c
an k</w>
chan ge</w>
cer tain</w>
b us
li ght</w>
ai r</w>
ou se</w>
k i
en sure</w>
ain st</w>
d ra
requi re
o l</w>
en g
to ld</w>
t en</w>
as si
d ers</w>
t ent</w>
o ld</w>
s ha
it ed</w>
t ting</w>
gen eral</w>
any thing</w>
proce dure</w>
ag ainst</w>
u ation</w>
St ate</w>
ref erred</w>
hel p</w>
oper ation</w>
ir d</w>
wh ile</w>
T hey</w>
he ad</w>
bo th</w>
h ing</w>
whe ther</w>
n ight</w>
inclu ding</w>
o ds</w>
relev ant</w>
i p
h ol
ad min
Com m
em s</w>
st er</w>
wor ld</w>
it al</w>
ai r
v o
ar ound</w>
c ed</w>
k il
h um
a way</w>
s es</w>
is ation</w>
bas ed</w>
t el
l ec
de fin
ti l</w>
di es</w>
ch e
ic k</w>
impor t
go ver
diffe rent</w>
tic al</w>
econom ic</w>
so ci
fac t</w>
sup port</w>
w ard</w>
y s</w>
re co
l ine</w>
in i
s ing</w>
speci fic</w>
po se</w>
b eli
h and</w>
cont in
lo t</w>
ca me</w>
al ready</w>
li ed</w>
ques tion</w>
ne x</w>
al l
ab o
av ail
gr ou
t ro
m en</w>
1 0</w>
gi ven</w>
compe ti
un til</w>
bet ter</w>
me di
n er</w>
f ur
prin ci
n on</w>
in dic
res s</w>
en ed</w>
we e
tre at
z e</w>
tri es</w>
w ar
fac e</w>
c ha
b ur
no ti
re ce
co sts</w>
di st
ob li
u al</w>
g ro
in ten
- -</w>
na me</w>
n or
at t
ne e
provis ions</w>
f y</w>
S he</w>
ris k</w>
b el
at h</w>
e ve</w>
g es</w>
pa ti
al ways</w>
e very</w>
ac k
un i
n al</w>
ti al</w>
w al
pres en
am i
su pp
ve st
emp lo
n at
n i
a k</w>
S o</w>
contro l</w>
direc tive</w>
ma in</w>
produc t</w>
tran sp
R e
a ve</w>
m ed</w>
comm unity</w>
t ors</w>
op e</w>
pers on</w>
sec ond</w>
an t
im p
gi r
e t
l and</w>
le ast</w>
vi ties</w>
d ays</w>
le ft</w>
n ess</w>
avail able</w>
h ouse</w>
provi de</w>
si ons</w>
cl ai
w r
leg is
sec ur
serv ice</w>
t able</w>
ju d
coun tries</w>
de termin
acti vities</w>
pl ac
th ings</w>
b ed</w>
to ok</w>
wan ted</w>
some one</w>
in ess</w>
ag es</w>
Di rec
fo re
ro om</w>
e vi
h ome</w>
an ts</w>
th s</w>
th ird</w>
g in
s or
/ 200
ve red</w>
author ity</w>
st at
hi gh</w>
g n</w>
sub ject</w>
is t</w>
ci r
y s
develop ment</w>
par ties</w>
in es</w>
in vest
ment ation</w>
i denti
lo ve</w>
el ec
or ding</w>
ac tu
re por
ye ah</w>
require ments</w>
fe w</w>
o t</w>
un ion</w>
t ation</w>
app ly</w>
rece i
con clu
tal k</w>
sa w</w>
m ight</w>
coun try</w>
h al
c all</w>
in ation</w>
ho wever</w>
in stitu
agre ement</w>
am ount</w>
T here</w>
C on
do ing</w>
o le</w>
as k</w>
d it
P ar
o kay</w>
polic y</w>
ti s
c ro
1 0
applic ant</w>
d ri
protec tion</w>
di vi
ad v
our s</w>
r .</w>
c at
ar ch</w>
reg ul
Comm unity</w>
un ic
posi tion</w>
c r
es ti
us ing</w>
W ell</w>
s on</w>
t om
s al
gre at</w>
produc tion</w>
hi gh
abo ve</w>
comp any</w>
he ar
w ent</w>
consi dered</w>
st and
e ments</w>
p er</w>
2 0</w>
st ing</w>
me dic
t t
en ing</w>
at ely</w>
cas es</w>
ch ec
ma y
acc ording</w>
pres ent</w>
en tly</w>
re duc
tim es</w>
p ing</w>
c ul
prob le
st and</w>
ke ep</w>
Un ion</w>
f ami
car ried</w>
th ough</w>
are a</w>
re port</w>
l aid</w>
f ar</w>
gover n
ab ly</w>
h er
li es</w>
every thing</w>
ment al</w>
si bility</w>
cont ribu
vir on
ac tions</w>
manag ement</w>
l ation</w>
tur n</w>
E U
pos ed</w>
si ve</w>
re si
ed ings</w>
par ty</w>
ay ing</w>
st om
sp e
ge ther</w>
se qu
proce edings</w>
sy st
val ue</w>
fur ther</w>
p tion</w>
ac h
st a
cen tr
pro f
s k
reg ard</w>
us ti
w ing</w>
as ed</w>
i l</w>
to gether</w>
i fic
no thing</w>
im um</w>
19 9
on ce</w>
bu d
P ro
en cy</w>
ad d
l on
con sum
par t
he al
b ers</w>
en viron
ri ghts</w>
min u
w in
fe rence</w>
d one</w>
b est</w>
import ant</w>
li on</w>
dec i
wor king</w>
requi red</w>
fi el
con tain
b er
n ext</w>
for ce</w>
d ro
bu il
k new</w>
t on
e qui
se en</w>
Direc tive</w>
secur ity</w>
comp an
acc ess</w>
a men
me th
p ed</w>
may be</w>
re la
u tion</w>
sign ific
im pro
wat er</w>
fa ther</w>
en er
z ed</w>
i d</w>
assess ment</w>
str u
comm on</w>
inv ol
bus iness</w>
mit ted</w>
so cial</w>
compe tent</w>
a k
p ic
respec t</w>
fri end</w>
c are</w>
en ough</w>
d en</w>
in du
b an
m u
A s</w>
en s</w>
treat ment</w>
cir c
str y</w>
at or</w>
ex ist
il l
cal led</w>
se e
program me</w>
ac ts</w>
b al
cep t</w>
establis hed</w>
stan ces</w>
wh ole</w>
gr an
k ind</w>
al low
ro w</w>
o h</w>
h y
i ther</w>
con nec
le ave</w>
f uc
ex pec
loo king</w>
de pen
po wer</w>
str ic
inv esti
e ar
e yes</w>
f is
d am
m p
g l
imple mentation</w>
E S
sa fe
C our
mon ey</w>
t a</w>
fe el</w>
an al
evi dence</w>
ous ly</w>
emplo y
mon ths</w>
g ing</w>
el l
C oun
loo ked</w>
ta x</w>
com men
m er
sm all</w>
d ar
D o</w>
st ri
ch ed</w>
mar ke
n s</w>
el s</w>
as ked</w>
ben ef
a tive</w>
our ces</w>
sho w</w>
i a</w>
resul t</w>
sel ec
grou p</w>
gu y</w>
v ari
he ard</w>
du e</w>
fun c
an im
F or</w>
pati ents</w>
d ge</w>
intere st</w>
g er
ffici ent</w>
he ad
beli eve</w>
op en</w>
ener gy</w>
wom an</w>
p ass
l ab
at ory</w>
v ol
Cour t</w>
hum an</w>
rel ated</w>
c ra
re al</w>
divi du
I I</w>
ful l</w>
h ic
po l
b ar
cour se</w>
tr a
lo g
me work</w>
i al</w>
coun cil</w>
partic ip
ha ving</w>
k es</w>
co vered</w>
tr ade</w>
se arch</w>
an s
ter m</w>
in dividu
effec t</w>
requ est</w>
cle ar</w>
tic s</w>
tr ying</w>
j usti
li mit
min d</w>
bi g</w>
addi tion</w>
gu ar
r ing</w>
ai l</w>
c ing</w>
n er
legis lation</w>
an ti
or e</w>
ini ti
en d
m om
fami ly</w>
inter national</w>
fi ve</w>
ty pe</w>
hal f</w>
Coun cil</w>
pur pose</w>
sit uation</w>
fiel d</w>
lis t</w>
h un
( 1</w>
p ay</w>
ac hi
cu stom
tur ned</w>
s ing
reg ards</w>
3 0</w>
b ri
t est</w>
su c
syst ems</w>
b lo
re presen
mat eri
D ec
e as
ul t</w>
g s</w>
m it</w>
n am
reco gn
star t</w>
de ad</w>
c an
applic able</w>
pro per
mat ter</w>
m ul
i ous</w>
h ard</w>
tech n
ar gu
at ors</w>
a ffec
Wh en</w>
ag o</w>
pur su
b or
str ation</w>
ex p
f re
tr u
de b
n e</w>
a red</w>
nor m
ke y</w>
mo ther</w>
it ing</w>
pri v
comm unic
A c
0 00</w>
pr ice</w>
d it</w>
mon it
e qu
2 .
f ree</w>
m y
dre n</w>
ex pen
gir l</w>
imple men
concer ning</w>
c ar</w>
st er
m es</w>
sto p</w>
g ra
Y e
il ed</w>
de f
1 5</w>
y oun
gen er
li a
re commen
i de
du res</w>
do m</w>
p t</w>
ex peri
me et</w>
pl ain
k ill</w>
1 .
1 2</w>
in ed</w>
incre ase</w>
adop ted</w>
ac tiv
gr ound</w>
d om
com ing</w>
co operation</w>
tur al</w>
chil dren</w>
s le
f our</w>
H o
in t</w>
proce dures</w>
fra mework</w>
E C
trans f
gr ap
do or</w>
are as</w>
h on
st re
pl an</w>
ve hic
ful ly</w>
o f
s us
li ve</w>
th ers</w>
to tal</w>
safe ty</w>
princi ple</w>
v al</w>
tr ain
sor ry</w>
to day</w>
sec tor</w>
H ow</w>
proc ess</w>
ne t
en ds</w>
ma king</w>
s ent</w>
ple ase</w>
char ac
ex clu
rel ating</w>
te red</w>
heal th</w>
EU R</w>
el se</w>
p ul
p aid</w>
imp act</w>
wor d</w>
O h</w>
de sign
j ur
Ye ah</w>
as soci
s ci
in stru
speci al</w>
kno wn</w>
d an
ex c
au gh
fr ing
cur rent</w>
pers ons</w>
oun ds</w>
transp ort</w>
r ate</w>
app lied</w>
e ither</w>
g ations</w>
re ference</w>
jo b</w>
meas ure</w>
admin ist
ic k
c k</w>
pro mo
des cri
chil d</w>
pay ment</w>
o ffici
y et</w>
w ed</w>
c rit
4 .
pl es</w>
issu e</w>
s po
5 0</w>
s cho
competi tion</w>
circ um
mo ve</w>
str at
pl ay</w>
mil lion</w>
go ods</w>
provis ion</w>
b it
off ice</w>
th re
ven tion</w>
oun ts</w>
a ti
st ay</w>
docu ments</w>
commit tee</w>
under stand</w>
gran ted</w>
signific ant</w>
f el
techn ical</w>
sec tion</w>
in fring
ou th</w>
blo od</w>
he ar</w>
du ce</w>
op in
h ours</w>
ch ing</w>
con stitu
g in</w>
b ad</w>
col lec
contin u
an nex</w>
i tion</w>
elec tr
( 2</w>
guar an
sing le</w>
nee ds</w>
w rit
ar m
so on</w>
or d</w>
t ar
loc al</w>
fo od</w>
de ta
proc ess
d ou
wor k
al most</w>
h im
ac ro
is ing</w>
fr on
qu ality</w>
effec tive</w>
admin i
fu ture</w>
ur al</w>
hel d</w>
govern ment</w>
t or
h or
A ll</w>
inten ded</w>
per form
h ind</w>
C h
ac hed</w>
invest ment</w>
ra tive</w>
mar k</w>
kil led</w>
re member</w>
fi le</w>
po ten
inclu de</w>
happ ened</w>
le ar
g g
ex pres
is m</w>
resul ts</w>
M y</w>
ga ve</w>
mom ent</w>
ca use</w>
se ts</w>
effec ts</w>
wr ong</w>
cer ti
cor rec
pp ed</w>
reas on</w>
a z
jec ts</w>
L o
lon ger</w>
d ly</w>
t em
clo se</w>
tal king</w>
be hind</w>
al low</w>
re ad</w>
me t</w>
re st</w>
lat er</w>
gu i
cap ac
him self</w>
m ur
tech no
co ver</w>
compan ies</w>
cont ext</w>
ev al
sub mitted</w>
in tro
t w
youn g</w>
S e
con f
lia ment</w>
br ought</w>
lo gy</w>
minu tes</w>
bo y</w>
su per
ex ten
A l
chan ges</w>
ter ms</w>
b a
in s</w>
actu ally</w>
addi tional</w>
com b
ma j
s '</w>
bo ard</w>
or ing</w>
or ity</w>
reg ar
ori gin
exam ple</w>
po w
priv ate</w>
f ec
/ EC</w>
cri min
propos al</w>
v ic
le t
objec tives</w>
consi der
An nex</w>
vi l</w>
te sted</w>
li ties</w>
co st</w>
eri a</w>
re search</w>
tiv ely</w>
o w
do c
s che
se par
limit ed</w>
uro pe</w>
su fficient</w>
fin al</w>
le ad
li st
provi des</w>
a tional</w>
c op
me an
reas ons</w>
pr is
han ds</w>
tion ed</w>
respon sible</w>
il s</w>
pos es</w>
st ory</w>
br ing</w>
struc ture</w>
no v
in st
ac tive</w>
on es</w>
ge tting</w>
d eli
res ources</w>
stan ding</w>
administ rative</w>
ve ment</w>
b it</w>
de st
contr act</w>
mem bers</w>
s am
pr ac
si r</w>
ob serv
ru n</w>
i gh
lar ge</w>
individu al</w>
me e
ev ent</w>
m ag
sup por
nat ure</w>
scho ol</w>
3 .
indu stry</w>
u h</w>
si gn</w>
wom en</w>
1 1</w>
is ion</w>
pr ices</w>
p at
lo st</w>
d ad</w>
re stric
st e</w>
circum stances</w>
direc t</w>
man u
T o</w>
b ra
c ou
re ly</w>
w o
en s
tain ed</w>
I s</w>
ren g
h ur
investi gation</w>
200 7</w>
g ment</w>
por t
con sul
em ed</w>
N ow</w>
er ing</w>
de ath</w>
gu ys</w>
pa ren
Ho wever</w>
se ver
u t
f lo
proble m</w>
si x</w>
do se</w>
g one</w>
c am
star ted</w>
kno w
re main
ori es</w>
ter rit
at s</w>
d a
si mil
1 2
opin ion</w>
tic les</w>
acro ss</w>
c y
li ance</w>
fin e</w>
capac ity</w>
wor ks</w>
regi onal</w>
crit eria</w>
gre at
ac ting</w>
mor ning</w>
st reng
ar ran
ph one</w>
e f</w>
t an
poin ts</w>
inte gr
re p
x ed</w>
p an
any one</w>
W here</w>
employ ment</w>
cap ital</w>
in k</w>
w ards</w>
pro ject</w>
wa it</w>
Wh y</w>
direc tly</w>
ac cep
ma x
program mes</w>
ac y</w>
de v
ar ing</w>
prob ably</w>
c el
exist ing</w>
al one</w>
com es</w>
ro r</w>
de m
up on</w>
p ment</w>
fron t</w>
di e</w>
y e</w>
M o
poten tial</w>
wi fe</w>
la w
institu tions</w>
ver s
inter nal</w>
ann ual</w>
200 6</w>
plac ed</w>
b il
di ffic
under tak
at ten
bo dies</w>
fi g
si l
sec re
un e</w>
y our
high er</w>
ys is</w>
ne t</w>
ag ed</w>
ch em
train ing</w>
manu fac
B o
objec tive</w>
in al</w>
uc k</w>
organ is
fri ends</w>
af f</w>
C o
bec ome</w>
log ical</w>
g lo
nee ded</w>
en ces</w>
know le
p es</w>
ord in
pur poses</w>
recei ved</w>
h and
pre vi
tri ed</w>
e ty</w>
inclu ded</w>
f av
lim it</w>
ide a</w>
N e
ho ld</w>
hear t</w>
st aff</w>
Y es</w>
comp ens
201 0</w>
E x
N o
o d
li k
sc ope</w>
norm al</w>
assi stance</w>
m ess
gro w
under taking</w>
om e
out side</w>
l er</w>
mo m</w>
obli gation</w>
qu anti
ta x
sche me</w>
po li
obli gations</w>
es sion</w>
is hed</w>
en ess</w>
suc c
st ain
go d</w>
A u
al e</w>
docu ment</w>
r un
speci fied</w>
wan ts</w>
T I
ans wer</w>
ru le</w>
ad ju
re view</w>
sh are</w>
. e
wan na</w>
pursu ant</w>
sever al</w>
af r
a w
defin ed</w>
mee ting</w>
fel t</w>
g an</w>
ex por
s ays</w>
c us
con sequ
at ure</w>
ro ad</w>
201 1</w>
im medi
comp u
bud get</w>
av o
w el
pro jects</w>
appe al</w>
1 3</w>
t ary</w>
jud gment</w>
decis ions</w>
m r.</w>
1 4</w>
expen dit
activ ity</w>
D e
undertak ings</w>
n y</w>
re mo
ben e
partic ul
your self</w>
c ity</w>
bel ow</w>
s we
n ice</w>
M E
di ed</w>
wee k</w>
for ward</w>
l u
ch es</w>
inter pre
k er</w>
con tested</w>
ex er
propos ed</w>
pos sibility</w>
w on
it h</w>
re li
thin king</w>
intro duc
in side</w>
en ter
bas ic</w>
low er</w>
b and</w>
to p</w>
in c
tr ue</w>
u es</w>
invol ved</w>
1 3
h ope</w>
ce ment</w>
c au
s ite</w>
200 8</w>
es si
v ali
fic i
fun ds</w>
d ation</w>
pro mis
bl ack</w>
comm er
incre ased</w>
o ffic
ver se</w>
s aying</w>
represen ta
m ing</w>
t ab
o thers</w>
t on</w>
2 5</w>
he re
max imum</w>
st or
le ad</w>
every one</w>
L i
sto od</w>
contin ue</w>
d d
wh ose</w>
S u
con fir
J o
b ul
o t
cre dit</w>
p ap
u ally</w>
s li
200 5</w>
E n
expec ted</w>
ti z
deci ded</w>
men tioned</w>
fi re</w>
vis ion</w>
wh ite</w>
b ab
M ar
grow th</w>
car ry</w>
s cre
cat eg
ge ts</w>
ES C</w>
c o</w>
con duc
m ach
b ank</w>
t ty</w>
e duc
ver i
Com mit
expendit ure</w>
th us</w>
incre as
d um
my self</w>
Th en</w>
be au
bo o
add ress</w>
ex ce
en for
v ent</w>
supp ly</w>
doc tor</w>
lo gi
1 8</w>
cal cul
nat ural</w>
win do
ver age</w>
monit oring</w>
E ESC</w>
ic ul
Y our</w>
ar m</w>
it self</w>
ser ious</w>
ques tions</w>
sel ves</w>
200 9</w>
proper ty</w>
clai m</w>
net work</w>
ci vil</w>
p ast</w>
exer c
f ying</w>
as sets</w>
equi pment</w>
comp liance</w>
stand ards</w>
anal ysis</w>
pers onal</w>
ev ed</w>
ste red</w>
min imum</w>
fl u
ch i
201 3</w>
a de
tic ally</w>
de al</w>
simil ar</w>
re turn</w>
le vel
offici al</w>
h ell</w>
ma kes</w>
environ ment</w>
st op
poin ted</w>
chec k</w>
wor ds</w>
C O
materi al</w>
s l
f le
op port
ess enti
re r</w>
pro por
charac ter
pec i
produc ers</w>
fi ght</w>
implemen ting</w>
ec han
i de</w>
environ mental</w>
t ou
cur ren
a ke</w>
200 4</w>
cu t</w>
requ est
ex per
adv ant
dist ribu
w il
de mon
( s</w>
pr acti
fa il
w ar</w>
1 6</w>
) (
ari es</w>
sp ace</w>
li ving</w>
loc k</w>
g ar
reas on
in spec
establis h</w>
f al
am ong</w>
ic ally</w>
experi ence</w>
vari ous</w>
marke ts</w>
in depen
proble ms</w>
se tt
ay ed</w>
lik ely</w>
eg y</w>
ci tiz
in a</w>
ex cep
reduc tion</w>
le y</w>
cl assi
tak es</w>
su stain
sup posed</w>
appro ach</w>
level s</w>
vehic le</w>
mean ing</w>
form s</w>
pub lis
h s</w>
an u
dou b
p ack
cro ss</w>
gen cy</w>
Commit tee</w>
tu res</w>
pol ice</w>
e ding</w>
ro le</w>
ra ther</w>
1 /
sub si
m echan
wa iting</w>
agre ements</w>
t ory</w>
in sur
us es</w>
3 1</w>
th ank</w>
lan gu
wh at
201 2</w>
actu al</w>
m ic
w ish</w>
dar k</w>
I N
oper ating</w>
j e
G en
Dec ision</w>
ef for
tiv eness</w>
O n</w>
ing ly</w>
to wn</w>
ton ight</w>
ic a</w>
bo ok</w>
sh ort</w>
instru ments</w>
d ings</w>
wee ks</w>
benef it</w>
f all</w>
1 4
infring ement</w>
s end</w>
ci es</w>
establis h
our ce</w>
afr aid</w>
r ou
certi fic
th an
pre tty</w>
on ic</w>
1 8
particul arly</w>
bi o
cer tain
cor respon
issu ed</w>
J ust</w>
loo ks</w>
m a</w>
mar y</w>
con centr
ter nal</w>
custom s</w>
happ y</w>
Th ese</w>
ex cept</w>
li e</w>
ch ance</w>
ad ded</w>
buil ding</w>
ver s</w>
comp ly</w>
author isation</w>
m g</w>
amen d
E R
ra di
mon th</w>
k y</w>
requi re</w>
com par
1 00</w>
ex ac
knowle dge</w>
add res
dis pu
ex change</w>
n ers</w>
k en</w>
commer cial</w>
i lities</w>
O kay</w>
fe el
kno ws</w>
ar t</w>
conclu ded</w>
un less</w>
stu dy</w>
consi ders</w>
tur ing</w>
insur ance</w>
s mo
stand ard</w>
1 7</w>
consi st
al loc
anim als</w>
rel ation</w>
g as</w>
fis hing</w>
consi der</w>
c li
u r</w>
ten ance</w>
M r.</w>
admini stration</w>
em er
arran ge
se emed</w>
sh it</w>
pub lic
intere sted</w>
tel ling</w>
pro g
s ound</w>
gi ble</w>
princi ples</w>
tu al</w>
li ves</w>
ne w
transf er</w>
in nov
chan ged</w>
cont ent</w>
co de</w>
issu es</w>
communic ation</w>
h us
agr icul
ad y</w>
del ines</w>
str an
augh ter</w>
H ey</w>
p ho
cur red</w>
there of</w>
ec e</w>
2 4</w>
determin ed</w>
ex emp
fig ure</w>
char ge</w>
fo c
jo int</w>
connec tion</w>
I S
pay ments</w>
sec on
con fi
ju dic
fol low</w>
b order</w>
5 .
t un
w ise</w>
compens ation</w>
stu dies</w>
s an
b al</w>
clo sed</w>
er y</w>
b ir
dis cus
organis ations</w>
repor ts</w>
perform ance</w>
i gn</w>
su g
bro ther</w>
tr ac
th ro
ade qu
in e
pur ch
vo ice</w>
ord ers</w>
as h</w>
ex port</w>
main tenance</w>
cont act</w>
fun ding</w>
sh e
lin es</w>
ti ful</w>
B e
strat egy</w>
z y</w>
l ate</w>
com plain
let ter</w>
c le</w>
practi ce</w>
gu n</w>
happ en</w>
territ ory</w>
organ isation</w>
A d
r an</w>
bab y</w>
ser ve</w>
prof essi
en try</w>
du ty</w>
gu e</w>
poli tical</w>
author ised</w>
ch all
clai ms</w>
polic ies</w>
le av
oper ations</w>
pre par
al ter
O N</w>
h u
wa ste</w>
tr ust</w>
sci enti
mul ti
or row</w>
previ ous</w>
fuc king</w>
b un
N ot</w>
A N
educ ation</w>
meth od</w>
1 6
h our</w>
identi fied</w>
t ely</w>
a me</w>
respon sibility</w>
ph ys
A re</w>
shi ps</w>
sa tis
agre ed</w>
em is
enti t
pa in</w>
p t
ex ec
pre vent</w>
we ap
f er
follow s</w>
rela tion
sa ve</w>
anu ary</w>
rec or
demon str
associ ated</w>
over all</w>
A t</w>
th y</w>
of ten</w>
( 3</w>
e m</w>
enti re</w>
sa fe</w>
h op
a st
anim al</w>
b ly</w>
st age</w>
re ali
exac tly</w>
a tic</w>
1 7
en ter</w>
d ated</w>
res ol
jur is
ref lec
si mp
es tim
determin e</w>
fin ally</w>
gr ant</w>
comp ati
str ong</w>
cl in
, 000</w>
dic tion</w>
in fra
dec lar
repor ted</w>
ris ks</w>
i z
d in
finan cing</w>
ty pes</w>
prac tic
sle ep</w>
ic ity</w>
request ed</w>
ess es</w>
compu ter</w>
beau tiful</w>
appro val</w>
Lo ok</w>
li er</w>
fre e
appro ved</w>
list en</w>
T H
immedi ately</w>
qu ali
fi xed</w>
a vi
R E
m ist
d ru
ki ds</w>
ou l
T re
peci ally</w>
contr acts</w>
eval uation</w>
/ or</w>
gr ad
ar ms</w>
sign ed</w>
tion ing</w>
si m
es pecially</w>
manufac tu
ne y</w>
sub mit</w>
c lim
r ap
S ec
ai m</w>
al ong</w>
maj or</w>
protec t</w>
1 9</w>
re ached</w>
benef its</w>
te l</w>
ga me</w>
h es</w>
and /or</w>
what ever</w>
sho t</w>
se tting</w>
allow ed</w>
intere sts</w>
air s</w>
ran ge</w>
O ne</w>
go ti
soci ety</w>
exp lo
comp on
re over</w>
as ks</w>
a verage</w>
comple tely</w>
tom orrow</w>
b ack
grou ps</w>
i an</w>
stat ement</w>
tr ou
paren ts</w>
f ast</w>
impor ts</w>
ter ri
s qu
guaran tee</w>
1 5
hol ding</w>
par ts</w>
gh t
G od</w>
e x</w>
cle arly</w>
ne goti
me mor
sp ir
sen se</w>
ex pl
sal es</w>
noti ce</w>
comple te</w>
ic an</w>
applic ations</w>
fe et</w>
uni ties</w>
t ext</w>
atten tion</w>
dest ro
ol s</w>
J u
the m
spe ak</w>
re pe
M a
contribu tion</w>
i ly</w>
e .
h it</w>
min e</w>
writ ten</w>
ren ces</w>
de tec
o ther
r ying</w>
to wards</w>
Gen eral</w>
whe re
M ay
ing dom</w>
cre ate</w>
s .</w>
character is
wi de</w>
e arly</w>
g ri
su d
sur ing</w>
F in
li sted</w>
impro ve</w>
bene fici
func tion</w>
s ou
l l
ffe red</w>
cou ple</w>
bre ak</w>
struc tion</w>
il it
al though</w>
re ment</w>
G o
great er</w>
L et</w>
st ra
oper ators</w>
i ve</w>
ar ri
pre si
enfor cement</w>
Di d</w>
bo x</w>
econom y</w>
bal ance</w>
be y
be gan</w>
bre a
am ounts</w>
2 1</w>
fail ure</w>
o s</w>
ki d</w>
en suring</w>
acc oun
oun ded</w>
deci de</w>
re ven
sub stan
them selves</w>
e ase</w>
paragrap hs</w>
juris diction</w>
A gre
B ec
app lies</w>
centr al</w>
some times</w>
au tom
essenti al</w>
e u
equ al</w>
Com e</w>
g .</w>
wat ch</w>
o p</w>
consum er</w>
ic s</w>
x i
4 0</w>
qu ar
se a</w>
ex tent</w>
ste ad</w>
con ver
si ze</w>
lo ss</w>
ha ir</w>
indic ated</w>
er ror</w>
car ri
0 0
ant i</w>
ti n</w>
y er</w>
/ 9
o grap
tre ated</w>
work ers</w>
r us
so li
follow ed</w>
d ance</w>
pl ying</w>
acc ounts</w>
ke pt</w>
f air</w>
we ight</w>
lim its</w>
sh or
f ing
hol ders</w>
tru th</w>
b at
institu tion</w>
provi ding</w>
pa rent</w>
en tered</w>
' cause</w>
regi ons</w>
an tly</w>
no te</w>
G er
appe ar</w>
fic ations</w>
L e
oc cu
contain s</w>
be gin
ali a</w>
E EC</w>
ren ch</w>
e at</w>
gr ounds</w>
t ari
po p
c ris
p ter</w>
amen ded</w>
e ur
bey ond</w>
cor por
ex ternal</w>
G re
process ing</w>
p ain
ar ticles</w>
d ity</w>
vic ti
b ru
v ely</w>
den ts</w>
vi ol
pri or</w>
per fec
fil led</w>
stat us</w>
T E
w all</w>
al o
comp ared</w>
run ning</w>
pers on
val ues</w>
im ag
origin al</w>
lo s
du ties</w>
app ed</w>
condi tion</w>
Wh o</w>
do w
re main</w>
an ces</w>
e ffici
hus band</w>
prog ress</w>
jec ted</w>
re duce</w>
pres sure</w>
h en
medic inal</w>
E urope</w>
cl ass</w>
ste p</w>
A R
ag ency</w>
y ed</w>
lan ds</w>
ad ap
tem por
in ter</w>
enti ty</w>
establish ment</w>
super vis
pro hi
is s</w>
l led</w>
requi res</w>
it ary</w>
e. g.</w>
minu te</w>
gui delines</w>
po st</w>
sta tis
fac ilit
Par liament</w>
anal y
continu ed</w>
off er</w>
i ed</w>
mis s</w>
t ment</w>
glo bal</w>
hear ing</w>
bro ad
adju st
fuc k</w>
hur t</w>
na tion
Bec ause</w>
affec t</w>
200 3</w>
m outh</w>
pre ci
d aughter</w>
W ith</w>
us ers</w>
I C
par liament</w>
lo se</w>
A T</w>
Agre ement</w>
regul atory</w>
es '</w>
stop ped</w>
gu ess</w>
ne l</w>
C an</w>
equi val
May be</w>
ori gin</w>
te am</w>
succ ess
relation ship</w>
dd le</w>
stu ff</w>
meth ods</w>
I II</w>
pow ers</w>
l ay</w>
pen sion</w>
citiz ens</w>
tr ad
Tre at
m us
co ld</w>
ra ised</w>
selec ted</w>
f la
meas u
agricul tural</w>
de l</w>
l ying</w>
fi gu
j our
el ements</w>
ho sp
respon se</w>
op ened</w>
al leg
noti fied</w>
judic ial</w>
cas h</w>
z z
fac ts</w>
fore ign</w>
2 2</w>
techno logy</w>
d a</w>
k in</w>
go es</w>
mess age</w>
i m</w>
adop tion</w>
diffic ult</w>
l en
m er</w>
m ir
st ated</w>
implemen ted</w>
vol u
flo or</w>
te sts</w>
professi onal</w>
9 /
dam age</w>
avo id</w>
har mon
f ish</w>
un it</w>
arrange ments</w>
ha ps</w>
transp a
H is</w>
particip ation</w>
infra structure</w>
indu stri
e ye</w>
oper ational</w>
con tain</w>
ac ci
pap er</w>
gi ving</w>
c ks</w>
concer ns</w>
inclu des</w>
sur vi
. .</w>
cour ts</w>
dr ink</w>
dra wn</w>
3 /
2 3</w>
re ach</w>
guaran te
e sts</w>
qu ick
O n
qu ite</w>
inform ed</w>
deta iled</w>
mo ved</w>
exerc ise</w>
n or</w>
produc ed</w>
ke e
develop ed</w>
bu y</w>
stu pi
adequ ate</w>
P e
ag ing</w>
A f
langu age</w>
am es</w>
require ment</w>
b all</w>
co l</w>
is es</w>
dis ease</w>
m oun
ob tained</w>
in form</w>
treat y</w>
feel ing</w>
wal ked</w>
er r
cra zy</w>
ai med</w>
A C
tar get</w>
deb t</w>
pl ans</w>
no ted</w>
wor ked</w>
e gi
emplo ye
reduc ed</w>
im port</w>
sub sequ
P R
indepen dent</w>
descri bed</w>
crimin al</w>
.e .</w>
se ems</w>
am er
pl ant</w>
es tic</w>
mo di
noti fication</w>
regar ded</w>
as king</w>
marke ting</w>
f requ
diffe rence</w>
sol ution</w>
am s</w>
. '</w>
bo t
wal k</w>
t in
G u
ris e</w>
alter na
s w
F ir
s ource</w>
e urope</w>
fa ult</w>
i .e.</w>
B y</w>
propor tion
der ing</w>
6 .
al ised</w>
ten ce</w>
to ber</w>
practic es</w>
certific ate</w>
pre pa
sur ve
2 8</w>
adop t</w>
exist ence</w>
in come</w>
e ful</w>
exam ination</w>
windo w</w>
in stead</w>
characteris tics</w>
repor ting</w>
ca re
ali ve</w>
eli gible</w>
as es</w>
gre en</w>
justi ce</w>
materi als</w>
b on</w>
le ment</w>
A S</w>
dev ice</w>
rec ital</w>
p re</w>
vehic les</w>
eas y</w>
cho ice</w>
se m
en jo
ca used</w>
s cen
conclu sion</w>
l ack</w>
h om
ho od</w>
to col</w>
le ase</w>
sur pr
I P</w>
se l</w>
us er</w>
ex tr
b s</w>
c ent</w>
ga tive</w>
e p
cen t
u te</w>
some body</w>
publis hed</w>
reg ular</w>
medic al</w>
in de
observ ed</w>
sub stance</w>
gir ls</w>
design ed</w>
trans actions</w>
pre ven
e ous</w>
ment ary</w>
as sum
import ance</w>
s at</w>
2 7</w>
d ations</w>
de p
mur der</w>
Treat y</w>
he av
sustain able</w>
trou ble</w>
advant age</w>
any more</w>
ac qui
qu e</w>
2 /
se x</w>
regi stered</w>
serv ed</w>
fi gh
ner ship</w>
S ome
th ous
scienti fic</w>
dom estic</w>
mar ried</w>
reco very</w>
consum ption</w>
us ually</w>
rec ord</w>
st ers</w>
In ter
wat ching</w>
ex plain
fac tors</w>
I S</w>
dri ve</w>
on ed</w>
stupi d</w>
consum ers</w>
E E
other wise</w>
p us
ear th</w>
pl aying</w>
4 /
electr onic</w>
cal ls</w>
v or
struc turing</w>
b le
speci es</w>
entit led</w>
regul ations</w>
b ase</w>
resi dent</w>
in ing</w>
in flu
mo ving</w>
chec ks</w>
achi eved</w>
A n</w>
head ing</w>
ou d</w>
applic ants</w>
sho wed</w>
defin ition</w>
it able</w>
P o
fun d</w>
r ates</w>
strat egi
g ate</w>
wr ite</w>
ph arm
car rying</w>
sk in</w>
cris is</w>
propos als</w>
mat ters</w>
volu me</w>
regi on</w>
innov ation</w>
as pec
6 0</w>
op tion</w>
en cour
separ ate</w>
Fir st</w>
ev ents</w>
increas ing</w>
begin ning</w>
A p
201 4</w>
ou gh
oper ator</w>
un ited</w>
in stance</w>
dam n</w>
recommen ded</w>
e k</w>
a x
to ward</w>
sub stances</w>
en cies</w>
co he
man ner</w>
str ai
establis hing</w>
r ac
r s</w>
hi story</w>
secre t</w>
ge ograp
mo vement</w>
8 /
mar ri
stre et</w>
eur o</w>
l un
achi eve</w>
ho t</w>
sal e</w>
mar ks</w>
logi es</w>
vi a</w>
att ack</w>
f ell</w>
clin ical</w>
de ep</w>
s un
cri me</w>
cap able</w>
dow n
s it</w>
representa tive</w>
for get</w>
2 6</w>
opport unity</w>
distribu tion</w>
l y
si des</w>
x im
s cal
ther ap
lab our</w>
eval u
pati ent</w>
quick ly</w>
fun da
instru ment</w>
o re
dis crimin
H ar
d ding</w>
a ther</w>
sho wn</w>
s tic
recogn ised</w>
pt ember</w>
consist ent</w>
correc t</w>
d ai
affec ted</w>
ad vis
dra w</w>
on g
prepa red</w>
in tel
ste ps</w>
in fec
offic er</w>
re placed</w>
li qui
sit ting</w>
d on
an g
in ci
b ar</w>
curren tly</w>
pre c
d ates</w>
ec h</w>
M e
R o
a tives</w>
2 9</w>
Q u
contain ing</w>
ac qu
oper ate</w>
justi fied</w>
cre ated</w>
constitu te</w>
in jur
argu ment</w>
than ks</w>
5 /
effici ency</w>
develop ing</w>
si ster</w>
conduc t</w>
im posed</w>
nam es</w>
bo ys</w>
6 /
equival ent</w>
ag ree</w>
sp ent</w>
200 2</w>
no tes</w>
presi dent</w>
effor ts</w>
cau ght</w>
P ol
Af ter</w>
la un
D o
ta tions</w>
o il</w>
el ess</w>
i ties</w>
des er
d on</w>
al ing</w>
l ady</w>
b led</w>
fil es</w>
ac ked</w>
sec tors</w>
sel y</w>
re structuring</w>
mo del</w>
mi ddle</w>
accep ted</w>
b in
regi stration</w>
see m</w>
bor n</w>
regar ding</w>
p age</w>
cra ft</w>
pi ece</w>
promis e</w>
h n</w>
del eg
ess els</w>
is on</w>
appe ars</w>
A mer
gen ce</w>
T o
contribu te</w>
resul ting</w>
T F
Dec ember</w>
t asks</w>
com ments</w>
l uc
pro of</w>
ne gative</w>
declar ation</w>
ob tain</w>
star ting</w>
ther more</w>
pp ing</w>
pop ulation</w>
compati ble</w>
E N
fa iled</w>
f arm
contr ary</w>
emis sions</w>
posi tive</w>
i gn
m m</w>
e ts</w>
bl ue</w>
ac hing</w>
v essels</w>
promo te</w>
ac cept</w>
d red</w>
ab s
st ore</w>
pl as
F e
tr av
sho ws</w>
pres s</w>
mil itary</w>
st ly</w>
pharm ac
0 .
we b
g la
ob vi
tran si
leav ing</w>
dem and</w>
s en</w>
op ening</w>
aw are</w>
se ven</w>
tra di
ord ination</w>
s low
s ources</w>
din ner</w>
dur ation</w>
la ws</w>
free dom</w>
recei ve</w>
C ha
e ight</w>
att emp
d ged</w>
do g</w>
dat ab
le ts</w>
pris es</w>
F un
L A
suppor ted</w>
cho ose</w>
gr and
f low
pass ed</w>
C ar
ser ver</w>
p un
cap tain</w>
dum ping</w>
fin ding</w>
si a</w>
stran ge</w>
A s
interpre tation</w>
ass es</w>
s er</w>
den ly</w>
deta ils</w>
gl ass</w>
fu n</w>
mil k</w>
mo der
ple a</w>
abs ence</w>
m al
en ty</w>
y l
jec tion</w>
foc us</w>
devel op</w>
ar ity</w>
calcul ated</w>
au dit</w>
ne ws</w>
fe ar</w>
reason able</w>
dec ember</w>
di g
a me
200 0</w>
er ring</w>
hun dred</w>
categ ory</w>
we red</w>
c ell</w>
0 /
assess ed</w>
ini tial</w>
commit ments</w>
r ic
al ed</w>
li ghts</w>
r s.</w>
sit u
en able</w>
s ch
protec ted</w>
inst al
st ation</w>
ver sion</w>
ne ar</w>
der o
contain ed</w>
en tr
spe ed</w>
lear n</w>
lin k</w>
per man
competi tive</w>
S er
ob ject</w>
selec tion</w>
lin ked</w>
expl ain</w>
ex pos
part ment</w>
min ary</w>
pic ture</w>
presen ted</w>
main tain</w>
hol der</w>
A D
bud ge
af ter
marri age</w>
funda mental</w>
v es
hosp ital</w>
ban ks</w>
at ures</w>
em o
medi um</w>
sim ple</w>
gh tly</w>
k ers</w>
n uc
fo ot
sh oul
mil es</w>
commit ted</w>
ass ess</w>
ear lier</w>
vers ity</w>
sam ple</w>
ap plying</w>
diffic ul
de si
F ur
to m</w>
es cap
t le
cle an</w>
appe ared</w>
tiv ity</w>
n u
de sign</w>
produc er</w>
de ad
so ld</w>
ver ing</w>
alterna tive</w>
ann ul
correspon ding</w>
it ation</w>
pre gn
V AT</w>
mi le</w>
in struc
comple ted</w>
b on
pl ayed</w>
com for
p al
r o</w>
con v
resi dence</w>
char ges</w>
fu el</w>
P lease</w>
legis la
ne igh
m ail</w>
manufactu rer</w>
wor ry</w>
an e</w>
ad verse</w>
writ ing</w>
gener ally</w>
provis i
h ical</w>
to x
sk y</w>
vol un
b ing</w>
happ ens</w>
Re public</w>
loc ation</w>
stor age</w>
me at</w>
pre li
l am
tain ing</w>
c ard</w>
O P
mach ine</w>
dan ger
D P</w>
Ar ticles</w>
i zed</w>
en em
sto ck</w>
st one</w>
sur face</w>
U S</w>
un its</w>
imple ment</w>
ali an</w>
sub paragraph</w>
recommen dations</w>
tempor ary</w>
o x
ti ally</w>
w in</w>
t ten</w>
gra m</w>
lo ad</w>
sh ar
n ar
fi f
public ation</w>
so f
streng th
loc ated</w>
per haps</w>
sud denly</w>
h ate</w>
bu t
contr acting</w>
H e
preli minary</w>
el ling</w>
be ar</w>
N or
ab ilities</w>
p sy
ac ks</w>
mis si
col le
S o
ar ch
dra ft</w>
vali d</w>
sh ut</w>
s chem
sus pec
il ing</w>
si c</w>
TF EU</w>
phys ical</w>
electr icity</w>
w ind</w>
argu ments</w>
mic ro
ing u
ta il</w>
c ulation</w>
ac compan
consequ ences</w>
m its</w>
le ar</w>
s wit
as h
confir med</w>
i e</w>
p ick</w>
i er</w>
l ess
co ordin
expos ure</w>
or k</w>
e fficient</w>
conf lic
lis h</w>
8 0</w>
weap ons</w>
enti ties</w>
ing ing</w>
inspec tion</w>
s ell</w>
w ine</w>
gu ard</w>
su n</w>
po or</w>
s ort</w>
fi es</w>
rele ase</w>
de mo
lo ved</w>
199 9</w>
some where</w>
wo od</w>
E N</w>
TH E</w>
sec u
effec tiveness</w>
pro ve</w>
part ners</w>
gg est</w>
qu o
a king</w>
pri ority</w>
cat ch</w>
plac es</w>
g en</w>
tr ain</w>
di alo
consider ation</w>
Su b
a wa
dispu te</w>
a head</w>
sha res</w>
fis her
ag ent</w>
budge tary</w>
indic ate</w>
lo ad
enter prises</w>
bra in</w>
ob s</w>
wor th</w>
z ing</w>
mi gr
comb ination</w>
cl ari
plan ned</w>
spo ke</w>
P er
am ing</w>
dai ly</w>
g ent</w>
L a
where as</w>
b our
c er</w>
b an</w>
legisla tive</w>
appro xim
et c</w>
ann oun
can di
mis sing</w>
o ffered</w>
concer n</w>
d y
connec ted</w>
ti s</w>
di vor
en ding</w>
TI ON</w>
ev ening</w>
sol di
su ffici
be ha
me ant</w>
subsi di
se at</w>
amend ment</w>
et ings</w>
M on
impro ving</w>
ari ly</w>
tou ch</w>
ur ing</w>
f light</w>
ves sel</w>
jud ge</w>
j un
m un
lead ing</w>
beli ev
danger ous</w>
re d
w is
a i</w>
exce ed</w>
um p</w>
ap o
en ab
so ft</w>
read ing</w>
con struction</w>
reven ue</w>
pho to
recor ds</w>
tain s</w>
cal culation</w>
introduc ed</w>
ad ver
exec u
remain s</w>
er ation</w>
A S
Go od</w>
G over
co ordination</w>
des p
hy dro
ple as
tri bu
ar ti
mo vi
spo t</w>
3 5</w>
plan ning</w>
re ci
terri ble</w>
ma ster</w>
gr y</w>
s ex
ra ti
le gi
pre hen
lo y
A T
ol der</w>
quanti ty</w>
signific antly</w>
lear ned</w>
bec ame</w>
res h</w>
pl at
custom ers</w>
ess ed</w>
t op
su res</w>
bru ary</w>
plan et</w>
aspec ts</w>
adv ice</w>
lic ence</w>
cha pter</w>
success ful</w>
form ation</w>
recogn ition</w>
categ ories</w>
compon ents</w>
cha ir</w>
k in
f ru
mis sed</w>
2 5
allow s</w>
thr ough
Ne w</w>
func tioning</w>
cre ation</w>
I V</w>
re public</w>
rec ent</w>
contribu tions</w>
medic ine</w>
num bers</w>
pres ence</w>
2 9
pic ked</w>
om s</w>
kil ls</w>
contro ls</w>
re turned</w>
cre dit
comm and</w>
cha m
t ask</w>
pl ay
exam ined</w>
sy m
l ord</w>
li ability</w>
accoun ting</w>
initi ative</w>
pack age</w>
s mar
collec tion</w>
vis i
expres sed</w>
dr in
ori z
br an
lab or
exam ine</w>
l eng
any way</w>
clim ate</w>
go tten</w>
strai ght</w>
wor se</w>
exemp tion</w>
denti al</w>
Un ited</w>
identi fication</w>
I m
k ingdom</w>
bro ken</w>
industri al</w>
su ff
cal ling</w>
n one</w>
tra vel</w>
con ven
re mem
oc curred</w>
der i
a tically</w>
po st
descri ption</w>
dre am</w>
geograp hical</w>
bus in
syst em
de g
ti ll</w>
prof it</w>
3 0
ach es</w>
gla d</w>
d ying</w>
dr ag
an ced</w>
adjust ment</w>
perfec t</w>
200 1</w>
we ar</w>
tim ate</w>
sign s</w>
bec om
del e
e uro
ar ance</w>
ter r
k g</w>
s ick</w>
through out</w>
si ght</w>
p ass</w>
expec t</w>
schem es</w>
f our
concentr ation</w>
M ay</w>
tu ally</w>
requ ests</w>
clo sure</w>
sta ke
emer gency</w>
gi ves</w>
p .</w>
7 /
th ir
re jected</w>
me etings</w>
amend ments</w>
del ay</w>
S h
pe ace</w>
norm ally</w>
coun ter
scal e</w>
dist inc
di stance</w>
di a</w>
in ese</w>
air craft</w>
certain ly</w>
consul tation</w>
de pos
z er
trans mission</w>
O r
y ours</w>
chall en
( 1
i d
mechan ism</w>
memor y</w>
ke ts</w>
respec tive</w>
go ld</w>
min ist
s co
i sts</w>
ser i
charac ter</w>
S ome</w>
ali ties</w>
m ass</w>
reduc ing</w>
it ems</w>
coun t</w>
con vention</w>
promo ting</w>
ad d</w>
us ual</w>
u d
el led</w>
pul led</w>
bre ak
n it
cre ating</w>
C I
integr ation</w>
bi tion</w>
4 5</w>
in curred</w>
Au th
c k
O F</w>
law yer</w>
bur den</w>
on er</w>
part ner</w>
nuc lear</w>
suffici ently</w>
dom in
Ac cor
clai med</w>
manag ed</w>
tr af
pres cri
pro duce</w>
secon ds</w>
G et</w>
s y</w>
ordin ary</w>
employe es</w>
ster n</w>
gen tle
beha vi
ba g</w>
addres sed</w>
diffe rences</w>
resol ution</w>
c ab
d ry</w>
O r</w>
techno logies</w>
dis cre
pro per</w>
invest ments</w>
pp er</w>
excep tion</w>
see ing</w>
datab ase</w>
te sting</w>
air port</w>
slow ly</w>
ff s</w>
identi fy</w>
th row</w>
pos si
F or
pl us</w>
cop y</w>
me t
fin ance</w>
form ity</w>
k it
ex ist</w>
figh ting</w>
Se e</w>
acc ur
sp end</w>
ous es</w>
comm an
her self</w>
j obs</w>
re actions</w>
traf fic</w>
e th</w>
or al</w>
th ou
vo te</w>
eng ine</w>
ar my</w>
( 4</w>
deg ree</w>
st airs</w>
a ff
C ap
li ved</w>
contro lled</w>
or dered</w>
g ger</w>
for ced</w>
h ou
9 0</w>
vi de
Accor ding</w>
e ds</w>
benefici ary</w>
recei ving</w>
dec la
lat ter</w>
struc tural</w>
sug ge
C har
on y</w>
fe ed</w>
dri ver</w>
si an</w>
cle an
b ling</w>
st ant</w>
ap preci
ul l</w>
th es</w>
an cy</w>
buil t</w>
S uch</w>
J anuary</w>
s ity</w>
dev ices</w>
restric tions</w>
sug ar</w>
2 3
plan e</w>
no t
wh om</w>
li gh
chall eng
l in</w>
al isation</w>
O f</w>
ho se</w>
j anuary</w>
b om
O J</w>
pre jud
ap ar
cro s
ar ising</w>
lic en
form er</w>
dro p</w>
E ven</w>
E D
J une</w>
maj ority</w>
G DP</w>
si vely</w>
san c
f low</w>
(1 )(
bin ding</w>
prejud ice</w>
perman ent</w>
2 4
pri mary</w>
ho le</w>
T here
M c
EC B</w>
en ded</w>
representa tives</w>
form al</w>
dri ving</w>
ag ue</w>
ref erring</w>
per cent
bi lities</w>
mo reover</w>
dou ble</w>
wat ched</w>
k a</w>
ag g
pro gram</w>
su b</w>
fac ilities</w>
re rs</w>
tt on</w>
trans action</w>
injur y</w>
remo ved</w>
E F
su red</w>
doub t</w>
nor th</w>
appropri ations</w>
M an
f resh</w>
ri st
hum ans</w>
l o</w>
tw ice</w>
ad mis
re move</w>
S ince</w>
in sul
tr ack</w>
r y
exten ded</w>
O K</w>
m l</w>
s at
qu e
sy n
o logical</w>
plan ts</w>
an a</w>
speci fic
fin dings</w>
ex ha
i ze</w>
1 1
simp ly</w>
cam er
proper ly</w>
ren cy</w>
co ffe
a tion
r am
peri ods</w>
suppor ting</w>
mu sic</w>
fis c
h uh</w>
exper ts</w>
hu ge</w>
com prehen
lat est</w>
quanti ties</w>
cen tur
thin ks</w>
bro ke</w>
tel e
lo an</w>
re serv
T S</w>
provisi onal</w>
7 .
b loo
facilit ate</w>
ph ase</w>
therap y</w>
CO M
h i</w>
ra ise</w>
s la
opport unities</w>
ul es</w>
transp or
simp li
de duc
al le
commit ment</w>
hon ey</w>
T V</w>
ac ted</w>
pen al
f at</w>
ap poin
ten der</w>
expor ting</w>
EE A</w>
at tribu
g un
emp ty</w>
tal ked</w>
re vie
web site</w>
situ ations</w>
nec k</w>
fo ot</w>
ari an</w>
o k
ill ance</w>
am az
An y</w>
tri al</w>
certain ty</w>
for d</w>
r ound</w>
explain ed</w>
ther lands</w>
fal ling</w>
y le</w>
loc ked</w>
ap pointed</w>
bit ch</w>
we ak
nam ely</w>
conclu sions</w>
re form</w>
S ME
l a</w>
cl ick</w>
noti fy</w>
in f
ap s</w>
I F
design ated</w>
in ary</w>
3 2</w>
net works</w>
def end
introduc tion</w>
subsequ ent</w>
k ni
pre ce
F ro
j une</w>
S A</w>
t ol
s outh</w>
19 8
ex plan
stric t</w>
classi fied</w>
clo thes</w>
There fore</w>
bo at</w>
tri c</w>
d den</w>
thous and</w>
sho ot</w>
O N
inter net</w>
direc tion</w>
rul ing</w>
el ement</w>
selec t</w>
en ger</w>
main ly</w>
los ses</w>
di men
busin esses</w>
op tions</w>
m el
w est</w>
H ave</w>
res sed</w>
avo i
w ers</w>
associ ation</w>
ser ies</w>
cel ls</w>
di an</w>
as ing</w>
on to</w>
cre w</w>
re ve
complain t</w>
fac tor</w>
bil lion</w>
ro b
every body</w>
pi re</w>
C H
integr ated</w>
hon or</w>
effec tively</w>
consequ ently</w>
ve ments</w>
U N
ag e
no tic
dist or
as set</w>
pan el</w>
c ru
tur ns</w>
supp le
Gover n
dru g</w>
C ol
con formity</w>
s ac
comple x</w>
stat ements</w>
buil d</w>
reali zed</w>
7 0</w>
Fur thermore</w>
gover ning</w>
vis it</w>
l and
mar ch</w>
ri c</w>
c ket</w>
ul ly</w>
fu sion</w>
transpa rency</w>
S y
acci dent</w>
for tun
th i
eas ily</w>
r on
Mo reover</w>
bo y
ti l
un k</w>
F i
decla red</w>
con cept</w>
rela tions</w>
it em</w>
centr e</w>
sha do
s ca
O R
boo ks</w>
supervis ory</w>
uni form</w>
gro wing</w>
veri fication</w>
ro ck</w>
: 00</w>
g ust</w>
R es
A L</w>
medi a</w>
pris on</w>
0 ,
pow er
ru p
victi m</w>
exc use</w>
p ath</w>
pro cu
G o</w>
de ar</w>
be t</w>
20 20</w>
at tr
au di
kil ling</w>
Bo ard</w>
m unic
A gency</w>
mu tual</w>
en t
sy mp
coffe e</w>
classi fication</w>
ti red</w>
wee k
stake holders</w>
7 5</w>
jo in</w>
we igh
t ex
W i
as hed</w>
st ac
ra w</w>
att ached</w>
Re gi
ho tel</w>
imag ine</w>
influ ence</w>
be red</w>
as on</w>
regi ster</w>
Ju ly</w>
inv ited</w>
percent age</w>
z one</w>
res cu
ki d
approxim ately</w>
ag ents</w>
lar g
purch ase</w>
hi de</w>
head s</w>
struc tures</w>
ri ver</w>
o do
te en</w>
hor se</w>
tre m
tr uck</w>
great est</w>
fin ished</w>
pro tocol</w>
s wi
do ll
el im
pres sed</w>
l ling</w>
men ted</w>
B el
v acc
chec ked</w>
t i</w>
expres sion</w>
re vis
any body</w>
fore st</w>
rep ly</w>
ev ol
pos al</w>
z en</w>
exper t</w>
defin i
monit or</w>
s pl
sa ved</w>
in jection</w>
r ad
windo ws</w>
v an</w>
ab sol
deb tor</w>
dar k
leng th</w>
E S</w>
cho sen</w>
min i
tem per
col um
inst all
destro y</w>
transf erred</w>
bel on
under stood</w>
estim ated</w>
demonstr ated</w>
effor t</w>
ra in</w>
sci ence</w>
4 0
E I
prac tical</w>
R i
S ta
ful fil
competi tiveness</w>
fi l</w>
t ally</w>
perform ed</w>
W or
cu sto
pres sion</w>
be at</w>
ti e</w>
b ought</w>
sm all
no on</w>
/200 6</w>
G e
figu red</w>
sel ling</w>
v a</w>
P S</w>
stic k</w>
O c
dra w
l au
b ound</w>
we aring</w>
divor ce</w>
tur ning</w>
T hose</w>
inter vention</w>
2 8
surve illance</w>
re mun
sen si
oc cas
exclu ded</w>
H ere</w>
recor ded</w>
s is</w>
b la
fav our
lo ans</w>
procu rement</w>
se min
radi o</w>
gran ting</w>
chan ging</w>
f er</w>
r ich</w>
initi atives</w>
process es</w>
determin ing</w>
Li ke</w>
in ser
st ar</w>
ch ur
s mil
ed ge</w>
SME s</w>
to ols</w>
ne ither</w>
annul ment</w>
sam pl
fi x</w>
hi c</w>
alloc ation</w>
under standing</w>
ev ing</w>
R us
de partment</w>
n ine</w>
s kills</w>
dec reas
sh ir
fil m</w>
streng th</w>
high ly</w>
st ability</w>
I M
four th</w>
he at</w>
li ar</w>
b o</w>
O ther</w>
ju ly</w>
leg s</w>
smar t</w>
acc es
evi l</w>
observ ations</w>
it als</w>
g ol
offici als</w>
u tions</w>
she et</w>
heav y</w>
dur al</w>
def ence</w>
2 6
On ly</w>
M ic
au dit
al co
exp an
s ounds</w>
s mile</w>
tre at</w>
cro w
3 6</w>
R ec
M i
specific ally</w>
im possible</w>
negoti ations</w>
ref er</w>
us eful</w>
shor t
occu r</w>
discrimin ation</w>
nam ed</w>
i i</w>
wal ls</w>
deli very</w>
s cri
mi d
in cen
u d</w>
assess ing</w>
n ur
ref un
is ms</w>
finan ced</w>
employ ed</w>
intel li
t ree</w>
cl es</w>
v ill
war ded</w>
sol ven
apar tment</w>
medic ines</w>
defend ant</w>
strategi c</w>
f oun
f it
man i
par ame
ste el</w>
sh el
op s</w>
indic ators</w>
symp tom
st ab
re new
min im
ma d</w>
su itable</w>
br inging</w>
chem ical</w>
cor e</w>
di r
luc ky</w>
car s</w>
y el
qui et</w>
Con vention</w>
cul tural</w>
be d
chi ef</w>
hel ped</w>
n om
instruc tions</w>
a th
ri de</w>
s ession</w>
ori al</w>
regi me</w>
lear ning</w>
guarante es</w>
happ ening</w>
kee ping</w>
Ger many</w>
alloc ated</w>
indic ation</w>
S tr
im age</w>
exten sion</w>
gu il
diffe ren
clo ser</w>
ar dis
promis ed</w>
fe es</w>
E uro
s lo
de emed</w>
mis sions</w>
thre at
T ell</w>
con soli
p in
por ts</w>
gu ards</w>
f rench</w>
tre es</w>
cli ent</w>
st ro
per mit</w>
k ne
g ain
re in
re a
accompan ied</w>
E very
benefici aries</w>
func tions</w>
sha re
challeng es</w>
v an
th or
wh is
s ought</w>
Fro m</w>
ca ref
install ation</w>
ther n</w>
ro te</w>
se v
fe rences</w>
f it</w>
fe der
M arch</w>
3 7</w>
des k</w>
d ary</w>
tin y</w>
pay ing</w>
hou se
3 3</w>
mo d
enjo y</w>
cr y
sett lement</w>
movi e</w>
cor ner</w>
individu als</w>
as signed</w>
r ace</w>
h n
bo ss</w>
th in</w>
j ac
I I
and y</w>
5 00</w>
remain ing</w>
reali ze</w>
A P
F rench</w>
z ech</w>
l ap
fiel ds</w>
streng then</w>
we dding</w>
tw enty</w>
w rote</w>
p on
sub mits</w>
adv ance</w>
difficul ties</w>
f ly</w>
def en
un g</w>
proce dural</w>
t ac
be half</w>
B ar
low ing</w>
hand le</w>
eng ers</w>
high est</w>
clo sely</w>
ap parent</w>
4 8</w>
compe tence</w>
stru gg
caref ully</w>
proportion ate</w>
Par ties</w>
develop ments</w>
ye ster
se t
inv o
v ac
mach ines</w>
T A
enem y</w>
sev ere</w>
pri orities</w>
ha m
ri l</w>
bri dge</w>
an ks</w>
cha in</w>
an ci
dr .</w>
e th
yester day</w>
inter ven
tu red</w>
Th ank</w>
de fault</w>
invol ving</w>
is land</w>
prepar ation</w>
Sub ject</w>
v ul
strength ening</w>
E A
desp ite</w>
statis tics</w>
we ird</w>
intere sting</w>
l ay
m ad
S te
cen ter</w>
| |</w>
a p</w>
admini stered</w>
m ac
up date</w>
ri d</w>
tab les</w>
r at
sou l</w>
p ac
am ed</w>
comprehen sive</w>
de fic
supp lied</w>
mil li
me rely</w>
mag ic</w>
fri end
co vers</w>
fir m</w>
en vis
oc cur
escap e</w>
obvi ously</w>
a ward</w>
dec re
h oriz
dialo gue</w>
solven cy</w>
bor ne</w>
us h</w>
es sive</w>
is h
u b
f ted</w>
Govern ment</w>
compon ent</w>
victi ms</w>
P resident</w>
seri ously</w>
cy cle</w>
li ked</w>
O ur</w>
ag encies</w>
colle ge</w>
power ful</w>
S i
won der</w>
boy friend</w>
/200 4</w>
s word</w>
wh o
w w
pul l</w>
Oc tober</w>
ac tors</w>
E M
co ol</w>
speci fy</w>
gi an</w>
h il
ch en</w>
M r</w>
main tained</w>
fle xi
l ac
mar ked</w>
fing ers</w>
rece ip
b ye</w>
weap on</w>
fun ny</w>
ur ity</w>
n es</w>
20 0</w>
g al
interpre ted</w>
bre ach</w>
frequ ency</w>
constitu tes</w>
sum mer</w>
E ar
P r
du le</w>
ho st</w>
K ingdom</w>
bot tom</w>
super vision</w>
pri l</w>
fisc al</w>
sa v
N C
inter medi
Auth ority</w>
ci vi
ti tle</w>
car bon</w>
Wh ich</w>
autom atically</w>
Pro gram
me tal</w>
su me</w>
e ded</w>
n esses</w>
f as
T wo</w>
statis tical</w>
kil ler</w>
remun eration</w>
ad dy</w>
wel come</w>
l augh
pres ents</w>
li ver</w>
rec ently</w>
ne u
t ch</w>
for ces</w>
hel ping</w>
determin ation</w>
J usti
remain ed</w>
T R
gro w</w>
part nership</w>
sp or
war m</w>
au d
sho p</w>
st able</w>
U h</w>
f am
ger many</w>
gentle men</w>
cohe sion</w>
O ffici
mechan isms</w>
shoul der</w>
promo tion</w>
mar i
str on
o red</w>
dru gs</w>
ap art</w>
conflic t</w>
p are</w>
ess ing</w>
f em
ac id</w>
pass engers</w>
pass enger</w>
fisher ies</w>
el e
it es</w>
No v
clu b</w>
er t</w>
mist ake</w>
acqui red</w>
p al</w>
sto red</w>
sec ure</w>
j er
particip ants</w>
previ ously</w>
m rs.</w>
reci pi
co vering</w>
t ap
satis fac
star ts</w>
re al
Sec tion</w>
y a</w>
A pril</w>
sp ort</w>
M in
s ar
identi ty</w>
3 4</w>
figu res</w>
v ice</w>
bat tle</w>
meth odo
conv in
re min
am a</w>
sub mission</w>
prohi b
en ced</w>
S I
soldi ers</w>
ad s</w>
2 7
oc tober</w>
fl at</w>
hop ing</w>
b ac
challen ge</w>
photo grap
spir it</w>
1 ,
ac com
re place</w>
/200 3</w>
p as
stre am</w>
ri es</w>
En g
symptom s</w>
dan ger</w>
ag s</w>
be gin</w>
bu s</w>
mo on</w>
y ers</w>
Ac c
E ach</w>
tradi tional</w>
G i
demonstr ate</w>
vide o</w>
inv en
direc tor</w>
adver ti
T A</w>
re plac
veri fy</w>
amer ican</w>
believ es</w>
dra wing</w>
arri ved</w>
d ress</w>
im bur
ul ations</w>
curren cy</w>
comb ined</w>
alleg ed</w>
pu tting</w>
han g</w>
fac es</w>
3 8</w>
fin ish</w>
an gry</w>
tion ally</w>
sit es</w>
lo dged</w>
scen e</w>
deli vered</w>
sho o
amaz ing</w>
pre pare</w>
p ra
un t</w>
H er</w>
wil ling</w>
alco ho
pre ten
trad ing</w>
excep tional</w>
conduc ted</w>
s low</w>
contr actual</w>
intro duce</w>
see k</w>
ir y</w>
ra il
cam p
initi ated</w>
4 3</w>
r ural</w>
p il
decre ase</w>
b lock</w>
k o
represen ted</w>
ph as
ev en
measu red</w>
tion ary</w>
de man
st y</w>
pre vention</w>
pre sum
tar gets</w>
acc ession</w>
r ay</w>
terr or
har m</w>
A b
compar able</w>
ha bit
legi timate</w>
p ack</w>
A L
cha ir
swe et</w>
as sem
ne arly</w>
collec ted</w>
ru b
R ight</w>
dero gation</w>
wor st</w>
pos ing</w>
ec es</w>
se es</w>
ap ril</w>
sp read</w>
per form</w>
l or
re present</w>
ob stac
le an
W e
tech ni
beli eved</w>
hi le</w>
et ary</w>
impro ved</w>
ma p</w>
visi ble</w>
6 0
3 9</w>
bre ath</w>
fore ver</w>
y '</w>
dis posal</w>
z ation</w>
li ps</w>
compar ison</w>
immedi ate</w>
er ion</w>
migr ation</w>
we b</w>
ill u
el d</w>
dist ingu
val u
no se</w>
j ack</w>
inde ed</w>
gr ade</w>
de al
5 0
ban k
sha pe</w>
Nov ember</w>
war ning</w>
pr ise</w>
sle e
is tic</w>
sup pose</w>
in corpor
sca red</w>
vie ws</w>
inv ali
tax ation</w>
re imbur
su m</w>
Se ptember</w>
O b
nation als</w>
mar gin</w>
4 2</w>
ran k</w>
B ri
i di
sen tence</w>
buil dings</w>
au l</w>
dro pped</w>
manag er</w>
rep lied</w>
w ol
v it
docu mentation</w>
h at
depen ding</w>
F r
do ors</w>
or ge</w>
char ged</w>
ro se</w>
sp i
em bar
crit erion</w>
w av
Par ty</w>
ful fil</w>
C C
acqu is
anci ent</w>
Justi ce</w>
con sci
wal king</w>
it ely</w>
B i
S econ
dist ur
eas ier</w>
D u
surpr ised</w>
pl ate</w>
K e
let ters</w>
x ing</w>
b loc
thre at</w>
e '</w>
rel ate</w>
gui dance</w>
sho wing</w>
f ar
de ter
m ol
care ful</w>
ad es</w>
D r.</w>
ac her</w>
wat ers</w>
o th</w>
Co de</w>
tax es</w>
d ating</w>
ai ms</w>
wi d
sub stitu
person nel</w>
C or
wor ried</w>
li ber
T r
e ast</w>
comfor table</w>
communic ations</w>
ve ter
b low</w>
wit ness</w>
chur ch</w>
T S
W a
civi li
su it</w>
small er</w>
ow ner</w>
impro vement</w>
leav es</w>
t our
bir th
scre en</w>
particip ating</w>
ag ement</w>
n ic
sus pen
tru sted</w>
fo rec
il legal</w>
num er
inter im</w>
t t</w>
destro yed</w>
sum mary</w>
g ged</w>
ha z
b es</w>
men tion</w>
bit r
Un der</w>
T O</w>
gro wn</w>
remem bered</w>
t ren
D is
B u
ing ton</w>
fr an
i or</w>
c in
es h</w>
ha el</w>
ab sor
ti tu
tr a</w>
equ ity</w>
kit chen</w>
impor ted</w>
Ger man</w>
4 9</w>
su ggest</w>
s si
back ground</w>
expor ts</w>
sm ell</w>
g ers</w>
pack aging</w>
f ill</w>
dark ness</w>
in no
accord ingly</w>
temper ature</w>
b one</w>
succ ess</w>
con c
v y</w>
s h</w>
6 5</w>
l an</w>
J e
ke ys</w>
se ptember</w>
Offici al</w>
ger man</w>
adju sted</w>
us al</w>
sto cks</w>
si x
fl ying</w>
mur dered</w>
un law
s wee
substan tial</w>
dat ory</w>
after noon</w>
S or
ki e</w>
form at</w>
for got</w>
un able</w>
sign al</w>
: /
rou te</w>
par tial</w>
dispu tes</w>
on line</w>
mo bi
U R
li fe
St at
quo ta</w>
L ist
b oun
smo ke</w>
dre w</w>
cop s</w>
nov ember</w>
s n
T ur
investi g
it or</w>
ris ing</w>
sol utions</w>
su ffered</w>
hum an
receip t</w>
vali dity</w>
bro ad</w>
sen ding</w>
consider ations</w>
mo bility</w>
W ould</w>
p tions</w>
app ell
mit ting</w>
J our
w on</w>
h tt
discre tion</w>
custom er</w>
organ ised</w>
fra ud</w>
tar ge
achi eving</w>
deb ate</w>
defic it</w>
rec ru
encour age</w>
h all</w>
ris t</w>
le g</w>
exec ution</w>
p hi
process ed</w>
exclu sively</w>
ref ers</w>
bir th</w>
form ul
po ol</w>
v a
provi ders</w>
ad mit</w>
en han
lat eral</w>
sha red</w>
:/ /
hy po
bun al</w>
si zed</w>
/200 1</w>
ari a</w>
expen ses</w>
c ast</w>
htt p
.. ..
gir l
re ality</w>
An y
fr ag
certific ates</w>
wor l
acc el
th u
dis play</w>
fic ial</w>
m as</w>
form ed</w>
lic ences</w>
en z
head ed</w>
W hile</w>
t ance</w>
ch est</w>
sett led</w>
cel e
r a</w>
depen ds</w>
at eral</w>
particip ate</w>
Fin an
bar ri
V i
bu tton</w>
5 5</w>
be side</w>
allow ing</w>
E P
T i
rati o</w>
ten ed</w>
per s</w>
ma tic</w>
te eth</w>
mar ry</w>
collec tive</w>
om ic</w>
ar re
leg ally</w>
app ing</w>
drin king</w>
rel and</w>
- year</w>
no ise</w>
ar bitr
pat ter
dis covered</w>
la dies</w>
sh aring</w>
em ia</w>
wil d</w>
li able</w>
pregn ant</w>
mo del
transpa rent</w>
4 4</w>
p en</w>
em phas
organ iz
ci g
sur r
201 5</w>
there by</w>
secur ities</w>
proper ties</w>
pi lot</w>
uni verse</w>
t um
Jour nal</w>
serv ation</w>
so il</w>
techno logical</w>
T ake</w>
pr oud</w>
pro file</w>
ic y</w>
at er</w>
fin ds</w>
in hi
es sions</w>
at a</w>
qu ick</w>
ni e</w>
Jo int</w>
langu ages</w>
cham ber</w>
http ://
8 .
tari ff</w>
lab el</w>
i ds</w>
i li
can cel
O ff
P or
ann y</w>
4 1</w>
s ong</w>
any where</w>
hi ding</w>
fe e</w>
fac ility</w>
offic ers</w>
s on
g al</w>
it al
farm ers</w>
ru ption</w>
vers ation</w>
gener ation</w>
( 5</w>
8 7
i gh</w>
car ds</w>
de aling</w>
pi eces</w>
e di
hy per
ad ic
invest ors</w>
v oc
fal ls</w>
pro te
car tel</w>
ten ant</w>
man age</w>
hi dden</w>
D N
col or</w>
bot tle</w>
sus pension</w>
con versation</w>
man datory</w>
rele ased</w>
J ack</w>
posi tions</w>
dig ital</w>
pu ts</w>
thre w</w>
sp ac
M or
ren al</w>
v ous</w>
Fr ance</w>
mo de</w>
o g
c ked</w>
fav our</w>
accep table</w>
fla g</w>
kni fe</w>
confi dence</w>
R u
reli gi
w ai
a er
deta il</w>
increas es</w>
heal thy</w>
jo hn</w>
discus s</w>
tri p</w>
st ars</w>
W in
propor tion</w>
be er</w>
T ran
exclu sive</w>
certi fication</w>
re me
sol ely</w>
wa ited</w>
pol l
admis sible</w>
fig ur
in solvency</w>
sil ence</w>
I t
ref used</w>
ban king</w>
ful filled</w>
necess arily</w>
d ded</w>
surpr ise</w>
appell ant</w>
swe ar</w>
wa ke</w>
di x</w>
eng ine
shir t</w>
sli ghtly</w>
err ors</w>
sex ual</w>
am bi
List en</w>
fru it</w>
yel low</w>
sac ri
transi tional</w>
inten tion</w>
jour ney</w>
u ght</w>
lead er</w>
Th anks</w>
I P
t te</w>
exp iry</w>
recommen dation</w>
notic ed</w>
ali gn
suc ce
g or
sam ples</w>
an ds</w>
do gs</w>
sa d</w>
is hing</w>
the red</w>
ol es
tol er
dead line</w>
origin ating</w>
appreci ate</w>
speci fications</w>
l uck</w>
fe atures</w>
quar ters</w>
f arm</w>
gen e
sp ring</w>
m ate</w>
correc tly</w>
do ses</w>
harmon ised</w>
du ly</w>
parame ters</w>
Cap tain</w>
wor ding</w>
ge ment</w>
lun ch</w>
z o
i den
s a</w>
lin ed</w>
compati bility</w>
ter y</w>
thou ghts</w>
separ ation</w>
ar med</w>
fle et</w>
appoin tment</w>
sensi tive</w>
centur y</w>
fa ith</w>
ti ous</w>
ro man
opin ions</w>
inclu sion</w>
Pro ce
care er</w>
supp lies</w>
st uck</w>
protec ting</w>
T he
sanc tions</w>
L u
mar ine</w>
di ag
li ers</w>
C entr
4 7</w>
ann ex
quali fied</w>
ru pt</w>
Pro tocol</w>
te ach</w>
with draw
cul ture</w>
ex ists</w>
all en</w>
doub ts</w>
M ore</w>
/200 9</w>
st ages</w>
199 8</w>
multi ple</w>
autom atic</w>
y ard</w>
reli able</w>
e ating</w>
pre mi
stu dents</w>
up dated</w>
co o
le ep</w>
coun ter</w>
rist mas</w>
ni ght
kno wing</w>
A M
satis fied</w>
L ord</w>
lo sing</w>
C l
v am
ha m</w>
tel ls</w>
B ro
A pp
Fun d</w>
es us</w>
reflec t</w>
tic ip
sus pic
im m
Cha pter</w>
pro spec
sec tions</w>
b right</w>
com plic
lin ks</w>
subsequ ently</w>
rescu e</w>
institu tional</w>
Sor ry</w>
g y
re action</w>
k iss</w>
there in</w>
moun tain</w>
program ming</w>
govern ance</w>
ow ned</w>
cr uc
th ly</w>
tr y
tw are</w>
lit er
sud den</w>
G r
t esti
in fl
ste pped</w>
iden tical</w>
acces sible</w>
quar ter</w>
avail ability</w>
sp here</w>
ul ous</w>
regul ated</w>
elim in
R om
sp ar
pro pri
cele br
confi dential</w>
o logy</w>
prin t</w>
Amer ican</w>
acquis ition</w>
9 .
exc essive</w>
per mitted</w>
b ol
justi fy</w>
extr a</w>
ap er</w>
depen dent</w>
mess ages</w>
war ri
su s</w>
favour able</w>
obli ged</w>
defin e</w>
defin itely</w>
vis ual</w>
candi dates</w>
strategi es</w>
gh o
provi der</w>
dis semin
princi pal</w>
rec itals</w>
tor al</w>
fr ance</w>
can cer</w>
Par t</w>
won der
gi ft</w>
dre ams</w>
m ous</w>
ou red</w>
S P
mat ch</w>
restric tion</w>
modi fied</w>
res ource</w>
ag end
v ity</w>
essenti ally</w>
in direct</w>
camer a</w>
bal ls</w>
se ar
di c</w>
f ting</w>
Finan cial</w>
r on</w>
di versity</w>
Ear th</w>
manag ing</w>
prohi bition</w>
um ul
jun c
comman der</w>
Al though</w>
se ment</w>
ab and
dis closure</w>
territ orial</w>
Program me</w>
ta ste</w>
out come</w>
ar d
f ab
cal m</w>
ME N
sub jects</w>
con ce
S ha
gover ned</w>
colum n</w>
bo w</w>
Off ice</w>
pre dic
con struc
re presents</w>
ne g
prec ise</w>
volun tary</w>
suppor ts</w>
mi ti
f are</w>
d or</w>
Do es</w>
so le</w>
c ell
i ans</w>
list ening</w>
tis h</w>
g ain</w>
On ce</w>
e a
pleas ure</w>
consider ing</w>
emis sion</w>
ta tive</w>
adv anced</w>
exce eding</w>
ess or</w>
sho ld</w>
x es</w>
el ev
divi ded</w>
par k</w>
ul ts</w>
ro ll</w>
do or
de par
mari time</w>
ne ur
ai re</w>
legis lat
ex plic
4 6</w>
on ing</w>
am m
Jo hn</w>
ide as</w>
sle pt</w>
vill age</w>
conclu de</w>
tax able</w>
9 5</w>
no body</w>
N ational</w>
k is
to ol</w>
in put</w>
i g
b its</w>
as ide</w>
I D</w>
in ts</w>
oper ated</w>
ni a</w>
ans wered</w>
ba th
con ference</w>
ce re
secon dary</w>
proportion ality</w>
thre shold</w>
Be fore</w>
munic ip
girl friend</w>
W ill</w>
N E
rela tively</w>
sampl ing</w>
mobi le</w>
investi gations</w>
camp ai
carri er</w>
as ser
b are
possi bly</w>
4 6
regul arly</w>
hon est</w>
fe ren
eu tenant</w>
di um</w>
e ar</w>
bro wn</w>
becom es</w>
ro oms</w>
An s
cri tical</w>
li br
W il
direc tives</w>
c at</w>
enter prise</w>
we ak</w>
sa ke</w>
smil ed</w>
I T</w>
on el</w>
a qu
PR O
Ans wer</w>
tele phone</w>
ic ked</w>
prepar ing</w>
dis h</w>
lead s</w>
imp air
na vi
bir ds</w>
respon si
j ail</w>
go od
C i
F ol
oun ding</w>
t ched</w>
min or</w>
no dded</w>
hol ds</w>
co operate</w>
see king</w>
f ts</w>
ta ught</w>
P ri
Fe bruary</w>
psy cho
F ra
lar ger</w>
under lying</w>
La w</w>
ac knowle
I s
mul ti</w>
on going</w>
conf erred</w>
bus y</w>
reg re
invol ve</w>
5 2</w>
hel lo</w>
in after</w>
is ol
co p</w>
r ing
i on
dis ci
here inafter</w>
en ever</w>
announ ced</w>
gre en
or ation</w>
con sent</w>
dest ination</w>
exten d</w>
envis aged</w>
cam p</w>
o ce
po cket</w>
D ev
I D
IN G</w>
spe aking</w>
bud dy</w>
zer o</w>
an ger</w>
ir on</w>
Gu i
jo ined</w>
objec ts</w>
d ressed</w>
ver si
sequ ently</w>
invol vement</w>
I T
rela tive</w>
S C</w>
plas ma</w>
el ine</w>
guarante ed</w>
remo te</w>
3 00</w>
attemp t</w>
vir us</w>
ter ing</w>
sof tware</w>
vul ner
me tab
survi ve</w>
pl ays</w>
al th</w>
pro pose</w>
birth day</w>
re sta
admini str
si mul
ant as
resta ur
b ad
off ers</w>
j um
C F
U N</w>
viol ence</w>
AN D</w>
re cep
har d
s in
Pe ople</w>
re serve</w>
Amer ica</w>
D ad</w>
paren tal</w>
su e</w>
fami lies</w>
B ank</w>
communic ate</w>
g as
s ly</w>
O R</w>
r are</w>
gl y
st yle</w>
tur no
withdraw al</w>
week end</w>
gr at
gi um</w>
dy nam
di vision</w>
hand ling</w>
spl it</w>
b ill</w>
w l</w>
Ac t</w>
f ounded</w>
as leep</w>
E l
st ories</w>
decreas ed</w>
E very</w>
lo ts</w>
k ra
ch ick
en h
metab ol
in ations</w>
thro at</w>
li kes</w>
sta red</w>
revis ed</w>
t all</w>
expres s</w>
im pose</w>
p h</w>
l ays</w>
respon d</w>
8 8
m ere</w>
C O</w>
h ouses</w>
repe ated</w>
issu ing</w>
M P</w>
A P</w>
achi e
r ail</w>
a c</w>
convin ced</w>
y outh</w>
di ff
li abilities</w>
govern ments</w>
a ks</w>
ar rest</w>
gre w</w>
ti lis
19 7
ve ge
d i</w>
o es</w>
u g
ch inese</w>
pe ti
5 1</w>
ph en
ag er</w>
soli d</w>
some how</w>
an ia</w>
v il
n on
shar p</w>
mist ak
fir ms</w>
fa ster</w>
5 6</w>
ren ess</w>
appe arance</w>
fe bruary</w>
arrange ment</w>
o gen
flow s</w>
sp ending</w>
je op
f allen</w>
ch er</w>
t at
p ages</w>
feel ings</w>
supp lier</w>
doll ars</w>
ous ness</w>
g ames</w>
M iss</w>
D an
bor ro
impair ment</w>
dis appeared</w>
ca st
fi red</w>
cl ause</w>
eng aged</w>
agend a</w>
v able</w>
C ould</w>
won dering</w>
pre cau
P re
r ab
instal led</w>
sen s
fi re
subsidi ary</w>
r is</w>
T y
pa .e
ti se</w>
p it
res ses</w>
h y</w>
un known</w>
2. 1</w>
par tly</w>
innov ative</w>
fav or
m on</w>
competi tors</w>
eas es</w>
intel lec
alcoho l</w>
l aying</w>
pic tures</w>
EU R
jour nal</w>
G rou
bl in
turno ver</w>
stan ds</w>
infec tion</w>
t an</w>
I M</w>
p se</w>
tel ev
u pper</w>
200 4/
ce iling</w>
fo ol</w>
2 (
Comm unic
li sts</w>
F o
fortun ately</w>
out put</w>
ver th
n ings</w>
monit ored</w>
ge l</w>
titu de</w>
k i</w>
verth eless</w>
supp liers</w>
la tions</w>
v ine</w>
dec e
cont ents</w>
ic ide</w>
ton nes</w>
broad ca
apo logi
affec ting</w>
Ch ina</w>
it alian</w>
f antas
pr ic
hor ses</w>
che ese</w>
bi gger</w>
fin es</w>
pl om
slee ping</w>
ref use</w>
credit ors</w>
clo sing</w>
bur n</w>
s ad
cal end
e ye
ne ed
d ust</w>
confir m</w>
tre pre
wonder ful</w>
It alian</w>
Wa it</w>
exc ell
adjust ments</w>
U S
E L
sett ings</w>
rail way</w>
ow nership</w>
plas tic</w>
A C</w>
ber t</w>
won dered</w>
p y
awa reness</w>
produc ing</w>
plac e
ques tion
sil ver</w>
gr ants</w>
scen ari
bare ly</w>
neu tr
Con sequently</w>
den cy</w>
dis eases</w>
re forms</w>
200 1/
sto le</w>
co des</w>
u n</w>
pa th
alleg ing</w>
larg est</w>
amer ica</w>
I R
ut ely</w>
accel er
com position</w>
E G
disci pl
m ly</w>
dr unk</w>
ten tion</w>
loy ment</w>
mu t
g am
tou ched</w>
presen tation</w>
ac tor</w>
be sides</w>
for give</w>
sa ving</w>
Fin ally</w>
invest or</w>
C ase</w>
H on
pre clu
que en</w>
an g</w>
ab les</w>
ic ian</w>
respec ted</w>
s ki
cre te</w>
M rs.</w>
bri ef
prescri bed</w>
responsi bilities</w>
st ayed</w>
g lan
load ed</w>
equi pped</w>
sti mul
sho es</w>
y ork</w>
t wi
ass ist</w>
des per
ro of</w>
D es
mi x
refun d</w>
reli ef</w>
ce l</w>
re pu
deleg ated</w>
ger y</w>
re tail</w>
telev ision</w>
0 1</w>
tox icity</w>
in sufficient</w>
E m
bil ateral</w>
labor atory</w>
reco vered</w>
b les</w>
un cle</w>
tab lets</w>
allow ances</w>
obvi ous</w>
M S</w>
han ging</w>
ic ks</w>
P L
c lock</w>
limit ation</w>
n ation</w>
est ate</w>
bur ning</w>
te a</w>
comm unities</w>
wis hes</w>
thous ands</w>
respec tively</w>
di plom
experi enced</w>
gen u
3 8
fing er</w>
ch ina</w>
ner vous</w>
targe ted</w>
ti ated</w>
suspec ted</w>
hor ri
cu tting</w>
model s</w>
S ir</w>
neigh b
stron ger</w>
adverti sing</w>
pri mar
ti ed</w>
unlaw ful</w>
objec tions</w>
te acher</w>
ro y
prohib ited</w>
at en</w>
l as
ist er</w>
tion '</w>
ho o
oper ative</w>
pos ite</w>
c up</w>
st aying</w>
5 3</w>
expres sly</w>
at er
moun tains</w>
resul ted</w>
perfec tly</w>
squ are</w>
our selves</w>
cli ents</w>
work er</w>
dis gu
intelli gence</w>
d less</w>
renew able</w>
sil ent</w>
as sume</w>
restric ted</w>
behavi our</w>
consi sts</w>
ori en
for gotten</w>
re ti
fif th</w>
j ump</w>
s car
en trepre
g ments</w>
col our</w>
cre ature</w>
mon y</w>
ad ult</w>
ti me
cle arance</w>
amen ding</w>
deri ved</w>
cig are
st al
h a</w>
C S
stri a</w>
s and
fe els</w>
design ation</w>
indepen dence</w>
/200 8</w>
thin '</w>
shado w</w>
in y</w>
b by</w>
minist er</w>
moder n</w>
en a</w>
agg reg
Ch inese</w>
bre ast</w>
Th us</w>
con crete</w>
primar ily</w>
or an
pol y
d addy</w>
TE D</w>
t '</w>
consider able</w>
b ird</w>
sch ed
bun ch</w>
ex trem
e ties</w>
separ ately</w>
ffic acy</w>
uni que</w>
d ges</w>
t ted</w>
sav ings</w>
5 4</w>
' em</w>
st on</w>
circ le</w>
ci ties</w>
C al
r ating</w>
Reg ulations</w>
win ter</w>
consequ ence</w>
measu rement</w>
corpor ate</w>
al ist</w>
z e
T e
assum ed</w>
4. 4</w>
calend ar</w>
sustain ability</w>
a warded</w>
Con tr
gram s</w>
Fra mework</w>
fo ol
Y ork</w>
cor ri
bro thers</w>
4 9
rec al
enh ance</w>
lo ves</w>
accur ate</w>
fas hi
consist ency</w>
ba st
3 6
feder al</w>
ass ur
pursu ed</w>
fami liar</w>
An n
agricul ture</w>
199 7</w>
embar r
s ist</w>
F B
um es</w>
fol der</w>
in o</w>
k o</w>
p ir
y i
pro secu
bom b</w>
ro bo
C R
H ell
mo tion</w>
organ ic</w>
bur ned</w>
S im
mo tor</w>
mi xed</w>
ir regul
O s</w>
S a
fav or</w>
to tally</w>
ti an</w>
be aring</w>
en der</w>
ous ing</w>
advant ages</w>
sho ok</w>
a ster</w>
7 1</w>
vis a</w>
me al</w>
as i
E con
ec h
ell a</w>
allow ance</w>
becom ing</w>
represen ting</w>
lab elling</w>
f ought</w>
transi tion</w>
chec king</w>
f at
candi date</w>
off ering</w>
lo g</w>
continu ous</w>
fl esh</w>
ref usal</w>
pregn ancy</w>
rel ates</w>
extrem ely</w>
3 9
tal y</w>
qu es</w>
po ver
ne therlands</w>
m .</w>
u stom
whe el</w>
ad a</w>
5 8</w>
C ro
veter inary</w>
concentr ations</w>
it er
wat er
transf ers</w>
plat form</w>
enti rely</w>
is ely</w>
main taining</w>
dum ped</w>
e e
assi ve</w>
exper tise</w>
Inter national</w>
am oun
n els</w>
l ou
ur ban</w>
star ing</w>
avi ation</w>
h all
s ory</w>
eg gs</w>
wh enever</w>
ta min
ad ed</w>
8 7</w>
at tered</w>
custo dy</w>
uni versity</w>
e fficacy</w>
pap ers</w>
decis ive</w>
fe eding</w>
ul ti
harmon isation</w>
dir ty</w>
p a</w>
protec tive</w>
sel s</w>
val uation</w>
bour g</w>
associ ations</w>
re ferences</w>
.e uro
po pul
volun te
obstac les</w>
place bo</w>
la ke</w>
ex posed</w>
liqui d</w>
e ars</w>
v als</w>
z es</w>
ex pi
han ded</w>
s now</w>
elec tric</w>
discus sed</w>
it ability</w>
- -
pre mis
ge ant</w>
1 (1</w>
G ive</w>
comple tion</w>
s na
r in
bi ggest</w>
r d</w>
con figur
trav el
qu it</w>
indic ates</w>
wor e</w>
on ers</w>
impor ters</w>
D G</w>
dri ven</w>
gun s</w>
entrepre neur
vers al</w>
cl a
200 6/
tis ation</w>
suspec t</w>
re lied</w>
po l</w>
methodo logy</w>
um s</w>
trans mitted</w>
al ter</w>
as yl
Communic ation</w>
en sured</w>
e red</w>
serv ing</w>
M il
in si
rap id</w>
ste al</w>
ac e
deli ver</w>
mon etary</w>
con cep
we ather</w>
p ical</w>
infring ed</w>
mar k
with standing</w>
O H
ar a</w>
infring ements</w>
ari ties</w>
preven ting</w>
s in</w>
lan ding</w>
laun ched</w>
.euro pa.e
C an
ca uses</w>
friend ly</w>
K ing</w>
inno cent</w>
I taly</w>
plac ing</w>
la b</w>
C T
asyl um</w>
wi z
c ry</w>
im plic
fra me</w>
bel ong</w>
as hing</w>
prec isely</w>
es tion</w>
In formation</w>
H ol
c ali
bath room</w>
reflec ted</w>
In stance</w>
ex hi
na tions</w>
gi bility</w>
heal th
comp ul
ye ar
Ne therlands</w>
employe e</w>
pl ain</w>
Wi th
foc used</w>
suspen ded</w>
inspec tions</w>
replac ement</w>
wa ve</w>
re fu
ton om
at mo
sol ve</w>
pover ty</w>
f ain
bed room</w>
peri o
amen d</w>
pus hed</w>
stor m</w>
h ill</w>
Proce dure</w>
revie wed</w>
st ones</w>
bl ack
bl ind</w>
manufac turing</w>
inten sity</w>
it ors</w>
PR C</w>
wo ods</w>
stre ets</w>
cent res</w>
S peci
diag no
( 2
ong ly</w>
har m
P P
8 /EC</w>
load ing</w>
be ach</w>
re di
estim ates</w>
for t
S pain</w>
insul in</w>
me ter</w>
ru pt
tu gal</w>
M em
vari ety</w>
calcul ating</w>
be tr
p ants</w>
ma x</w>
exclu sion</w>
ti ght</w>
de fe
f ate</w>
Har ry</w>
TE R</w>
8 1</w>
adop ting</w>
tap e</w>
wh el
fac ed</w>
nation ality</w>
M al
2 ,
in compatible</w>
fu els</w>
tan eous</w>
alle l</w>
car di
D en
Secon d</w>
col lap
B er
Y P
per spec
v o</w>
an ticip
sur gery</w>
con vic
di strict</w>
M om</w>
f ai
carri ers</w>
ti le</w>
dam ages</w>
i um</w>
d or
pri vi
substan tially</w>
b ent</w>
5 7</w>
com it
nu tri
sti c</w>
lau gh</w>
gh tened</w>
tri bunal</w>
e tr
dec k</w>
pow der</w>
st eri
gro ss</w>
est y</w>
recipi ent</w>
employ er</w>
E R</w>
inter rup
every where</w>
nur se</w>
grad ually</w>
l ers</w>
10 0
en or
cruc ial</w>
li p</w>
L eg
tre as
penal ties</w>
prin ts</w>
P D
c ous
Pol icy</w>
H el
re n</w>
fal se</w>
s man</w>
I C</w>
thir ty</w>
E r
Grou p</w>
consi gn
direc tory</w>
intellec tual</w>
Ap plic
and a</w>
V al
ni ghts</w>
h ousing</w>
Inter net</w>
mo stly</w>
termin ation</w>
per cent</w>
stu died</w>
e pi
ot as</w>
par allel</w>
it ting</w>
stom ach</w>
s wal
the ory</w>
accep tance</w>
j ap
stan tly</w>
relev ance</w>
S we
mat ely</w>
inv ite</w>
spor ts</w>
y ou
de vo
guil ty</w>
T able</w>
per mission</w>
Ac tion</w>
junc tion</w>
fem ale</w>
over whel
del ic
incre di
inde x</w>
DN A</w>
al ty</w>
en sures</w>
exclu ding</w>
ex act</w>
there to</w>
R ules</w>
horiz on
ist an</w>
favor ite</w>
adap ted</w>
ap pen
ing redi
resi du
neigh bour
dimen sion</w>
avoi ding</w>
discus sion</w>
bene ath</w>
estim ate</w>
detec ted</w>
restaur ant</w>
par ti
lead er
w et</w>
sign ature</w>
demo cr
te dly</w>
v as
low ed</w>
shoo ting</w>
O LA
con stant</w>
exclu de</w>
train ed</w>
de rer</w>
se ven
M A
comb at</w>
qu otas</w>
cl ing</w>
T ri
jo in
premis es</w>
T hi
S pec
penal ty</w>
preven ted</w>
pe red</w>
remo val</w>
der ly</w>
resi stance</w>
5 9</w>
r ats</w>
rupt cy</w>
ans wers</w>
e ously</w>
men ting</w>
ul ed</w>
tri als</w>
consul tations</w>
libr ary</w>
at ric</w>
har ry</w>
A B
op position</w>
ho li
break fast</w>
ut ory</w>
O L
bran ch</w>
st ol
oce an</w>
sche dule</w>
ab road</w>
gi ant</w>
re tro
E d
om as</w>
he ight</w>
argu ed</w>
A fr
cast le</w>
swit ch</w>
8 5</w>
fle w</w>
evol ution</w>
prof its</w>
M at
wel comes</w>
Th ree</w>
laun ch</w>
assess ments</w>
Mo st</w>
contin uation</w>
an o
appropri ation</w>
administr ator</w>
cl ou
sp an
a uc
wit nesses</w>
professi on
restric tive</w>
domin ant</w>
electr ical</w>
m r</w>
af ford</w>
D uring</w>
the tic</w>
fam ous</w>
th a</w>
prece ding</w>
youn ger</w>
le tting</w>
compe ten
ital y</w>
continu ing</w>
eli gibility</w>
sym bo
bio logical</w>
z i
vulner able</w>
R ic
ab use</w>
her o</w>
men u</w>
mag ne
absol utely</w>
li o</w>
e a</w>
s and</w>
h at</w>
H i</w>
contr adic
secre tary</w>
F ran
ven ture</w>
le ap
bur ied</w>
go ds</w>
co at</w>
ok ine
crow d</w>
pen ding</w>
embarr ass
argu es</w>
con tamin
declar ations</w>
ra ising</w>
hun g</w>
pus h</w>
B al
ben ch
1. 1</w>
dele ted</w>
eng lish</w>
C re
O S
With out</w>
jud ges</w>
/200 7</w>
ple as</w>
c ited</w>
be gun</w>
IS O</w>
aff airs</w>
in ery</w>
shi p
spe ech</w>
do zen</w>
dis missed</w>
incen tives</w>
to i
under taken</w>
Sec urity</w>
No thing</w>
mar gin
z a</w>
cri tic
Eng lish</w>
C E</w>
k ick</w>
OLA F</w>
an ese</w>
199 4</w>
b ones</w>
continu es</w>
ar ise</w>
na ked</w>
ro lling</w>
den s</w>
enab ling</w>
j a
increas ingly</w>
hel ps</w>
Sec re
dro ve</w>
p air</w>
consul t</w>
6 4</w>
Econ omic</w>
m ess</w>
sh ou
V I</w>
correc tion</w>
er s'</w>
execu tive</w>
sc ram
st at</w>
3 4
rea u</w>
inter oper
ex it</w>
dep end</w>
au tonom
Dev el
ir respective</w>
vir tu
pr u
w ound</w>
defen se</w>
4. 2</w>
til ity</w>
flow ers</w>
Pro duc
cop ies</w>
cour age</w>
gr ay</w>
Ap pe
bal anced</w>
S ch
w ag
un employment</w>
har dly</w>
b orders</w>
EF TA</w>
b y
x em
cab in</w>
requi ring</w>
con ci
de struction</w>
strugg le</w>
sh ol
shoul ders</w>
en e</w>
fing er
M E</w>
ve re
3 7
conver sion</w>
here by</w>
U se</w>
than k
smo oth</w>
in '</w>
enter ing</w>
200 3/
up set</w>
e ing</w>
difficul ty</w>
Gui delines</w>
n ity</w>
i dly</w>
1 50</w>
2. 2</w>
glan ced</w>
mon o
Sta ff</w>
th ri
ex tra
deter i
Gre at</w>
con stra
repu tation</w>
lean ed</w>
stand ardis
stri ke</w>
o ts</w>
st am
inv itation</w>
6 8</w>
indic ating</w>
absol ute</w>
men d
ten ders</w>
deci des</w>
Some thing</w>
leg ality</w>
jec tions</w>
regi stry</w>
ro lled</w>
propos es</w>
pro lon
fit ted</w>
av ing</w>
to b
o '
2 2
sp ouses</w>
m ale</w>
numer ous</w>
P i
k y
dar ling</w>
chil d
de ep
explan ation</w>
new sp
ell ite</w>
struc k</w>
milli ons</w>
mach inery</w>
credit or</w>
eng ines</w>
ri ding</w>
H er
quali fications</w>
de fici
sp ain</w>
manufactu rers</w>
in duc
agre es</w>
possi bilities</w>
is ations</w>
pass ing</w>
to wer</w>
offic es</w>
vi al</w>
6 3</w>
demo cra
it ly</w>
recommen ds</w>
wo ke</w>
tor ate</w>
att or
bul let</w>
n t</w>
J ap
br us
ve sted</w>
veri fied</w>
ther ing</w>
descri be</w>
share holders</w>
form ing</w>
stol en</w>
stat utory</w>
inci dence</w>
ble eding</w>
vi d</w>
nar row</w>
satis fy</w>
sec toral</w>
prin ted</w>
E T
ren der</w>
xem bourg</w>
de ed</w>
suff ering</w>
OH IM</w>
A m
m ation</w>
coordin ated</w>
play er</w>
go al</w>
6 1</w>
poll ution</w>
cul tiv
ton gue</w>
th ick</w>
com posed</w>
v ail
indic ations</w>
ali zed</w>
hi stor
st ress</w>
de e
r ough</w>
g le</w>
0 5</w>
me ters</w>
Wh at
car go</w>
T er
EI B</w>
C N</w>
industri es</w>
sugge sts</w>
H AS</w>
re ments</w>
a sts</w>
expen sive</w>
S P</w>
ad mitted</w>
m al</w>
bel t</w>
evalu ated</w>
se ed</w>
dom ain</w>
do ws</w>
liqui dity</w>
facilit ating</w>
pl u
gr ass</w>
sp are</w>
connec t</w>
gen tly</w>
no w
ber ing</w>
I N</w>
c zech</w>
d al</w>
em br
se arch
fur thermore</w>
gi es</w>
person ally</w>
ic ans</w>
Au gust</w>
d ging</w>
mer ger</w>
compul sory</w>
gi e</w>
leader ship</w>
kne es</w>
p ale</w>
wa re
health care</w>
manufac ture</w>
0 2</w>
all er
L ast</w>
proce eding</w>
o we</w>
bl ade</w>
aud its</w>
ur a</w>
deleg ation</w>
dis appear</w>
represen tation</w>
ple ased</w>
tru ly</w>
communic ated</w>
equ ality</w>
pen etr
to w
flexi bility</w>
ge red</w>
equ ally</w>
V er
C y
bank ruptcy</w>
def ec
question n
g il
gol den</w>
gar den</w>
justi fication</w>
mani fe
r ant</w>
dis orders</w>
9 9</w>
gen der</w>
199 6</w>
separ ated</w>
who ever</w>
6 2</w>
P ub
R ob
horizon tal</w>
(2 )(
enor mous</w>
k er
re aching</w>
im ages</w>
Devel op
i el</w>
dre ds</w>
it a</w>
en lar
at e
accom mo
199 5</w>
ti ble</w>
per su
fac ing</w>
sugge sted</w>
secre ts</w>
assur ance</w>
B ur
supple mentary</w>
L is
w are</w>
Ser vice</w>
Sh ould</w>
ad ults</w>
pro ved</w>
ha w
ish ment</w>
identi fying</w>
man date</w>
1 2.
life time</w>
configur ation</w>
ED PS</w>
legislat ure</w>
publis h</w>
bloo d
Fol lowing</w>
ad just</w>
M A</w>
mon ster</w>
bloo dy</w>
4 00</w>
ch ose</w>
' am</w>
distinc tion</w>
deri v
acc o</w>
7 2</w>
is o
dis pat
au gust</w>
D el
du m</w>
att acked</w>
dis pen
/200 5</w>
p ure</w>
end or
go d
wel fare</w>
im my</w>
complain ts</w>
I L
comp lied</w>
Comm on</w>
inhi bit
a ked</w>
un like</w>
b ags</w>
law yers</w>
C zech</w>
ad ing</w>
addres sing</w>
rap idly</w>
do l
gui de</w>
stu dent</w>
re served</w>
discrimin atory</w>
pos s
mit h</w>
attr active</w>
re l</w>
bla me</w>
success fully</w>
confi denti
lead ers</w>
fi b
es cor
ap paren
par king</w>
gre y</w>
W as</w>
ac he</w>
Per haps</w>
sat ellite</w>
brea thing</w>
jo ke</w>
techni ques</w>
in tra</w>
apparen tly</w>
gra vity</w>
rec y
ban ds</w>
cros sed</w>
TH IS</w>
organiz ation</w>
g ging</w>
cont acts</w>
co ol
subsi dy</w>
patter n</w>
er able</w>
C P
t ability</w>
circ ulation</w>
tion ality</w>
t ough</w>
an o</w>
8 2</w>
H un
ic o</w>
con fusion</w>
regar dless</w>
se ats</w>
tic ket</w>
ha ir
exce eded</w>
pro mp
v in
pharmac okine
invali d</w>
meas uring</w>
Ar gu
vo ca
ob taining</w>
ur gent</w>
f air
an k
collec ting</w>
house hold</w>
citiz en</w>
H igh</w>
b ic
pay able</w>
t one</w>
a f</w>
expor ted</w>
com missi
wr apped</w>
six th</w>
ro ws</w>
soldi er</w>
bu ying</w>
dis played</w>
le x</w>
ai red</w>
connec tions</w>
u l</w>
con servation</w>
enem ies</w>
wo o
on ia</w>
assem bly</w>
on y
ON S</w>
D ar
5 7
serv ants</w>
p .
G U
instal lations</w>
surve y</w>
re vol
op posite</w>
defini tive</w>
perspec tive</w>
3. 1</w>
sub mitting</w>
beau ty</w>
lo ving</w>
tim ely</w>
p ill
kid n
den tly</w>
drag on</w>
ta r</w>
v ary</w>
b and
op h
pi g</w>
excep tions</w>
t ings</w>
fi xing</w>
inter view</w>
a .
mir ror</w>
AD OP
complic ated</w>
rou tes</w>
per si
def end</w>
ad mir
ass ass
en trusted</w>
lon g
am ble</w>
chair man</w>
The ir</w>
barri ers</w>
g ary</w>
en de
Gi ven</w>
a x</w>
satisfac tory</w>
thou ght
behavi or</w>
te es</w>
cre am</w>
al es</w>
terror ist</w>
in ated</w>
a .</w>
ADOP TED</w>
pho sp
dis k</w>
f ed</w>
pl enty</w>
b ai
ox y
kee ps</w>
sho ck</w>
doc tors</w>
campai gn</w>
pr ince</w>
ster y</w>
memor ies</w>
deli ber
su peri
rec ording</w>
ww w
ex t
trans it</w>
se ason</w>
bi a</w>
cl asses</w>
al y
6 7</w>
lo s</w>
st ations</w>
request ing</w>
M er
li ant</w>
mee ts</w>
A id</w>
fro zen</w>
mor t
li a</w>
Hell o</w>
bo ther</w>
e an</w>
impro vements</w>
cir cu
l es
d war
evalu ate</w>
shi ft</w>
idi ot</w>
B en
ne are
democr acy</w>
le gen
li eutenant</w>
ra m</w>
fore seen</w>
d '</w>
re st
c and
ess ence</w>
hun dreds</w>
c ular</w>
S pan
gr and</w>
f ail</w>
h es
inter f
ou ter</w>
ak er</w>
A G
join tly</w>
Some one</w>
respon ses</w>
as sa
tan eously</w>
as sign
Acc ord
analy ses</w>
y l</w>
advis ory</w>
collec t</w>
Fe der
br ings</w>
am med</w>
Accord ingly</w>
mag az
deser ve</w>
te ars</w>
tari at</w>
ge ar</w>
confidenti ality</w>
m acro
C han
gr ab
tu gu
achie vement</w>
B et
2 1
re search
F R
consci ous</w>
un likely</w>
ex tre
p ace</w>
p et</w>
Un der
prog res
some thin'</w>
ag eous</w>
ang le</w>
re vision</w>
expec tations</w>
fuc kin</w>
clean ing</w>
detec tive</w>
So cial</w>
co operating</w>
with drawn</w>
ment '</w>
gener ated</w>
al u
be ings</w>
b att
re stra
t age</w>
O per
tob acco</w>
Str at
adv oc
r um
pa tic</w>
/200 2</w>
depar ture</w>
4 4
E T</w>
adap t</w>
sa m</w>
h an</w>
sy ring
lo vely</w>
el ly</w>
pass word</w>
tugu ese</w>
ug ly</w>
EC R</w>
Win dows</w>
H um
genu ine</w>
requ is
el ls</w>
al tered</w>
a di
d ay
1. 2</w>
ful ness</w>
ic als</w>
n in</w>
sp ite</w>
co al</w>
s ons</w>
reco ver</w>
G ar
hun gry</w>
po wered</w>
subsi dies</w>
exten sive</w>
run s</w>
logi c</w>
ab e
b ond</w>
se y</w>
hi p</w>
s --</w>
pre amble</w>
l ori
y ards</w>
consi sting</w>
gi c</w>
l ad
M an</w>
Appe al</w>
high ligh
stu ffs</w>
6 6</w>
COM M
mar king</w>
mem ber
defin ing</w>
Centr al</w>
dele te</w>
ea stern</w>
incen tive</w>
activ ely</w>
ur y</w>
cho o
com ment</w>
dist ant</w>
di am
Ci vil</w>
squ ee
g aria</w>
speci fication</w>
reimbur sement</w>
part ments</w>
10 .
t emp
S top</w>
r at</w>
public ly</w>
w age</w>
k ar
poten tially</w>
en tic
ash ington</w>
depos it</w>
tour ism</w>
not ably</w>
preten d</w>
tis sue</w>
H en
0 4</w>
L on
8 8</w>
t es
cl ass
St ar
incorpor ated</w>
secu red</w>
entr ance</w>
heav en</w>
gl uc
exerc ised</w>
r ick</w>
vol umes</w>
vari able</w>
sc ru
op ti
f lights</w>
al ert</w>
h in
desi re</w>
func tional</w>
lam p</w>
y n</w>
ab ol
er ce</w>
initi ation</w>
ment ally</w>
b is
cri ed</w>
exha u
scho ols</w>
at om</w>
apologi ze</w>
desi r
cen ts</w>
audit ors</w>
reason ably</w>
occur s</w>
ab or
con g
inten ds</w>
ta il
tel ec
dis ab
cl er
histor ical</w>
play ers</w>
pleas ant</w>
addres ses</w>
de pri
her it
part ner
br and</w>
en coun
Wor ld</w>
b a</w>
est ly</w>
suff er</w>
pro p
com ings</w>
port fo
span ish</w>
f est</w>
radi ation</w>
charac ters</w>
E X
gra ve</w>
fi able</w>
per or</w>
S lo
den tal</w>
le ments</w>
bul l
w ished</w>
mir ac
condi tional</w>
we stern</w>
in admissible</w>
fore going</w>
comple mentary</w>
g ay</w>
ti er</w>
speci alised</w>
k en
si de
el a</w>
fin ed</w>
gl asses</w>
bri ef</w>
ph y
prof itability</w>
hur ry</w>
shado ws</w>
le ather</w>
argu e</w>
vo ting</w>
3. 2</w>
s al</w>
scenari o</w>
mom ents</w>
lic k</w>
Span ish</w>
pain t</w>
N i
carri es</w>
bl u
tr ail
f loo
g ar</w>
t ori
atmo sphere</w>
democra tic</w>
s age</w>
jeop ardis
C YP
voca tional</w>
ran ean</w>
wol f</w>
pl ed</w>
Lo o
mo vements</w>
ser vers</w>
ende av
co ast</w>
es is</w>
wiz ard</w>
par lia
ke y
arre sted</w>
ra tions</w>
brea king</w>
rus sian</w>
arran ge</w>
reti rement</w>
al arm</w>
fo ld</w>
elec tro
li ation</w>
v ar
im pe
anal o
appro aches</w>
pre fer</w>
fa x</w>
tun nel</w>
en vel
k m</w>
an c
t ank</w>
Par agrap
prepar ations</w>
www .
imp acts</w>
che ek</w>
sen ior</w>
drin ks</w>
produc tivity</w>
an te</w>
b en</w>
4 7
de vi
ste in</w>
he l</w>
reven ues</w>
a ties</w>
ic king</w>
t ack
mean ing
re mind</w>
Man agement</w>
deser t</w>
sp er
cre atures</w>
E D</w>
re turns</w>
priv acy</w>
fe ed
short comings</w>
eli hood</w>
set tle</w>
accompan ying</w>
A t
calcul ate</w>
gra b</w>
adap tation</w>
happ iness</w>
pursu e</w>
ow ners</w>
remo ving</w>
exc ess</w>
trac ted</w>
ten sion</w>
initi ate</w>
t ant</w>
3 (1</w>
sum mar
sched uled</w>
ec o
virtu e</w>
certi fied</w>
spo ken</w>
( 6</w>
T it
Im ple
prote in</w>
not withstanding</w>
sho wer</w>
d ness</w>
k led</w>
cha mp
on a</w>
W TO</w>
9 1/
con comit
8 3</w>
see ks</w>
recogn ize</w>
pi gs</w>
character ised</w>
expec ting</w>
d est</w>
he avi
repe at</w>
op en
defini tions</w>
ec k</w>
ga thered</w>
laugh ed</w>
v est</w>
an na</w>
mi d</w>
zer land</w>
lik elihood</w>
ga ze</w>
sl augh
re a</w>
tab let</w>
ur ally</w>
in correct</w>
p ist
wh oles
S am</w>
kra ine</w>
k a
cre ates</w>
an ce
dam aged</w>
de vil</w>
W est
interoper ability</w>
direc ted</w>
chick en</w>
im position</w>
S A
N et
li am</w>
D ata</w>
bu ff
Some times</w>
desir able</w>
arbitr ation</w>
cr us
moder n
hy dr
hear ts</w>
cr ying</w>
ho ly</w>
psy ch
jour n
mist er</w>
door way</w>
li ft</w>
stab il
ver tical</w>
ca p</w>
enab les</w>
z er</w>
green house</w>
tro l</w>
he patic</w>
sh u
po is
f an</w>
clim bed</w>
purch ased</w>
rul ed</w>
correspon ds</w>
tal e</w>
pre f
individu ally</w>
origin ally</w>
be am</w>
co ck
objec tion</w>
P l
Direc tor</w>
foot ball</w>
B ul
in directly</w>
stu dying</w>
enab led</w>
bre ad</w>
ga p</w>
prof ession</w>
ing ent</w>
re payment</w>
even tually</w>
up stairs</w>
Ma j
author ise</w>
st resses</w>
i ved</w>
ox ide</w>
cor ruption</w>
econom ies</w>
profession als</w>
discus sions</w>
reme dy</w>
pri est</w>
belon gs</w>
co ast
rep air</w>
S G
appro ve</w>
so dium</w>
0 3</w>
mic ro</w>
dec l
larg ely</w>
bloc ks</w>
6 9</w>
y an</w>
navi gation</w>
cap e</w>
exam ples</w>
AN NE
te en
no vel</w>
fif ty</w>
jac ket</w>
correspon d</w>
recogn ized</w>
fulfil ment</w>
hop ed</w>
As soci
Ex c
par tially</w>
pe ter</w>
with draw</w>
dec ades</w>
C hi
fi er</w>
in ner</w>
re store</w>
fre ight</w>
d augh
auth ori
deb ts</w>
r ice</w>
Develop ment</w>
flexi ble</w>
200 2/
on e
ra z
so oner</w>
indic ator</w>
A h</w>
um ber</w>
Every thing</w>
ri dic
deal t</w>
hun ting</w>
gr in
et te</w>
dic ated</w>
b ars</w>
S outh</w>
wi der</w>
elec tion</w>
de gre
m ai
for th</w>
annex es</w>
distribu ted</w>
produc tive</w>
harm ful</w>
pu rely</w>
valu able</w>
re ar</w>
cous in</w>
du plic
U K</w>
conv ince</w>
strength ened</w>
relation ships</w>
horri ble</w>
compu ters</w>
system ic</w>
c king</w>
es ome</w>
qui e
roy al</w>
ulti mately</w>
des cen
7 8</w>
M ac
trans mit</w>
dissemin ation</w>
i des</w>
pric ing</w>
ha em
recogn ise</w>
lay er</w>
val ley</w>
att acks</w>
e igh
No te</w>
Rus sian</w>
ser geant</w>
bo tt
uni versal</w>
abo ard</w>
fortun ate</w>
mini stry</w>
mon thly</w>
offici ally</w>
hi red</w>
mic hael</w>
polic em
smo king</w>
conven i
acqui re</w>
con sen
ANNE X</w>
C a
attor ney</w>
pre me</w>
in fusion</w>
un usual</w>
Contr acting</w>
Or gan
admis sibility</w>
pr on
invol ves</w>
stric tly</w>
w ings</w>
s ne
tr ick</w>
chan nel</w>
centur ies</w>
need le</w>
eri ff</w>
6 (1</w>
sof tly</w>
consoli dation</w>
fil ter</w>
expi red</w>
sh ri
integr ity</w>
auth entic
foun dation</w>
avi r</w>
trans lation</w>
wi re</w>
kno cked</w>
0 s</w>
rec k
M ag
explic itly</w>
excell ent</w>
imp lies</w>
T ra
arran ged</w>
gr ace</w>
un certainty</w>
reserv es</w>
appen dix</w>
re ver
g a</w>
stre tched</w>
c ess</w>
prof essor</w>
p el
tren d</w>
um bled</w>
S up
di gn
fel low</w>
degre es</w>
Bo th</w>
program s</w>
U m</w>
ta ils</w>
gu est</w>
T om
fun ded</w>
terror ism</w>
Ti me</w>
confir mation</w>
ir relevant</w>
shi eld</w>
bl an
inser ted</w>
warri or</w>
I reland</w>
termin al</w>
ali en</w>
neg li
A no
li ght
vacc ine</w>
ou ts</w>
bran ches</w>
4 5
Comm unities</w>
se iz
Sy stem</w>
P at
escap ed</w>
M F
doll ar</w>
di es
disab led</w>
S ar
O C</w>
si gh
exemp tions</w>
In deed</w>
sub scri
gho st</w>
li ti
stri an</w>
y o
pro sec
L uc
reflec ts</w>
ick ness</w>
im posing</w>
co ok</w>
sh ops</w>
govern mental</w>
premi um</w>
200 0/
survi val</w>
es day</w>
affec ts</w>
sp ell</w>
sal t</w>
ick y</w>
recru it
appro ached</w>
fac tory</w>
col labor
pi le</w>
f on
r ag
bast ard</w>
el and</w>
reve aled</w>
purch as
hn ny</w>
speci fies</w>
eng en</w>
su gg
sh ore</w>
P ut</w>
su icide</w>
accur acy</w>
re ne
al it
r onic</w>
9 9
wor n</w>
after wards</w>
sti pul
ur day</w>
activ ated</w>
grad u
N O
hol dings</w>
cor pse</w>
symbo l</w>
pr o</w>
consoli dated</w>
gr as
C er
d un
author isations</w>
bon ds</w>
hel p
r i</w>
it ec
om a</w>
m ask</w>
D avi
tox ic</w>
fin est</w>
il st</w>
4 (1</w>
appro aching</w>
boo ts</w>
ation '</w>
ty pical</w>
v in</w>
p ly</w>
air ports</w>
exhau sted</w>
can cel</w>
dro me</w>
Re port</w>
shi pping</w>
Gre ece</w>
V ery</w>
adequ ately</w>
cohe rent</w>
char t</w>
connec ting</w>
dar ity</w>
spec tr
str ongly</w>
tic kets</w>
inser t</w>
le af
B as
bro w
gi a</w>
ic op
TS I</w>
ing '</w>
te ach
dero gations</w>
om munic
exha us
man ual</w>
Un i
contain er</w>
co verage</w>
thre ats</w>
jo y</w>
A TION</w>
safe guard</w>
edi atric</w>
exemp ted</w>
extra ordinary</w>
gen tle</w>
r and
t ons</w>
p oul
survi ved</w>
Ano ther</w>
resi dents</w>
bac ter
inter action</w>
con sist</w>
r ings</w>
dec ree</w>
B l
P al
con stantly</w>
l ler</w>
E ur
contribu ted</w>
l oud</w>
sc rat
r hy
detec tion</w>
b ell</w>
assum ption</w>
un fair</w>
comb ating</w>
interrup ted</w>
a ren
dep loyment</w>
transpor ted</w>
u tilis
clari fy</w>
pat ro
a h
dra g</w>
C ity</w>
, 5</w>
Pe ter</w>
off ence</w>
ol ly</w>
decl are</w>
clari fied</w>
inven tory</w>
differen tly</w>
M ad
fe asi
f arms</w>
4. 1</w>
remin ded</w>
low est</w>
200 9/
win d
E A</w>
ju red</w>
constitu ted</w>
toi let</w>
ti p</w>
quanti tative</w>
licen se</w>
cap ture</w>
depos its</w>
partner ships</w>
cre di
encoun tered</w>
constitu tion</w>
inten d</w>
sli pped</w>
speci ally</w>
pos session</w>
thro wing</w>
k icked</w>
al d</w>
lam ps</w>
(1)( b</w>
list ened</w>
fuc ked</w>
col onel</w>
th ur</w>
Rus sia</w>
d are</w>
where ver</w>
sy ner
coun ting</w>
ch ristmas</w>
Lon don</w>
ic h
pri me</w>
arri val</w>
o th
fac tual</w>
ro pe</w>
sa f
analy sed</w>
cri mes</w>
for bi
he ating</w>
F ather</w>
S T
contr ast</w>
comfor t</w>
im pression</w>
my steri
scre am</w>
S co
d ried</w>
wh i
re marks</w>
1 ,000</w>
dis proportionate</w>
pro to
lon don</w>
execu ted</w>
emer ging</w>
eu tic</w>
pu ty</w>
ca ke</w>
sur plus</w>
dimen sions</w>
un fortunately</w>
rus sia</w>
laugh ing</w>
irregul arities</w>
substan tive</w>
H aving</w>
aspec t</w>
ff ed</w>
in he
pre serve</w>
gene tic</w>
do ssi
dead lines</w>
mis sible</w>
di abe
dynam ic</w>
mo ther
ap point</w>
8 9</w>
poli tics</w>
fil ling</w>
5 4
v ital</w>
H ouse</w>
explo sion</w>
jud gments</w>
ev es</w>
10 7
Mic hael</w>
P C
system atic</w>
I AS</w>
hal f
measu rements</w>
B s</w>
a e</w>
dem ic</w>
ali sts</w>
vis ions</w>
tr ail</w>
bus h</w>
low s</w>
re tained</w>
dan cing</w>
frequ ently</w>
D am
nor thern</w>
f ice</w>
she ets</w>
J esus</w>
tw el
o live</w>
is s
tre ating</w>
pi pe</w>
competen ces</w>
author ising</w>
divi den
A .
A .</w>
z ones</w>
mo tor
ran dom</w>
sp ouse</w>
ac king</w>
F ri
ac eful</w>
nat urally</w>
im es</w>
w led</w>
AC P</w>
ter ly</w>
th um
requis ite</w>
el se
ch lor
questionn aire</w>
ann i
ter ror</w>
ch ron
in qui
enz y
as hes</w>
Ge orge</w>
under take</w>
off en
R em
H y
scienti sts</w>
sk i</w>
ge orge</w>
jec ting</w>
distinc tive</w>
it arian</w>
exam ining</w>
ing er</w>
la p</w>
Spec ial</w>
ar chi
w ash</w>
pre ad</w>
it ated</w>
contro lling</w>
avoi ded</w>
Gre ek</w>
vic tory</w>
enhan ced</w>
comm it</w>
pal ace</w>
ke t
S at
5. 1</w>
reve al</w>
Exc use</w>
ac i
m assive</w>
g arian</w>
po sures</w>
formul a</w>
er a</w>
sk ull</w>
Pro tec
del ays</w>
I A</w>
nu ts</w>
tempor arily</w>
199 3</w>
inst all</w>
exist ed</w>
grap hic</w>
mix ture</w>
el le</w>
as ion</w>
b ay</w>
hon estly</w>
F re
sacri fic
commit tees</w>
B A</w>
farm ing</w>
pe ak</w>
ho p</w>
fain t</w>
so vere
pat ent</w>
serv ic
3 )(
in ev
thu si
out standing</w>
recruit ment</w>
p aul</w>
loo se</w>
presum ption</w>
clou ds</w>
fe ver</w>
w ill
capac ities</w>
Mic ro
7 3</w>
syring e</w>
inci dent</w>
bo xes</w>
vi ability</w>
A ir
App en
bu b
p an</w>
reason ed</w>
hel icop
lan ded</w>
surr ounded</w>
an a
inter face</w>
ph ones</w>
e aten</w>
tain ment</w>
ne uro
en thusi
limit ing</w>
da vid</w>
religi ous</w>
p he
o be
tri gger</w>
gre ek</w>
clim b</w>
H al
dis co
pris oners</w>
ro w
S ure</w>
simil arly</w>
err on
vam pire</w>
movi es</w>
over come</w>
infec tions</w>
horiz on</w>
oun d
vis its</w>
worl ds</w>
se as
fla v
h ome
sou thern</w>
dies el</w>
portfo lio</w>
P aul</w>
b i</w>
distor tion</w>
g ating</w>
L in
A U
a ths</w>
LA TION</w>
men s</w>
simpli fication</w>
phen om
worl d
vo y
er o
ass ure</w>
gu ests</w>
cro ps</w>
ra is
i reland</w>
member ship</w>
w ounded</w>
Davi d</w>
characteris tic</w>
occu p
cr ash</w>
sho le</w>
migr ants</w>
ul ture</w>
jer k</w>
S ol
dec ent</w>
un necessary</w>
bi e</w>
rela x</w>
highligh ted</w>
re sem
particip ated</w>
flo ating</w>
col lateral</w>
D U
Re member</w>
Jo e</w>
dec line</w>
techni que</w>
Paragrap h</w>
arch itec
head ings</w>
Leg al</w>
je al
pop ular</w>
Nor th</w>
dep th</w>
radi o
oran ge</w>
5. 2</w>
cy lin
wid ely</w>
head quarters</w>
fo od
199 9/
defin es</w>
ster ing</w>
p um
cont est</w>
jo e</w>
expan sion</w>
conver ted</w>
opti mis
te aching</w>
whis pered</w>
feren tial</w>
ex posures</w>
encour aged</w>
ap h
introduc ing</w>
ed ly</w>
wav es</w>
hi re</w>
attribu ted</w>
min ing</w>
gre ece</w>
D on
exemp t</w>
else where</w>
ster o
prin ting</w>
initi ating</w>
Ab out</w>
ad mi
ali zation</w>
sh op
subsidi aries</w>
elec t</w>
initi ally</w>
gan g</w>
ch ick</w>
do sage</w>
refu ge
ag ues</w>
C D</w>
ad ding</w>
abo ve
dis aster</w>
prepar atory</w>
O ut
C ur
len ding</w>
c kets</w>
coun ts</w>
territ ories</w>
cre d
hun t</w>
mechan ical</w>
reason ing</w>
research ers</w>
arti ficial</w>
C L
sub heading</w>
bu cks</w>
inst inc
ex changes</w>
H R</w>
pus hing</w>
emphas is</w>
assum ptions</w>
in adequate</w>
des pread</w>
acc used</w>
conver gence</w>
moder ate</w>
9 2/
s est</w>
tax pay
telec ommunic
di ver
re ject</w>
licen sing</w>
d ant</w>
correc tions</w>
air lines</w>
aband oned</w>
she ep</w>
chan nels</w>
read s</w>
custo m</w>
cu te</w>
restric t</w>
att ach
M R
lin ing</w>
exce eds</w>
ar ding</w>
recogn ises</w>
Ke ep</w>
Me dic
e ks</w>
oper ates</w>
dialo g</w>
exc ited</w>
i us</w>
re plic
manag ers</w>
li fted</w>
gu essing</w>
pharmac eu
in jured</w>
construc ted</w>
wi despread</w>
pref erred</w>
cra p</w>
mort g
contribu tes</w>
1 :
le vi
cu ts</w>
sing ing</w>
mani fest</w>
perform ing</w>
comple x
nom inal</w>
vo tes</w>
exp and</w>
ridic ulous</w>
w ering</w>
consul ted</w>
viol ent</w>
fr ank</w>
ce ased</w>
Tr ade</w>
I .</w>
ro de</w>
go als</w>
cau tion</w>
hil ls</w>
ro me</w>
s or</w>
infec ted</w>
kil ome
an cing</w>
ec u
mo ves</w>
.... ....
ste ering</w>
help ful</w>
drag ged</w>
stri al</w>
re alised</w>
du de</w>
8 4</w>
clean ed</w>
str ing</w>
trans formation</w>
t our</w>
sign als</w>
im al</w>
annul led</w>
T om</w>
6 5
so le
/200 0</w>
c ope</w>
g le
mo od</w>
grab bed</w>
cl oud</w>
acknowle dged</w>
te ar</w>
th ful</w>
per ce
ex pe
cho col
fun eral</w>
as shole</w>
clo sest</w>
P ur
off set</w>
other ap
at us</w>
li p
Ac tually</w>
camer as</w>
consider ably</w>
tri g
tan gible</w>
m ou
wh ore</w>
preven ts</w>
tal ity</w>
dro w
fa ke</w>
8 6</w>
dis charge</w>
mo tiv
assi stant</w>
d an</w>
mac ro</w>
ri f
pack ages</w>
ce ase</w>
detec t</w>
/9 4</w>
e y
sup er</w>
hol es</w>
chem icals</w>
di str
CI A</w>
i o
mi x</w>
pres sing</w>
li an</w>
conclu des</w>
enfor ce
char lie</w>
st a</w>
is lands</w>
ra tion
mat urity</w>
contribu ting</w>
bl ank</w>
dis closed</w>
above mentioned</w>
form ally</w>
a '</w>
pul ling</w>
fif teen</w>
acc umul
fol ded</w>
woo den</w>
recei ves</w>
sear ching</w>
in ity</w>
finan ces</w>
a unt</w>
purch asing</w>
intermedi ate</w>
m in</w>
resol ve</w>
M L</w>
interf ere</w>
tradi tion</w>
accom pl
2 50</w>
dic k</w>
repe aled</w>
saf ely</w>
bri l
direc tors</w>
acqu is</w>
sand w
li ve
C ustom
ca ve</w>
ste aling</w>
.europa.e u
grand father</w>
stop ping</w>
mor nin</w>
do in'</w>
fur n
im en</w>
S tu
vil le</w>
P s</w>
te ams</w>
satisfac tion</w>
199 2</w>
ra p</w>
ro cks</w>
ca using</w>
kin ds</w>
RE GU
v ast</w>
IC T</w>
expor ters</w>
sha me</w>
P ati
quali fy</w>
swi f
emer ged</w>
tra ffic
3 (2</w>
serv ant</w>
dec om
sacri fice</w>
occu pi
explain s</w>
sol ved</w>
FB I</w>
dec or
G N
inter ference</w>
prac tically</w>
pl un
tro ops</w>
simpli fied</w>
carri age</w>
ap par
ne vertheless</w>
infra structures</w>
What ever</w>
2. 3</w>
em pire</w>
par is</w>
lo red</w>
bai li
enthusi as
ste ady</w>
fa ils</w>
Pol and</w>
her o
per missible</w>
haw k</w>
comp lies</w>
200 5/
Ch ristmas</w>
t us</w>
s an</w>
foc using</w>
in san
p ink</w>
de tri
neare st</w>
k al
Associ ation</w>
Qu e
ore a</w>
magne tic</w>
or g
pre ferential</w>
wid th</w>
corri dor</w>
less ons</w>
lan tic</w>
ri gh
or a</w>
pron oun
cat ches</w>
no where</w>
whe el
Bel gium</w>
conflic ts</w>
enjo yed</w>
selec tive</w>
spectr um</w>
rec all</w>
deman ds</w>
en tries</w>
g ates</w>
S am
inv est</w>
ro ad
ex cre
S IS</w>
shi pment</w>
be ast</w>
bur y</w>
sp ra
D oc
as certain</w>
7 4</w>
se as</w>
clo thing</w>
vo ices</w>
r out
expor ter</w>
win s</w>
bene ficial</w>
n in
ingredi ents</w>
b ath</w>
p ounds</w>
E ner
plan ted</w>
1 (
m ass
Appen dix</w>
indic ative</w>
C he
vacc ination</w>
constra ints</w>
CH MP</w>
ic ians</w>
3 5
hom es</w>
Lis bon</w>
organis ms</w>
mo vable</w>
conf used</w>
bur g</w>
N ext</w>
broadca sting</w>
trac king</w>
wit ch</w>
reduc tions</w>
privi leg
tren ds</w>
belon ging</w>
p in</w>
loc ate</w>
t s'</w>
Par is</w>
citiz en
establish es</w>
ro t</w>
sal ary</w>
attemp ted</w>
ro ads</w>
twi sted</w>
eg g</w>
mysteri ous</w>
but ter</w>
I ts</w>
4. 3</w>
pres sive</w>
B re
succe eded</w>
6 (2</w>
8 0
hear t
deci ding</w>
recipi ents</w>
Char lie</w>
fil ed</w>
cohe rence</w>
v ince</w>
elim ination</w>
tal ks</w>
ri a</w>
dom ic
Wh ite</w>
p is
ware house</w>
advis ed</w>
exerc ising</w>
man ip
mi ke</w>
for nia</w>
sha ke</w>
concentr ated</w>
try in</w>
V II</w>
pri de</w>
tal ent</w>
smil ing</w>
quie tly</w>
pain ful</w>
land s
mus cle</w>
ser um</w>
observ ation</w>
Ric hard</w>
COM (
dem on</w>
oxy gen</w>
al ism</w>
twel ve</w>
marke ted</w>
soli darity</w>
war rant</w>
mil d</w>
h ated</w>
experi ences</w>
re iter
terri fied</w>
Com p
contain ers</w>
di o</w>
m n
gain ed</w>
dispu ted</w>
organis ational</w>
200 8/
l it</w>
bas eline</w>
employ ers</w>
broad er</w>
human ity</w>
farm er</w>
n is</w>
cry st
teach ers</w>
fla me</w>
ra q</w>
prin cess</w>
m ouse</w>
constitu tional</w>
CO N
A mend
Mem bers</w>
re dit
St and
Al so</w>
de grad
bal ances</w>
sh ell</w>
shor tly</w>
8 5
resol ved</w>
an i</w>
D F</w>
acci dents</w>
coun ty</w>
calcul ations</w>
j esus</w>
op tim
li sting</w>
2 (1</w>
desi red</w>
char ging</w>
REGU LATION</w>
for ty</w>
deduc tion</w>
ag u
desper ate</w>
c able</w>
W at
Sa fe
pr ay</w>
mean time</w>
w ling</w>
Mar ket</w>
mur mu
cigare tte</w>
safe guards</w>
od d</w>
lat ely</w>
agg res
b li
at ories</w>
af ore
eri al</w>
compe ting</w>
si sters</w>
al ysis</w>
dri vers</w>
audi ence</w>
ef s</w>
e fully</w>
for warded</w>
ver sions</w>
devo ted</w>
sol ar</w>
I .
t s
re tain</w>
C ause</w>
b in</w>
wan ting</w>
ann ually</w>
sp a
sha king</w>
i ti
har der</w>
Ad di
ant a</w>
van ished</w>
Regi onal</w>
pen sions</w>
ble w</w>
c umul
j am
no tion</w>
s ounded</w>
7 6</w>
g el
diff er</w>
afore mentioned</w>
rec ur
con junction</w>
impor ter</w>
en ny</w>
lan e</w>
vis ited</w>
engine ering</w>
gain s</w>
manufactu red</w>
mor al</w>
import ation</w>
di ame
regre t</w>
da wn</w>
S il
pain ting</w>
0 8</w>
tan ks</w>
S un
el derly</w>
sha ped</w>
CH AP
new ly</w>
situ ated</w>
ra el</w>
off ences</w>
h ers</w>
swif tly</w>
distingu ish</w>
M ini
M ake</w>
ge on</w>
re ward</w>
ph r
conci liation</w>
met res</w>
S U
N G</w>
cat tle</w>
ob s
v om
Min ister</w>
lis bon</w>
mon d</w>
st en
remain der</w>
war ran
an gel</w>
D G
recal led</w>
ge st
mo bil
ear ned</w>
re tri
la sting</w>
enlar gement</w>
bad ly</w>
ric hard</w>
we alth</w>
G ra
explan ations</w>
m as
threat ening</w>
fulfil ling</w>
6 00</w>
den tally</w>
poin ting</w>
arri ve</w>
el ds</w>
W al
s light</w>
n ate</w>
administ rations</w>
fre ely</w>
eng agement</w>
dee per</w>
intelli gent</w>
cont ends</w>
Tit le</w>
Be sides</w>
conven tional</w>
Un less</w>
S al
pu zz
R IP</w>
l en</w>
dir t</w>
S en
in t
po t</w>
1 1.
ac ute</w>
fir mly</w>
en cing</w>
CHAP TER</w>
secon dly</w>
no ble</w>
.europa.eu /
elec tions</w>
ris es</w>
min ds</w>
be ating</w>
threat ened</w>
inten sive</w>
sul ph
c ure</w>
2. 5</w>
recep tion</w>
brea the</w>
me dit
G ot</w>
perio dic</w>
fore see
g all
ne ys</w>
in hal
leap ed</w>
U SA</w>
st ays</w>
assi sted</w>
econom ically</w>
elec ted</w>
en tail</w>
ber g</w>
vali dation</w>
sh ed</w>
medi ation</w>
imag ined</w>
break down</w>
L an
compe te</w>
cl arity</w>
world wide</w>
an no
tr ace</w>
car b
N ame</w>
199 0</w>
po e
some what</w>
acc ru
S um
thor ough</w>
preci ous</w>
aff air</w>
P lan</w>
St re
renew al</w>
F OR</w>
In te
bra ke</w>
O pin
9 2</w>
lon ely</w>
S .</w>
L O
col ors</w>
con fron
infl ation</w>
del ayed</w>
exha ust</w>
re turning</w>
e tal</w>
EUR OP
Wi thin</w>
wit n
fort une</w>
al ong
in trav
my stery</w>
.. ..</w>
I B
N ever</w>
s our
wh it
si on
jur y</w>
har b
war n</w>
photograp hs</w>
whe els</w>
sh r
fore head</w>
ber y</w>
tra p</w>
ge dly</w>
concep ts</w>
extre me</w>
encour aging</w>
E li
transpor tation</w>
obli g
t ter</w>
ro ot</w>
bas ement</w>
Ri ghts</w>
trad ers</w>
bull shit</w>
cou ch</w>
m are</w>
spac es</w>
peti tion</w>
concentr ate</w>
ric h
bur st</w>
red un
mat ches</w>
flu id</w>
R T
C at
0 6</w>
over view</w>
pas sport</w>
less on</w>
U p
O T
char ter</w>
Par t
201 1/
electr on
Ty pe</w>
modi fication</w>
war ned</w>
un expected</w>
p ine</w>
along side</w>
comp rising</w>
pa ediatric</w>
Mini stry</w>
seven th</w>
ul ate</w>
co ated</w>
vac ation</w>
S ur
mer chan
c m</w>
Pub lic</w>
bre eding</w>
prolon ged</w>
gl ance</w>
W el
adver sely</w>
per mits</w>
av en
C a</w>
de partments</w>
evalu ations</w>
cle aring</w>
C am
In stitu
deep ly</w>
A R</w>
9 8/
entit lement</w>
educ ational</w>
ini b</w>
tr unk</w>
pain ted</w>
reserv ation</w>
Any way</w>
challen ged</w>
grand mother</w>
gener ate</w>
absor ption</w>
che er
ax is</w>
0 7</w>
robo t</w>
Re ally</w>
inter ro
9 3/
consul ting</w>
af for
ti ce</w>
st ressed</w>
SI ON</w>
9 1</w>
Fur ther</w>
coun ted</w>
macro economic</w>
9 8</w>
reven ge</w>
C all</w>
3 2
religi on</w>
atten d</w>
dispen s
deteri oration</w>
mat ure</w>
occupi ed</w>
therap eutic</w>
ne ar
fe ature</w>
1 20</w>
C D
consen sus</w>
inter vals</w>
rene wed</w>
sl ammed</w>
. and</w>
le ge</w>
d aries</w>
sampl ed</w>
f red</w>
me x
hydro gen</w>
st un
indepen dently</w>
9 3</w>
pa used</w>
be l</w>
cap tured</w>
tu be</w>
grad ual</w>
sp in
ur gency</w>
concomit ant</w>
p end</w>
pr us</w>
Ener gy</w>
telecommunic ations</w>
swe at</w>
na m</w>
ati n</w>
fool ish</w>
superi or</w>
disgu sting</w>
cop y
V E</w>
succe ed</w>
sta tic</w>
1. 5</w>
ans wering</w>
inhe rent</w>
mistak es</w>
S C
under mine</w>
W est</w>
B e</w>
direc tions</w>
ren tal</w>
conven tions</w>
assign ment</w>
hi ps</w>
L oc
B en</w>
amoun ting</w>
E ast</w>
pi e</w>
sur render</w>
afr ica</w>
civili an</w>
p. m.</w>
Au stria</w>
ard ous</w>
phys ician</w>
squ ad</w>
under ground</w>
el lan
be g</w>
confir ms</w>
ch ronic</w>
sto ck
sign ing</w>
struc tured</w>
mis erable</w>
b ite</w>
Fun ds</w>
do sing</w>
vege tables</w>
MEN T</w>
reli ability</w>
coordin ate</w>
ign ore</w>
w ounds</w>
H u
sem i</w>
bel ly</w>
fail ing</w>
pri ze</w>
fashi on</w>
T al
comp are</w>
Afr ica</w>
h ec
accommo dation</w>
coast al</w>
D ate</w>
tem ple</w>
neigh bor
human itarian</w>
son gs</w>
cur ious</w>
ro gen</w>
forec ast</w>
thro wn</w>
gar age</w>
sli d</w>
N ice</w>
alle gedly</w>
D EC
fol ks</w>
frequ ent</w>
implic ations</w>
we gian</w>
ast ro
Su per
ol ine</w>
7 7</w>
Pati ents</w>
sh ru
V III</w>
an ian</w>
trad er</w>
de aths</w>
bel gium</w>
hen ry</w>
broad cast</w>
complex ity</w>
poul try</w>
brea ks</w>
d ul
respec ts</w>
ser ial</w>
Every one</w>
supp lement</w>
Micro soft</w>
kis sed</w>
multi lateral</w>
re jection</w>
am i</w>
In dia</w>
gentle man</w>
correc ted</w>
N G
precau tionary</w>
de preci
cros sing</w>
re lies</w>
xi li
M u
st em
for um</w>
Res e
warri ors</w>
Ser v
a b</w>
su ms</w>
ex changed</w>
S till</w>
boun daries</w>
gener ations</w>
assum ing</w>
particip ant</w>
wholes ale</w>
R O
correc tive</w>
inter val</w>
He alth</w>
d res
remem bering</w>
is k</w>
ra rely</w>
ir rit
sum mon
P an
ra ft</w>
al bu
ch in</w>
u de</w>
ki dding</w>
d rank</w>
af fi
defe at</w>
w ow</w>
th o
dam ned</w>
Cha m
I ON</w>
tur key</w>
bo ats</w>
gal ax
fu r</w>
ci ally</w>
vi et</w>
sw im
op tional</w>
st y
loc ations</w>
5 (1</w>
negoti ated</w>
gluc ose</w>
appar atus</w>
rhy th
i red</w>
i ii</w>
exc ise</w>
co ins</w>
haz ardous</w>
ra in
f lic
po land</w>
hop es</w>
r ai
t less</w>
che ap</w>
b age</w>
coo king</w>
in fin
Strat egy</w>
guil t</w>
pic king</w>
pic ally</w>
sh eriff</w>
ig no
live stock</w>
foresee able</w>
M eas
proce ed</w>
con fined</w>
M any</w>
bro ther
sa fer</w>
but t</w>
otherap y</w>
mo dule</w>
S S
ob serve</w>
termin ated</w>
po sts</w>
pre domin
l ing
Opin ion</w>
wor thy</w>
yi eld</w>
rein for
tion er</w>
O pen</w>
le p
s add
establish ments</w>
A G</w>
we l</w>
sl aughter</w>
app rais
near by</w>
L ou
j ames</w>
promo ted</w>
design ate</w>
for ma
( 3)(
or ph
p ays</w>
ell er</w>
traffic king</w>
techn ically</w>
g ab
jum ped</w>
1. 3</w>
ju ice</w>
jo ining</w>
w ars</w>
thro m
cy cles</w>
liqui dation</w>
pro ven</w>
Rese arch</w>
vis ory</w>
ati a</w>
4 (2</w>
comp ound</w>
lo wered</w>
ad oles
swit ched</w>
O ffic
simul taneously</w>
occur rence</w>
kid ney</w>
tari ffs</w>
person ality</w>
acqu ain
re act</w>
ho ok</w>
th ing
weigh ted</w>
k ins</w>
B ud
Thi rd</w>
de rers</w>
Com man
photograp h</w>
se al</w>
id al</w>
respon ded</w>
appoin ting</w>
emo tions</w>
hall way</w>
propri e
post al</w>
w ashed</w>
ma kers</w>
ru ined</w>
B il
pi zz
k ish</w>
sustain ed</w>
cle ared</w>
cour ses</w>
7 9</w>
ph a</w>
S ME</w>
mer its</w>
in dia</w>
elimin ate</w>
t ful</w>
micro soft</w>
bic y
expan ded</w>
supple mented</w>
god damn</w>
TI ONS</w>
expl ore</w>
P C</w>
advis e</w>
li ons</w>
op pon
envel ope</w>
mo des</w>
disco very</w>
al ties</w>
s me
4. 8</w>
subsidi arity</w>
im migration</w>
O ver
weak ness</w>
ref ri
S ing
perman ently</w>
le an</w>
Custom s</w>
bu reau</w>
isol ated</w>
fl ash</w>
elev ator</w>
gri d</w>
sub missions</w>
mid night</w>
time table</w>
3 ,
d dy</w>
leaf let</w>
cr ush</w>
limit ations</w>
po ison</w>
annex ed</w>
refri ger
standardis ation</w>
preclu de</w>
as ive</w>
dis close</w>
un founded</w>
se aled</w>
in dent</w>
' Cause</w>
expen se</w>
R S</w>
sequ ence</w>
bu m
he sion</w>
K ar
9 6</w>
au xili
ch er
deman ded</w>
J ames</w>
F rank</w>
pass es</w>
less ly</w>
refun ds</w>
sus cep
diame ter</w>
M ed
complain ant</w>
imm unity</w>
persi st
manife stly</w>
p acked</w>
K o
sol vent</w>
g ul
re medi
Hen ry</w>
may or</w>
se gment</w>
p lo
o' clock</w>
pl ing</w>
tal kin</w>
T ER
fi res</w>
form alities</w>
grap h</w>
len e</w>
suspic ion</w>
demon stration</w>
liter ally</w>
tr apped</w>
pi er
pil ls</w>
an ch
revie wing</w>
emo tional</w>
um ulation</w>
log ist</w>
intrav en
pho to</w>
qu alit
in et</w>
fl uc
newsp aper</w>
CF SP</w>
str ate</w>
di et</w>
M ary</w>
ten dering</w>
re voc
boo k
st ating</w>
cl ed</w>
y an
real istic</w>
sun light</w>
dra ws</w>
Rec om
geograp hic</w>
stran g
bri tish</w>
R el
entrepreneur ship</w>
g ases</w>
1 (2</w>
Un til</w>
ma 'am</w>
kne e</w>
foot note</w>
shor ter</w>
or r
pap er
analy tical</w>
I X</w>
vari eties</w>
co ach</w>
wh ilst</w>
testi mony</w>
conc ession</w>
auc tion</w>
sti r
den y</w>
tim ing</w>
anticip ated</w>
quali fication</w>
p es
wa it
addres see</w>
fo cus
ho sti
N one</w>
hum ili
S E</w>
L ar
be ard</w>
Ma ster</w>
wal ks</w>
co m</w>
in land</w>
erron eous</w>
hand some</w>
rep lies</w>
reduc es</w>
br ush</w>
di g</w>
lean ing</w>
chocol ate</w>
consci ousness</w>
x ious</w>
D ri
mus cles</w>
d op
or able</w>
4. 5</w>
pa tional</w>
th ed</w>
wel ling</w>
In vest
A ir</w>
Loo ks</w>
mag ni
popul ations</w>
S ci
dep lo
belon ged</w>
ev in</w>
V ic
y n
stop s</w>
Speci fic</w>
sus pend</w>
di min
heavi ly</w>
evalu ating</w>
defici encies</w>
g au
distor tions</w>
RE S</w>
per pe
Feder al</w>
re insurance</w>
surr ounding</w>
No body</w>
de re
occas ion</w>
f li
9 4</w>
prosec ution</w>
cro p</w>
fir ing</w>
modi fy</w>
kno ck</w>
ED F</w>
stran ger</w>
por te
announ cement</w>
inte st
W ho
writ er</w>
thre shol
bra ve</w>
re t
cru el</w>
reme dies</w>
fer tility</w>
continu ity</w>
bun d
pris oner</w>
ve y</w>
Recom men
sta ke</w>
M ex
Mi ke</w>
k el
investi gate</w>
post p
escor t</w>
explo itation</w>
9 7</w>
tu m</w>
vis itors</w>
compens ate</w>
h ence</w>
prosecu tor</w>
Ap propri
e ter
N umber</w>
hor ror</w>
set up</w>
wh ist
cultiv ation</w>
V o
determin es</w>
acces sibility</w>
ext ingu
ad mission</w>
tre aties</w>
bre e
Ne vertheless</w>
Doc tor</w>
tex ts</w>
Mar k</w>
8 9/
exten ding</w>
E mp
gh an
n ish</w>
9 0
g lim
recommen d</w>
b are</w>
Po int</w>
integr al</w>
org ans</w>
in n</w>
attemp ting</w>
loc ks</w>
fluc tu
win ning</w>
pro jected</w>
bas sad
(1)( a</w>
pist ol</w>
bo vine</w>
weigh ing</w>
preven tive</w>
necess ity</w>
or n</w>
al '</w>
illu min
clari fication</w>
recy cling</w>
Y et</w>
o tic</w>
begin s</w>
f lower</w>
pac king</w>
tou ching</w>
ga ther</w>
fo ods</w>
re verse</w>
P h
I 'm</w>
bur dens</w>
ES MA</w>
clo set</w>
accoun ted</w>
ant s'</w>
bo s
ty pically</w>
mat ri
sec rec
explan atory</w>
dossi er</w>
C I</w>
hi d</w>
gu es</w>
9 5/
fo ster</w>
scram bled</w>
incredi ble</w>
obstac le</w>
bo dy
imm une</w>
per cep
cat s</w>
de puty</w>
house holds</w>
br ac
ec ho
conf er</w>
B rus
scre w</w>
We b</w>
gly ca
M ari
dec ade</w>
magaz ine</w>
en ters</w>
de dicated</w>
di l
fore stry</w>
half way</w>
p it</w>
pl ates</w>
en cry
Por tugal</w>
Bel gian</w>
appropri ately</w>
ur ine</w>
tran s</w>
negoti ate</w>
an der</w>
Safe ty</w>
trac ks</w>
s killed</w>
in appropriate</w>
the ma
corpor ation</w>
the at
R en
http:// www.
To day</w>
fre ed
: 30</w>
wi ves</w>
ver ies</w>
M e</w>
entit lements</w>
d am</w>
3. 3</w>
ul timate</w>
threshol ds</w>
tor ture</w>
secrec y</w>
M other</w>
bas ically</w>
che es
pe aceful</w>
ti t
att ach</w>
sk ir
j i
bil ls</w>
Se a</w>
bra ins</w>
thr one</w>
terri bly</w>
ad o</w>
un limited</w>
nation ally</w>
imp aired</w>
sw ung</w>
friend ship</w>
iz ing</w>
gh test</w>
un comfortable</w>
dis continued</w>
differen ti
awa ke</w>
s core</w>
ter ies</w>
l ls</w>
min es</w>
inten si
Que en</w>
Str uc
bra king</w>
weak nesses</w>
fisher y</w>
inhibit ors</w>
en na</w>
ru in</w>
rout ine</w>
us age</w>
sho ts</w>
margin s</w>
man s</w>
M is
10 1</w>
S us
cancel lation</w>
Tran s
R ed</w>
m ates</w>
clo ak</w>
app ellan
ast ers</w>
sk in
loo kin</w>
co w</w>
pharmac ist</w>
ag on
ep iso
J er
aw esome</w>
multi annual</w>
ini an</w>
al er
ion ally</w>
S O</w>
n el
clai ming</w>
bi d</w>
occu pational</w>
age ing</w>
sh ut
di al</w>
bel gian</w>
li fel
C E
viol ation</w>
phi los
sp il
precau tions</w>
mini um</w>
as sured</w>
PD O</w>
cr ack</w>
for th
mor tal</w>
pursu it</w>
or o
D E</w>
tem plate</w>
P AR
com bus
re tention</w>
u re
au stria</w>
bio diversity</w>
200 7/
intermedi ary</w>
re ha
S how</w>
patter ns</w>
main tains</w>
brief ly</w>
D R
prob ability</w>
rub ber</w>
g lit
overwhel med</w>
t tes</w>
sc attered</w>
lic it</w>
sm u
st ag
pan ic</w>
aw ful</w>
s qui
good bye</w>
mor tality</w>
cur se</w>
trans l
dividen ds</w>
soci eties</w>
mag ical</w>
le x
pur se</w>
To tal</w>
an ony
i ghts</w>
ambi tious</w>
ti es'</w>
S et
sa il
gu essed</w>
prescri ption</w>
ch lori
grat eful</w>
as ha
R &
on ally</w>
em peror</w>
ann er</w>
N at
vail ing</w>
s ay
ghan istan</w>
d ors</w>
compar ative</w>
sli de</w>
Eng land</w>
m aid</w>
pun ishment</w>
mus e
fail ures</w>
con dem
negoti ation</w>
eng age</w>
max im
ti a</w>
8 00</w>
bor ing</w>
2 (2</w>
prohi bit</w>
attribu table</w>
m ons</w>
op hi
holi day</w>
adv ances</w>
P ay
lo ver</w>
bo wl</w>
the ore
sim pl
- 1</w>
shel ter</w>
observ es</w>
chan ces</w>
ev a</w>
C B</w>
ar row</w>
wi ped</w>
aller gic</w>
i .</w>
W ar
pu s</w>
p ump</w>
comm only</w>
app le</w>
up grad
col on
clin ic</w>
peri al</w>
op ens</w>
Swe den</w>
subsi dis
deduc ted</w>
so m</w>
fulfil s</w>
enfor ced</w>
ac ulture</w>
inspec tor</w>
dest iny</w>
in di
em powered</w>
pal m</w>
rel uc
patro l</w>
occas ions</w>
Serv ices</w>
cha ins</w>
speci fying</w>
d ag
err al</w>
s mith</w>
do c</w>
ER DF</w>
apprais al</w>
night mare</w>
missi le</w>
re bel
child hood</w>
sil ently</w>
u tes</w>
prospec ts</w>
beli ef</w>
Pro f
bott les</w>
mu no
vi gil
k le</w>
Th ink</w>
feder ation</w>
suspic ious</w>
syner gies</w>
nit ure</w>
poli tic
shel f</w>
stu dio</w>
comm un
constitu ting</w>
re mark
bas es</w>
be ef</w>
witn essed</w>
arti st</w>
sub ordin
EA N</w>
deriv atives</w>
th esis</w>
i ary</w>
ch ase</w>
in habit
f es
distinc t</w>
v is</w>
S E
s ni
ta b</w>
st es</w>
mu d</w>
O D
jap anese</w>
mother fuc
back up</w>
Brus sels</w>
appe aring</w>
a u</w>
L ady</w>
ad ds</w>
datab ases</w>
T ec
tor n</w>
bat ch</w>
den ed</w>
residu al</w>
bu tt
proprie tor</w>
li est</w>
analy se</w>
parlia mentary</w>
in dispens
Ru le</w>
pharmaceu tical</w>
win ding</w>
gr in</w>
Ch il
igno red</w>
ma thema
noti fications</w>
aer o
H IV</w>
guar ding</w>
pa thetic</w>
comp rise</w>
un due</w>
choo sing</w>
st in
lun gs</w>
toler ance</w>
V ol
sex y</w>
h o</w>
j a</w>
pill ar</w>
G H
g low</w>
dis cover</w>
Ar t</w>
ar di
in complete</w>
bo ards</w>
haz ard</w>
Den mark</w>
sk ill</w>
pre served</w>
ed it</w>
modi fications</w>
tan cy</w>
B ased</w>
di versi
fat al</w>
af fir
moun ted</w>
shop ping</w>
trans position</w>
fre sh
Ex cept</w>
A gr
Bi g</w>
re strial</w>
mur derer</w>
en i
H C
alterna tives</w>
ga thering</w>
N R
de tention</w>
Rom ania</w>
ack er</w>
clu e</w>
il licit</w>
zz t</w>
freed oms</w>
ques tioned</w>
be an</w>
am y</w>
or i</w>
in spi
enjo ying</w>
de pression</w>
gl ory</w>
H am
cho ices</w>
ris on</w>
is er</w>
C AP</w>
investig ated</w>
Bri tish</w>
ar ises</w>
secre tariat</w>
F ive</w>
sla ve</w>
share holder</w>
substitu te</w>
cred its</w>
A F
bul lets</w>
investig ating</w>
g gy</w>
serv es</w>
barri er</w>
m all</w>
li ances</w>
ill ary</w>
n ic</w>
b acked</w>
com plying</w>
I F</w>
bench mark</w>
k les</w>
kee per</w>
out comes</w>
ori sts</w>
p ity</w>
ap ers</w>
gui ded</w>
fair ly</w>
institu te</w>
D C</w>
c is
fl ames</w>
cont em
exerc ises</w>
pp y</w>
fore sts</w>
ir s</w>
ti de</w>
sp y</w>
endeav our</w>
purchas er</w>
ris tian</w>
s .
dr am
c us</w>
eng land</w>
m ant</w>
ai ming</w>
helicop ter</w>
chair s</w>
den ied</w>
bu yer</w>
murmu red</w>
po lish</w>
in ch</w>
Centr e</w>
sc ar</w>
fur niture</w>
mirac le</w>
tox ic
ir a</w>
docu mentary</w>
T ar
C A</w>
clin ically</w>
T ru
diplom atic</w>
citizen ship</w>
rela tives</w>
ap e</w>
in tr
O B
j an
over sight</w>
pi res</w>
con sor
fantas y</w>
repe at
signific ance</w>
In stead</w>
dis mis
O S</w>
reflec ting</w>
sub jected</w>
ta i
mur ders</w>
re stored</w>
col s</w>
roman tic</w>
supp er</w>
mer cy</w>
N on</w>
utilis ation</w>
re vo
appe als</w>
el f</w>
en comp
colum ns</w>
secur ing</w>
o wed</w>
su its</w>
un changed</w>
photo s</w>
do w</w>
1 /2003</w>
ac a
W o
0 9</w>
loy alty</w>
indispens able</w>
pun ch</w>
re ty</w>
dis order</w>
c it
w an</w>
Co hesion</w>
f a</w>
por tugal</w>
3 3
mi gh
in visible</w>
ch op
op posed</w>
up dating</w>
. you</w>
201 0/
col l
contro ller</w>
sen ten
har vest</w>
free zing</w>
testi fy</w>
al ph</w>
acc redit
fil ms</w>
ear n</w>
occas ionally</w>
por tion</w>
wag on</w>
si ves</w>
Con si
199 1</w>
aw k
reserv ations</w>
at titude</w>
hel pl
o b</w>
el ap
si zes</w>
in sured</w>
figh ter</w>
ca b</w>
F ore
versi ties</w>
S hi
kilome ters</w>
impor ting</w>
w ashing</w>
re spir
invo ice</w>
6. 1</w>
c .</w>
forec asts</w>
t ories</w>
Gre en</w>
en cl
S he
us eless</w>
celebr ate</w>
ke l</w>
ex es</w>
ten ing</w>
func tionality</w>
p acks</w>
autonom ous</w>
na h</w>
nutri tion</w>
fore ign
vir al</w>
5. 3</w>
2. 4</w>
dis car
po t
aqu aculture</w>
organ ise</w>
auxili ary</w>
it tle</w>
the matic</w>
bat tery</w>
P hi
alu minium</w>
Protec tion</w>
w ell
phys ically</w>
c andy</w>
ill ness</w>
F is
rus h</w>
O ver</w>
contamin ation</w>
ar i</w>
prec ision</w>
docu mented</w>
si ans</w>
accep ting</w>
presen ting</w>
trad ed</w>
discipl inary</w>
U .
ne ath</w>
bor row</w>
cur ve</w>
ill a</w>
cont acted</w>
to s
S elect</w>
g ated</w>
Con trol</w>
en force</w>
ow ns</w>
cumul ative</w>
contr actor</w>
l ity</w>
dis plays</w>
orien ted</w>
cali br
Hum an</w>
En viron
j i</w>
diabe tes</w>
jeopardis e</w>
hon our</w>
Char ter</w>
pre servation</w>
collap se</w>
As s
ner ve</w>
be ar
vi r</w>
c age</w>
b acks</w>
di ly</w>
publis hing</w>
trig gered</w>
up dates</w>
star t
ki a</w>
cigare ttes</w>
ME T</w>
k ly</w>
W here
sear ched</w>
U L
ch asing</w>
br o</w>
reflec tion</w>
de als</w>
re sting</w>
J ac
om in
uni or</w>
produc es</w>
circu it</w>
injur ies</w>
b es
treas ure</w>
o visual</w>
8 (2</w>
lu gg
veri fying</w>
il y
vas cular</w>
enhan cing</w>
w ri
neighbor hood</w>
expe di
asser tion</w>
light ning</w>
travel ing</w>
ren dered</w>
scre aming</w>
neutr al</w>
brus sels</w>
our se</w>
sou ls</w>
Amend ment</w>
hi st
where by</w>
baili ff</w>
Stre et</w>
predomin antly</w>
noti fying</w>
in tent</w>
aud ited</w>
Con stitu
win ner</w>
pat ch</w>
In ternal</w>
jeal ous</w>
W ar</w>
s au
00 0
asha med</w>
im muno
T u
Imple menting</w>
gen ius</w>
F ac
h ates</w>
mortg age</w>
o xi
reci proc
ri ghtly</w>
N a
st air
pe tro
na us
br on
Col onel</w>
enforce able</w>
su it
ci um</w>
gu s</w>
en ted</w>
Lu xembourg</w>
prin ter</w>
tr uc
pi pes</w>
coun sel</w>
sch ol
comple ment</w>
al ise</w>
uni versities</w>
re aches</w>
explic it</w>
co tton</w>
Jap an</w>
le vy</w>
Tec hn
it y'</w>
sa tions</w>
purch ases</w>
pre fer
Co operation</w>
liber ty</w>
trans national</w>
cre ative</w>
fer tilis
aggreg ate</w>
ff in</w>
re tail
s ink</w>
neighbour ing</w>
attr act</w>
partic les</w>
p y</w>
regi sters</w>
r ho
appellan ts</w>
week ly</w>
design s</w>
selec ting</w>
policem an</w>
C -
plain ti
ang el
ic on</w>
ran ging</w>
organ ism</w>
d '
broad band</w>
hur ts</w>
e e</w>
continu ously</w>
c ran
dead ly</w>
gre e
si e</w>
some day</w>
ra tional</w>
min eral</w>
un doub
dum p</w>
H old</w>
in er
s now
hat red</w>
mis t</w>
I V
labor atories</w>
de x
D E
phenom en
cir cul
man n</w>
ch uc
cl ar
e able</w>
na vy</w>
ir regular</w>
P en
Argu ment</w>
legen d</w>
gener ic</w>
termin ate</w>
m b
real ise</w>
in tru
nar ro
sh ine</w>
in dian</w>
trac tor</w>
P O
Tri bunal</w>
fab ulous</w>
distingu ished</w>
the me</w>
lo dging</w>
na me
cat alo
thi ef</w>
Sim il
ga zed</w>
em ail</w>
hand led</w>
colle agues</w>
E lec
insan e</w>
food stuffs</w>
mol ec
inven ted</w>
r ami
pass age</w>
o ved</w>
ch at</w>
under neath</w>
le o</w>
elimin ated</w>
believ ing</w>
negoti ating</w>
organ ized</w>
M ur
identi fies</w>
attemp ts</w>
in ches</w>
enti rety</w>
sn apped</w>
bril liant</w>
sc rap
explain ing</w>
le ague</w>
si onal</w>
it ate</w>
wa sted</w>
Si x
Chi ef</w>
om y</w>
sla ves</w>
e ag
presum ed</w>
marke t
suc k</w>
er b
mistak en</w>
un successful</w>
sac red</w>
dist ort</w>
al liance</w>
attribu te</w>
con grat
who a</w>
sc an
focus es</w>
F our</w>
cro wn</w>
ini a</w>
ta g</w>
f ence</w>
C .</w>
youn g
hard ware</w>
rou gh
enz a</w>
iz ation</w>
cab inet</w>
jec tive</w>
li fting</w>
as y</w>
hus bands</w>
Ma x</w>
P a
c ence</w>
lands cape</w>
hur ting</w>
ver n</w>
expan ding</w>
me tr
ri p</w>
z ab
depen dence</w>
j ack
T ry</w>
ance st
assa ult</w>
Ann exes</w>
align ment</w>
/9 6</w>
acci dentally</w>
spir its</w>
vers ary</w>
jun gle</w>
neighbour hood</w>
R emo
az ole</w>
embarrass ed</w>
vi able</w>
Ch eck</w>
E st
G al
pe op
R ol
multi p
herit age</w>
vac u
roman ia</w>
Secon dly</w>
Net work</w>
addi tives</w>
bit ter</w>
bl ast</w>
Struc tural</w>
co ck</w>
copy right</w>
minim al</w>
ti ously</w>
nit rogen</w>
B ill</w>
interven e</w>
c he</w>
depreci ation</w>
vis iting</w>
insi sted</w>
B C</w>
ES F</w>
gh ten</w>
au to
IS SION</w>
wor d
re pay</w>
A IF
spa tial</w>
t ching</w>
A O</w>
tel s</w>
su preme</w>
mon key</w>
un fortunate</w>
sm ells</w>
top ics</w>
con spir
undoub tedly</w>
ly mp
proce eds</w>
ri an</w>
admir al</w>
tra de
incredi bly</w>
log ically</w>
na ils</w>
rec ourse</w>
tic o
ste e</w>
wis hing</w>
sil k</w>
den sity</w>
t z</w>
pro ving</w>
swe den</w>
bi o</w>
D addy</w>
na tive</w>
trem bling</w>
gl ori
cle ver</w>
im pris
divor ced</w>
clo th</w>
residu es</w>
ob server</w>
re jecting</w>
op a
summon ed</w>
missi les</w>
frag ile</w>
cas u
tr au
acqui ring</w>
d .
extr action</w>
n ail</w>
ec o</w>
EC D</w>
14 0
cli ff</w>
o ils</w>
ref using</w>
rif le</w>
4 2
cor n</w>
w ages</w>
hun ter</w>
st ain</w>
EUROP EAN</w>
it alisation</w>
h mm</w>
S S</w>
ti les</w>
activ ation</w>
sub cu
str ingent</w>
A A</w>
porte ur</w>
cop per</w>
b .</w>
re y</w>
swi m</w>
ven ess</w>
wel com
com partment</w>
attach ment</w>
AD R</w>
or gan</w>
min us</w>
mat er
depri ved</w>
s /
sti m
ry an</w>
B lack</w>
j im</w>
cryst al</w>
bud gets</w>
par ad
acc essing</w>
bo ot</w>
Agr icul
comman ds</w>
cham bers</w>
ben ch</w>
pl au
fe wer</w>
stu b
d .</w>
pro ph
is hes</w>
bu g</w>
w ay
el ing</w>
L E</w>
au tum
col our
un certain</w>
d al
orien tation</w>
Ad minist
hat ch</w>
fa st
kidn apped</w>
ligh ting</w>
O ld</w>
gho sts</w>
fam ily
consum ed</w>
over dose</w>
ec .europa.eu/
R ome</w>
3 /EC</w>
h em
qualit ative</w>
fl ag
su rely</w>
philos op
plan es</w>
ref rain</w>
O ECD</w>
Do cu
system atically</w>
l ingu
d der</w>
ev ac
con form</w>
public ations</w>
audi o</w>
S R</w>
Con di
por tal</w>
gi fts</w>
spo tted</w>
el abor
train s</w>
inst ant</w>
rein forced</w>
audi ovisual</w>
den mark</w>
ti um</w>
ut ch</w>
rob bery</w>
Offic er</w>
re production</w>
applic ants'</w>
tari ly</w>
NC Bs</w>
inter n
pe e</w>
z o</w>
parame ter</w>
40 /94</w>
there after</w>
swim ming</w>
ven ia</w>
lab els</w>
ce il
evi dent</w>
o on</w>
chan ge
psy chi
far ther</w>
6 7
P u
sli p</w>
F er
w ines</w>
distur ban
welcom ed</w>
cor p
trac es</w>
am ong
dis advant
F il
me ster</w>
pen ing</w>
dro pping</w>
fra me
swee tie</w>
ton ne</w>
substan tiated</w>
experi ment</w>
dr un
bel oved</w>
M s</w>
C as
or gia</w>
shar ply</w>
voy age</w>
throm bo
s ail</w>
invali dity</w>
conc essions</w>
Rem ar
ri pped</w>
rand om
dis count</w>
Re ference</w>
gri ef</w>
cap sul
W ow</w>
autum n</w>
lu x
h it
exc it
Hon or</w>
S wit
lu xembourg</w>
sigh ed</w>
among st</w>
mor s</w>
soci o</w>
gar bage</w>
rus hed</w>
tun a</w>
see ds</w>
down load</w>
/ EEC</w>
k es
b ols</w>
ca red</w>
al lo
pl en
F ine</w>
particul ars</w>
F uck</w>
bas e
spe aks</w>
AC E</w>
per ing</w>
10 ,000</w>
cancel led</w>
on ate</w>
pu p
compar ing</w>
ho c</w>
wol ves</w>
sho e</w>
discar ded</w>
du al</w>
en si
Comman der</w>
pa thy</w>
simpli fy</w>
1. 4</w>
fi erce</w>
po p</w>
un used</w>
instruc ted</w>
sym bols</w>
Ex ecu
c ann
D ef
W he
disturban ces</w>
sc ent</w>
s ickness</w>
In du
wh olly</w>
encl ature</w>
om ed</w>
an xious</w>
proto cols</w>
t ments</w>
municip ality</w>
hop efully</w>
r as
d ys
n d</w>
radio active</w>
speci alist</w>
stat ute</w>
R a
w rist</w>
demonstr ating</w>
bal ancing</w>
G M
ph y</w>
be ars</w>
7 0
minim ise</w>
mar sh
prof itable</w>
C lar
gri p</w>
stro ke</w>
ap ine</w>
ch at
ch y</w>
COMM ISSION</w>
1 !
vic inity</w>
ch ro
gr o</w>
fib re</w>
cal cium</w>
pas sion</w>
ori c</w>
combus tion</w>
accredit ation</w>
am a
ro o
Mil es</w>
delic ate</w>
10 4</w>
ti ve
jap an</w>
sens ors</w>
E urope
li fer
absor bed</w>
ar c
fro w
sol ic
s ke
st umbled</w>
duc tion</w>
rec ap
H T
compan ions</w>
war nings</w>
top ic</w>
practic able</w>
intraven ous</w>
Secre tary</w>
dre amed</w>
le um</w>
ar tan</w>
exac erb
repeat edly</w>
se ments</w>
tu bes</w>
kis sing</w>
A V
f ist</w>
ear th
pro jections</w>
dis posed</w>
forbi dden</w>
crimin als</w>
adoles cents</w>
ur s
coun try
h its</w>
Addi tional</w>
f lies</w>
coun c
sovere ign</w>
N ic
inter s</w>
M m</w>
L at
ch ant</w>
to y</w>
tan g
mer ged</w>
dis bur
pass age
grand ma</w>
tow ns</w>
la sted</w>
L B</w>
shou ted</w>
P A</w>
deleg ations</w>
s lic
B us
swi ft</w>
gain ing</w>
conduc ting</w>
B ack</w>
H or
extr act</w>
s [
z u
compan ion</w>
me tal
est er</w>
govern or</w>
an xi
V en
sou p</w>
ep y</w>
al tar</w>
Ch rist</w>
Li eutenant</w>
con qu
pharmacokine tics</w>
sc ary</w>
desper ately</w>
sp reading</w>
2 -
align ed</w>
ar ts</w>
seri ousness</w>
ma il
ph ases</w>
consign ment</w>
foun dations</w>
coordin ating</w>
th y
3. 4</w>
du ke</w>
p assi
to e</w>
ol y
oblig atory</w>
municip al</w>
Sing le</w>
x y</w>
neg lec
ther ine</w>
re stor
re hear
B ob
I A
metabol ism</w>
exc iting</w>
v ap
di lu
T em
ti ps</w>
er adic
wi pe</w>
syn drome</w>
plan ets</w>
tr ous
tim ber</w>
pro ves</w>
il le</w>
H A</w>
direc torate</w>
us e
EU -
cros s
to ys</w>
acc ess
wav ed</w>
m aps</w>
le e</w>
cla uses</w>
ann e</w>
jo king</w>
si e
min ority</w>
tec h</w>
comp rises</w>
m o</w>
vo id</w>
galax y</w>
mono po
gu red</w>
pis sed</w>
rein force</w>
pa ths</w>
ha ble</w>
li tion</w>
ar ro
in vested</w>
peri ph
v ation</w>
migh ty</w>
I U
hy bri
ma ker</w>
10 2</w>
plainti ff</w>
A rea</w>
ol a</w>
counter fe
dign ity</w>
u ps</w>
replac ing</w>
Remar ks</w>
dis pose</w>
resi li
stab bed</w>
form ulation</w>
l ump</w>
plat forms</w>
audit or</w>
201 6</w>
revie ws</w>
contr actors</w>
ne phe
Fo od</w>
accep ts</w>
dwar f</w>
gest ure</w>
D ou
ul ated</w>
revol ution</w>
De partment</w>
valu ed</w>
swal lowed</w>
amoun ted</w>
ver t</w>
es tions</w>
6 8
3. 5</w>
Appropri ations</w>
campai gn
cir cles</w>
Jap anese</w>
dis asters</w>
am bassad
ag ne</w>
Execu tive</w>
r ics</w>
judic iary</w>
ke wise</w>
p ite</w>
j o</w>
ten d</w>
de an</w>
cere mony</w>
sna ke</w>
Every body</w>
in o
respon ding</w>
distor ted</w>
ord an</w>
destro ying</w>
j immy</w>
w ashington</w>
si re</w>
se ized</w>
ac company</w>
non sense</w>
A gen
min ent</w>
pharmacokine tic</w>
co efficient</w>
oper atives</w>
effec ted</w>
interpre t</w>
B R
under stand
Bul garia</w>
C M
lifel ong</w>
hi de
ff ing</w>
( a</w>
mo ist
5 5
persist ent</w>
figh ters</w>
acc ustom
convin cing</w>
dis able</w>
bi an</w>
Des pite</w>
S ay</w>
loy al</w>
rab bit</w>
alcoho lic</w>
am p</w>
dum b</w>
ber ry</w>
inclu sive</w>
volunte ers</w>
s no
accustom ed</w>
er ic</w>
vit ro</w>
gen e</w>
equival ence</w>
discipl ine</w>
p ha
D S
stri p</w>
laun dry</w>
un il
brea sts</w>
bas ket</w>
gr u
inv ites</w>
conf ess</w>
al pha</w>
p oured</w>
R oc
don e
Hel p</w>
associ ate</w>
collabor ation</w>
i ously</w>
conver t</w>
sel ler</w>
pizz a</w>
restra int</w>
co w
sli ghtest</w>
A gent</w>
il a</w>
4. 2.
http:// ec.europa.eu/
perio dic
Q U
op er</w>
foot age</w>
dai ry</w>
as ia</w>
l aughter</w>
audit ing</w>
f led</w>
trail er</w>
sen ds</w>
chec k
promis ing</w>
J im</w>
zab eth</w>
th less</w>
gam bling</w>
ste am</w>
scre wed</w>
d read
optim al</w>
G B</w>
w as
D .</w>
inter ior</w>
k ling</w>
pre n
3 (3</w>
issu er</w>
dic t</w>
1 10</w>
fo g</w>
fil tr
influ enza</w>
rescu ed</w>
orr ha
sugge sting</w>
survi v
interven tions</w>
meaning ful</w>
betr ayed</w>
cl icking</w>
deser ves</w>
bed ded</w>
im movable</w>
ra d</w>
los er</w>
al ley</w>
li qu
enter tainment</w>
n ut</w>
vit am
lugg age</w>
do ck</w>
z zy</w>
decreas ing</w>
se ated</w>
dis abilities</w>
so vo</w>
ro t
S pe
To o</w>
h ull</w>
D un
Por tuguese</w>
vam pires</w>
maj esty</w>
con fisc
wal let</w>
li gence</w>
thi az
deliber ately</w>
surve ys</w>
ques tioning</w>
mus ical</w>
blan ket</w>
ceil ings</w>
dis appointed</w>
m ers</w>
pul se</w>
presi dency</w>
hi er
down stream</w>
mo on
er n</w>
phenomen on</w>
en ame</w>
com promise</w>
sh ining</w>
d n
conclu ding</w>
inhabit ants</w>
defin ite</w>
ur ges</w>
dis continuation</w>
l ur
scru tiny</w>
dri ves</w>
visi bility</w>
ear liest</w>
diam ond</w>
spir it
co lored</w>
de ton
con figure</w>
mis ery</w>
treat ments</w>
t land</w>
j ake</w>
C ri
Administ rative</w>
har sh</w>
provisi onally</w>
S F</w>
benef iting</w>
auth or</w>
us s</w>
Acc ess</w>
cr ou
inter actions</w>
fil thy</w>
EF SA</w>
transf erring</w>
appropri at
inform al</w>
Th omas</w>
G F</w>
some place</w>
3 A
rela xed</w>
imag ination</w>
pronoun ced</w>
por tuguese</w>
scri pt</w>
lo dge</w>
is tics</w>
app y</w>
reli eved</w>
ca res</w>
po tat
web sites</w>
or s'</w>
oc ity</w>
C hic
T P</w>
In dian</w>
broad ly</w>
. 0
terr orists</w>
pers ensi
respir atory</w>
perce ived</w>
ch ic
r ash</w>
n est</w>
v ec
vol ati
inter rupt</w>
k l
descri bes</w>
dem ons</w>
methodo logies</w>
sha pes</w>
spec tac
trav elling</w>
lab or</w>
Fin land</w>
some time</w>
gg ling</w>
gr ound
b locked</w>
U kraine</w>
tu b</w>
Des cri
co inci
gol f</w>
be aten</w>
anc illary</w>
cool ing</w>
9 6
restor ation</w>
stimul ate</w>
thre ad</w>
St an
mo thers</w>
3 -
advoc ate</w>
H S</w>
re fin
F ail
tack le</w>
preten ding</w>
in puts</w>
ex pire</w>
vi an</w>
pe l</w>
th al</w>
cap abilities</w>
speci mens</w>
str ated</w>
muse um</w>
ro ots</w>
exhi bition</w>
are r</w>
ch rist</w>
intest inal</w>
chlori de</w>
F u
emo tion</w>
J immy</w>
men tions</w>
bur ns</w>
imp ly</w>
dre am
or bit</w>
borro wing</w>
G B
execu ting</w>
fashi oned</w>
co operative</w>
rel ess</w>
consist ently</w>
sm elled</w>
t ress</w>
hy gi
assi sting</w>
tr age
tri be</w>
an dum</w>
crus hed</w>
R yan</w>
don or</w>
daugh ter
a stron
in jections</w>
PRO DU
A m</w>
pro lifer
o oh</w>
com a</w>
l or</w>
ta m
strugg led</w>
in sec
classi c</w>
mat ching</w>
memor andum</w>
down stairs</w>
is tic
cr um
un ted</w>
ten derer</w>
rac ing</w>
1 12</w>
h is
Ass ess
f en
m um
po sted</w>
argu ing</w>
h itting</w>
tax i</w>
ff led</w>
potat oes</w>
chlor o
9 6/
c ess
ma tive</w>
po ckets</w>
mod ules</w>
sun day</w>
levi ed</w>
fab ric</w>
base ball</w>
si lic
propos ing</w>
adap ting</w>
amer icans</w>
plac ement</w>
medic ation</w>
ab dom
br a</w>
effici ently</w>
shi fted</w>
co in</w>
out lined</w>
pro sper
Wor king</w>
En ter
s essions</w>
confi gured</w>
sp ray</w>
B a
Tur key</w>
Fun c
capsul es</w>
psycho logical</w>
W ere</w>
cardi ac</w>
be ans</w>
han dic
or dering</w>
M AR
ES A</w>
par ked</w>
dispat ch</w>
91/ 4
Euro stat</w>
bil ly</w>
e ternal</w>
IS ION</w>
pa st
ta iled</w>
op ed</w>
pec u
ran g</w>
D A</w>
P le
privileg es</w>
car pet</w>
b ited</w>
te x</w>
war ding</w>
carb ons</w>
en tails</w>
holi days</w>
ys on</w>
ous y</w>
thu ania</w>
am bul
l i</w>
miti gation</w>
ha bit</w>
confi dent</w>
ha emo
g aps</w>
phr ase</w>
tt a</w>
collap sed</w>
dig ging</w>
Cl ass</w>
be gging</w>
n ick</w>
inten se</w>
ro cket</w>
war ming</w>
ess ica</w>
D V
intermedi aries</w>
slo pe</w>
sco w</w>
cy cl
des k
y o</w>
r ated</w>
P O</w>
end less</w>
fa ti
C lick</w>
stic ks</w>
rad ar</w>
sy l
Ma x
thor ough
er '</w>
trous ers</w>
vol tage</w>
S TA
ma b</w>
hor n</w>
pen ny</w>
municip alities</w>
M y
NC B</w>
euro stat</w>
co ok
. 1</w>
resi stant</w>
gu it
ma sters</w>
vir gin</w>
fri day</w>
ha ired</w>
Un cle</w>
AS A</w>
justi fying</w>
dece ased</w>
ac ade
exec ute</w>
87 (1</w>
dre aming</w>
th ouse</w>
bet ting</w>
deman ding</w>
d able</w>
L E
po le</w>
bo b</w>
Dam n</w>
1 /EC</w>
M rs</w>
Techn ical</w>
explo sives</w>
boo st</w>
persu ade</w>
dis hes</w>
experi ments</w>
distribu tors</w>
dec entr
paper work</w>
g ical</w>
li ghtly</w>
Part nership</w>
lo x
s oph
sh attered</w>
dro ps</w>
miti gate</w>
magni fic
differen tiated</w>
cere als</w>
.europa.e u</w>
elap sed</w>
I cel
finger prints</w>
al in</w>
im balances</w>
scho ol
ro c
vari ations</w>
stem ming</w>
g on
D utch</w>
su es</w>
Wel come</w>
eye balls</w>
o ath</w>
tex tile</w>
s .'</w>
influ enced</w>
par a</w>
glo ves</w>
d anny</w>
n b
exhaus tive</w>
L ist</w>
St ay</w>
bud dies</w>
experi mental</w>
remark able</w>
p iss</w>
ten s</w>
ra ises</w>
ou l</w>
hier arch
ex changing</w>
W ashington</w>
ye arly</w>
bu ck
mad ness</w>
shru gged</w>
up held</w>
tr ay</w>
Swit zerland</w>
ess ly</w>
Comp any</w>
A D</w>
mat h</w>
k on
Some body</w>
ro om
fe ared</w>
un anim
vacu um</w>
im pressed</w>
guar dian</w>
soph istic
M C</w>
L s</w>
y nam
dis ability</w>
inf erred</w>
head ache</w>
grand pa</w>
car d
ro aming</w>
grin ned</w>
ne ts</w>
negli gible</w>
che eks</w>
liti gation</w>
revoc ation</w>
S an</w>
IM F</w>
K en
st ur
awk ward</w>
on ds</w>
objec tively</w>
er y
adequ acy</w>
deal er</w>
integr ate</w>
righ te
we ed</w>
crow ded</w>
analo gue</w>
Th ough</w>
B r
al ling</w>
be ds</w>
No tice</w>
wis dom</w>
D S</w>
L ittle</w>
V ir
pati ence</w>
vali dated</w>
Sch engen</w>
great ly</w>
spin ning</w>
mag i
Sup port</w>
Ann ual</w>
compens atory</w>
clu ster</w>
y ar
transl ated</w>
circum stance</w>
ja w</w>
M el
em bedded</w>
P aper</w>
tion s'</w>
engine er</w>
sensi tivity</w>
J ake</w>
her d</w>
cau tiously</w>
correspon dence</w>
issu ance</w>
cat ching</w>
s lu
A M</w>
organ ising</w>
Direc tives</w>
inform ing</w>
ast ly</w>
c -
ris h</w>
ton y</w>
cor d</w>
S EC
Emp loyment</w>
modern isation</w>
acceler ate</w>
blo wn</w>
Recommen dation</w>
accoun tability</w>
Ad mini
v et</w>
is le</w>
swit zerland</w>
frequ encies</w>
G I</w>
T ech
H as</w>
Au dit
va kia</w>
c ers</w>
/9 2</w>
mu ta
N ations</w>
I E</w>
interven er</w>
invest ing</w>
high light</w>
gener ous</w>
r ors</w>
di alysis</w>
it ted</w>
polic y
ad he
bo red</w>
bl in</w>
fr action</w>
clai mant</w>
surpr ising</w>
dis man
san g</w>
D anny</w>
am p
cat astro
Nor way</w>
ap ol
en counter</w>
to oth</w>
na p</w>
Condi tions</w>
bul garia</w>
activ ate</w>
fru its</w>
6 4
fre ak</w>
O p
theat re</w>
medit er
fantas tic</w>
lo cal
Cham ber</w>
di oxide</w>
alloc ate</w>
conf ers</w>
e z</w>
L ong</w>
re paid</w>
in struction</w>
auth oriz
acc umulation</w>
al be
el et</w>
car tri
fri ghtened</w>
ag ic</w>
re feren
ali ze</w>
0. 5</w>
comp ounds</w>
bank rupt</w>
sto res</w>
li b
rat ings</w>
fai ry</w>
o wing</w>
and is</w>
bree ze</w>
D .
favour ite</w>
we al
mon sters</w>
autonom y</w>
tr act</w>
spec imen</w>
bo wed</w>
Assess ment</w>
Six th</w>
poll ut
th omas</w>
excit ement</w>
j ane</w>
S .
respec ting</w>
inter ruption</w>
Con clu
am on</w>
under stands</w>
o v</w>
cor ro
pru dent</w>
mediter ranean</w>
ste pping</w>
x y
perpe tr
loc k
challeng ing</w>
r age</w>
f ancy</w>
fib res</w>
D s</w>
in i</w>
L and</w>
ic idal</w>
isol ation</w>
ide al</w>
chi p</w>
H igh
Pur su
guarante eing</w>
8 (1</w>
DEC ISION</w>
out set</w>
app liances</w>
mis use</w>
an gi
ro les</w>
tu ary</w>
pro xim
e h</w>
glo be</w>
liter ature</w>
V is
is sa</w>
T V
car ton</w>
en closed</w>
al g
explo it</w>
syn chron
no vel
B or
las er</w>
rub bed</w>
ali ban</w>
anni versary</w>
L im
y elling</w>
coordin ates</w>
c s</w>
regi str
ro be</w>
car cin
pro vince</w>
don ors</w>
concer t</w>
eth ical</w>
at omic</w>
appe ti
dis par
neighb ors</w>
l ings</w>
Euro pol</w>
un conscious</w>
disadvant aged</w>
201 3/
swit ching</w>
pati tis</w>
lo t
T aking</w>
res ist</w>
announ ce</w>
B an
inev itable</w>
cler k</w>
sat urday</w>
ci pi
b at</w>
r ounded</w>
7 (1</w>
pat ri
str alia</w>
wa ist</w>
shou ting</w>
feasi ble</w>
C s</w>
h t
vel ocity</w>
to ast</w>
er ase</w>
simil arity</w>
thum b</w>
gene tically</w>
B .</w>
chi ps</w>
frame works</w>
f aded</w>
sh ud
mom my</w>
re vi
bacter ia</w>
assi um</w>
induc ed</w>
detri mental</w>
resi due</w>
N U
Any thing</w>
mat ched</w>
commissi oner</w>
seiz ure</w>
s can</w>
a ment</w>
cha os</w>
glyca emia</w>
ancest ors</w>
strugg ling</w>
ag a</w>
commer ce</w>
her oes</w>
ger ich
albe it</w>
cr ashed</w>
ak ers</w>
1 (3</w>
con secu
coo ked</w>
air line</w>
def ending</w>
Pursu ant</w>
e go</w>
m ar</w>
co incidence</w>
West ern</w>
prece ded</w>
mi a</w>
kil lers</w>
wa sting</w>
diagno sis</w>
free ze</w>
regul arity</w>
at o
compens ated</w>
guar ded</w>
eg y
F ar
feed ing
D ay</w>
imp ul
bom bs</w>
coun sel
supervis or</w>
f its</w>
eye bro
TI ES</w>
w rec
descri p
cul tures</w>
ele ph
dil ution</w>
G ran
H a
F OR
urs day</w>
Bet ter</w>
bicy cle</w>
awa k
cris es</w>
sp un</w>
scre amed</w>
C ali
we igh</w>
fol ders</w>
shol es</w>
supervis ed</w>
at tracted</w>
discus sing</w>
5 (2</w>
enti c</w>
fer on</w>
k night</w>
re b
ac knowledge</w>
vi br
ham mer</w>
champ ion</w>
9 0/
10 49
r he
re productive</w>
robo ts</w>
G ol
thank ful</w>
ast on
al ising</w>
id able</w>
gen o
inten tions</w>
ai ds</w>
e (s</w>
premi ums</w>
s wa
MEN TS</w>
muta tis</w>
G lo
fo ssi
vom iting</w>
8 2
as ian</w>
k ings</w>
en ic</w>
Simil arly</w>
rea dily</w>
I U</w>
jo hnny</w>
will ing
i onal</w>
ro y</w>
del ine</w>
adju sting</w>
the art</w>
Where as</w>
im pressive</w>
wai tin</w>
truc ks</w>
re sum
contro ll
in su
as sholes</w>
benef ited</w>
le ak
Mon it
remin ds</w>
tos sed</w>
bloc king</w>
v as</w>
sc are</w>
loc ker</w>
advant ageous</w>
6 /EC</w>
s enti
pos it
tri um
naus ea</w>
ai res</w>
ro m
Invest ment</w>
IN TER
under ing</w>
jo kes</w>
er ies</w>
e yed</w>
no te
affi li
J ane</w>
hosp itals</w>
ant ine</w>
star ving</w>
M P
hom icide</w>
stabil isation</w>
Under taking</w>
U. S.</w>
tr ash</w>
el ed</w>
cr ack
pes tic
gra in</w>
scre ening</w>
fl at
sha de</w>
ch icks</w>
sen ator</w>
W ol
lay ers</w>
1049 /2001</w>
cylin der</w>
st an</w>
al ex</w>
sti ff
R ES
od ds</w>
convic ted</w>
go at</w>
T or
la d</w>
in take</w>
Sun day</w>
j unior</w>
redun dan
cl ay</w>
Pr ince</w>
b iting</w>
gu ts</w>
ten derers</w>
ti m</w>
bo bby</w>
trou bled</w>
in her
defec ts</w>
hur ried</w>
lun g</w>
9 (1</w>
4. 6</w>
wor m</w>
appropriat eness</w>
lo bby</w>
circ ular</w>
rec ti
promis es</w>
hal t</w>
mod est</w>
t uc
resol ving</w>
rad es</w>
N or</w>
ro bert</w>
Ar thur</w>
u kraine</w>
in ate</w>
authori zed</w>
B S</w>
regul ate</w>
high way</w>
IF RS</w>
hn son</w>
pol ite</w>
C S</w>
recei ver</w>
gu t</w>
chick ens</w>
bo ld</w>
im pu
promp tly</w>
Fri day</w>
mut andis</w>
deser ted</w>
Pol ish</w>
nor th
bal lo
Lou is</w>
corpor ations</w>
simpl er</w>
ob servers</w>
fai thful</w>
T W
a sted</w>
Stat es'</w>
Le ave</w>
euro pol</w>
inter nationally</w>
pursu ing</w>
dan iel</w>
Med iter
( 7</w>
soci etal</w>
W om
privi lege</w>
envis ages</w>
bul k</w>
s ack</w>
Or der</w>
I ran</w>
he al</w>
at lantic</w>
aca demic</w>
N av
stre am
un employed</w>
in ine</w>
rap porteur</w>
ph il
auth entic</w>
C ho
plu g</w>
cur io
-- --
uni tion</w>
corp ses</w>
sugg estion</w>
deduc t</w>
jud gement</w>
D ur
achie vements</w>
dest ined</w>
om ing</w>
W H
pre requisite</w>
pain tings</w>
Tran sport</w>
out turn</w>
miti gating</w>
form in</w>
cl am
war m
Bo b</w>
Bob by</w>
wr in
to ol
10 5</w>
hom o
br it
moist ure</w>
ab el</w>
bio ci
un a</w>
civili zation</w>
mist ress</w>
un related</w>
nor way</w>
Com missi
rel s</w>
thin ess</w>
smo o
v ak</w>
red ness</w>
K i
obe y</w>
n es
magnific ent</w>
bo w
po se
bri de</w>
G ri
travel ed</w>
N ick</w>
vari ables</w>
AU C</w>
z ar
tiv al</w>
A ff
propor tional</w>
ed ges</w>
w y
occur ring</w>
p ters</w>
fe ars</w>
h our
ru de</w>
ch ill</w>
ogen ic</w>
tt i</w>
S che
butt ons</w>
Stand ard</w>
S han
fas cin
mar tin</w>
casu alties</w>
Jo hnny</w>
hel met</w>
wag ons</w>
neighb or</w>
expl oration</w>
Mediter ranean</w>
assi gn</w>
he patitis</w>
in tri
slaugh ter
irregul arity</w>
ur s</w>
im per
stu ffed</w>
clo sures</w>
predic table</w>
bo arding</w>
sc op
d ull</w>
sor ts</w>
ber ries</w>
min ors</w>
m um</w>
sever ity</w>
ro of
A lex</w>
ex am</w>
z om
n an
y u
buff er</w>
less er</w>
dismis sal</w>
K a
analy sing</w>
p pers</w>
accumul ated</w>
aggres sive</w>
willing ness</w>
rel ying</w>
wor thiness</w>
t ag
sil ly</w>
vari ation</w>
la h</w>
Hun gary</w>
ac in</w>
pres sures</w>
P D</w>
su ite</w>
ge t
dist ress</w>
S ho
am us
cin em
D em
integr ating</w>
en qui
va ult</w>
ce ments</w>
M S
R& D</w>
eli a</w>
l n
deser ved</w>
vir tual</w>
rap e</w>
re tired</w>
persensi tivity</w>
stre tch</w>
occup ation</w>
str ates</w>
cur sed</w>
mo tel</w>
na sty</w>
Dan iel</w>
applic ability</w>
Sta r</w>
excep tionally</w>
E L</w>
and ers</w>
threat en</w>
po lit
nephe w</w>
dra fting</w>
import antly</w>
E ffec
radi us</w>
el i</w>
concer ted</w>
me te
sol ving</w>
bl on
sur geon</w>
ul a</w>
vie wed</w>
sa int</w>
o e
har ass
12 5</w>
sophistic ated</w>
s wing</w>
swe pt</w>
t (s</w>
prop ag
aband on</w>
alleg es</w>
H an
lou is</w>
Prof essor</w>
wil liam</w>
i o</w>
jud ged</w>
under wear</w>
sor ce
char ming</w>
di ar
CYP 3A
defe ated</w>
un ions</w>
alloc ations</w>
Maj or</w>
pot assium</w>
stu me</w>
to oth
suspec ts</w>
vari es</w>
len i
con serv
sett ling</w>
fin land</w>
Maj esty</w>
bat teries</w>
accur ately</w>
i est</w>
mi grant</w>
divi de</w>
trac e
J an
delic ious</w>
under go</w>
stra in</w>
bast ards</w>
bi ke</w>
trage dy</w>
clu bs</w>
S to
Pro b
em a
amm unition</w>
I mp
di ary</w>
stam p</w>
Monit oring</w>
a tively</w>
drag ging</w>
con stru
Sat urday</w>
m ount</w>
sum mit</w>
ambi gu
y elled</w>
ho b
en tal</w>
newsp apers</w>
B ab
Li fe</w>
reha bil
on ment</w>
invo ices</w>
s welling</w>
oppon ent</w>
ly wood</w>
me tric</w>
por ting</w>
un desirable</w>
U p</w>
ali ens</w>
R ap
over l
k lin</w>
Sar ah</w>
aqu atic</w>
conveni ent</w>
t apped</w>
1999/ 46
O thers</w>
ine a</w>
thorough ly</w>
inspec tors</w>
co stume</w>
consecu tive</w>
Applic ation</w>
C V
daugh ters</w>
out ta</w>
gg le</w>
arm or</w>
pe ar
be have</w>
ex ag
reimbur sed</w>
judic ature</w>
extr ater
im it
fi a</w>
champ agne</w>
C EN</w>
in cl
Si x</w>
comb ine</w>
hor se
ski p</w>
F F</w>
curio sity</w>
catastro p
Pol ice</w>
cap su
se gments</w>
lo go</w>
cap ability</w>
O '
liqu or</w>
E ither</w>
eter nity</w>
fol k</w>
bo om</w>
em bas
pi on
bench marks</w>
3 rd</w>
ri dge</w>
Eur atom</w>
F ind</w>
Bil ly</w>
9 7/
Mex ico</w>
essi vely</w>
ab normal</w>
c al</w>
M s.</w>
mix tures</w>
fem ales</w>
Ed ward</w>
le v
t ness</w>
medi an</w>
Ex am
bo thered</w>
th at
mex ico</w>
az one</w>
ren e</w>
d ants</w>
sandw ich</w>
environ mentally</w>
m ill</w>
motherfuc ker</w>
hypo the
enzy mes</w>
occas ional</w>
U r
en shr
Amer icans</w>
shi pped</w>
mu tually</w>
assass in</w>
be ver
in ti
consign ments</w>
Wat ch</w>
E a
G ro
prob able</w>
Se ver
ol dest</w>
so far</w>
co di
dres sing</w>
pus sy</w>
De fin
B rit
u ous</w>
s wore</w>
atten ded</w>
diagno stic</w>
H ell</w>
ju st
Organ isation</w>
de x</w>
i .
lia ison</w>
gener ating</w>
gen t
di verse</w>
i tions</w>
La dies</w>
co sme
anti bio
le '</w>
sc he</w>
peri meter</w>
bab ies</w>
ca kes</w>
abol ished</w>
d ess
bra z
m ama</w>
form ats</w>
qu ery</w>
retail ers</w>
campaign s</w>
De tec
im men
flo od</w>
reg ener
Tech no
g ate
deteri or
tit les</w>
Hon ey</w>
Mar tin</w>
tour ist</w>
Bu reau</w>
di m
domic ile</w>
f ans</w>
ta ke
six ty</w>
200 8
ali ke</w>
nov ation</w>
liber alisation</w>
believ able</w>
ac ce
ren ted</w>
descri bing</w>
n i</w>
og le</w>
colle ague</w>
n age</w>
reg imes</w>
le af</w>
char ity</w>
experi encing</w>
L astly</w>
theore tical</w>
se am
l n</w>
ir an</w>
squee ze</w>
C N
com rades</w>
percep tion</w>
st are</w>
ex cipi
sne ak</w>
Pro ject</w>
ris ky</w>
lin king</w>
inqui ry</w>
bar n</w>
j on
trans formed</w>
sen ses</w>
sh iny</w>
att acking</w>
O ut</w>
condi tioning</w>
Aff airs</w>
ten e
convic tion</w>
explo sive</w>
thir dly</w>
bet a</w>
mess ed</w>
S R
gy m</w>
constru ed</w>
weigh ed</w>
es cal
cardi o
x ml</w>
credi ble</w>
din ing</w>
M anu
ad o
Rob ert</w>
in ely</w>
ver sus</w>
o dy</w>
ban kno
sch engen</w>
public ity</w>
e ager</w>
glo bal
con science</w>
C P</w>
ta p</w>
afr ican</w>
mai ze</w>
mat ory</w>
vi c</w>
UR E</w>
/9 5</w>
por k</w>
fati gue</w>
Secre tariat</w>
en do
viol ated</w>
T ony</w>
distur bed</w>
ear nings</w>
petro leum</w>
sum mons</w>
au strian</w>
R ac
re treat</w>
gl u
pecu liar</w>
ath le
pe er</w>
A N</w>
prolifer ation</w>
high lights</w>
an as</w>
13 0
met formin</w>
K B</w>
boo th</w>
br ick</w>
val ve</w>
di visions</w>
T a
wor rying</w>
st ems</w>
eur atom</w>
low ering</w>
C u
20 th</w>
av en</w>
tun nels</w>
politic ians</w>
quali fying</w>
o let</w>
sm en</w>
min ed</w>
ou ch</w>
excre ted</w>
u .
deriv ative</w>
dev ast
S H
rac es</w>
E gy
w all
EG F</w>
pun ished</w>
m us</w>
in consistent</w>
fr actu
pra yer</w>
anti bodies</w>
j et</w>
bud sman</w>
jac ent</w>
su ited</w>
scienti st</w>
Sci enti
Po si
pro files</w>
whe at</w>
comp liant</w>
che f</w>
complain ed</w>
ther mal</w>
loo p</w>
pre serving</w>
t ably</w>
albu m</w>
le verage</w>
Wil liam</w>
ty re</w>
cr acked</w>
quali ties</w>
tis sues</w>
ingredi ent</w>
po ol
un dere
dem a</w>
coll ar</w>
compu ter
s cor
ap pren
plan tation</w>
squee zed</w>
Ma 'am</w>
entrepreneur s</w>
o li
heart beat</w>
duc ed</w>
k ing
ar thur</w>
ti ghtly</w>
ad jacent</w>
credi bility</w>
S w
stain ed</w>
recru ited</w>
T ext</w>
le (s</w>
ti li
Prob ably</w>
are n</w>
po i
p ounding</w>
appeti te</w>
refuge es</w>
N O</w>
co ws</w>
fluctu ations</w>
co ke</w>
diam onds</w>
v ague</w>
stic king</w>
9 5
7 00</w>
S et</w>
scenari os</w>
G R
1999/46 8/EC</w>
v ag
wor sen
bar rel</w>
po ta
in sist</w>
un happy</w>
laun ching</w>
warm th</w>
a thers</w>
appro ving</w>
tr icks</w>
M us
ES S</w>
feasi bility</w>
resi ding</w>
qu is
alter nate</w>
cour ty
4 8
mer chant</w>
s ors</w>
cru de</w>
10 8</w>
FB l</w>
grap hic
10 7</w>
com plain</w>
ore an</w>
He ad</w>
m g
pro m</w>
comp li
ch ers</w>
ki lo
F our
Au strian</w>
/9 3</w>
op tical</w>
v ar</w>
shir ts</w>
authentic ation</w>
se em
Ed die</w>
rob bed</w>
desp air</w>
4 ,
invo ked</w>
lep tic</w>
c enti
ag ers</w>
corri dors</w>
bon us</w>
our ing</w>
ed die</w>
sha ft</w>
ed ward</w>
injur ious</w>
but ter
thir ds</w>
anony mous</w>
1 15</w>
hun gary</w>
cur y</w>
Pro posal</w>
gra v
phys ics</w>
top s</w>
4. 7</w>
an dic</w>
A l</w>
thiaz ide</w>
b lowing</w>
viol ations</w>
cook ies</w>
ge ous</w>
dam p</w>
he els</w>
ligh ter</w>
C op
as is</w>
in tangible</w>
ang els</w>
Dec ree</w>
B un
c um
licen sed</w>
N T</w>
ord on</w>
te m</w>
cor rupt</w>
con sole</w>
char les</w>
ri ght
ab rup
ca usal</w>
l um
trace ability</w>
Ad visory</w>
ru mors</w>
pur ple</w>
hosti le</w>
abrup tly</w>
S an
Di vision</w>
substitu tion</w>
cu b
x on</w>
ga stro
sup plying</w>
pol lu
ur ge</w>
on ard</w>
Ne w
S cho
in herit
man kind</w>
Co R</w>
borro wed</w>
rel la</w>
floo ded</w>
targe ting</w>
finan cially</w>
G mb
treas ury</w>
di ans</w>
ste ve</w>
ambul ance</w>
un acceptable</w>
DN S</w>
f an
ak es</w>
(1)( c</w>
Constitu tion</w>
vir tually</w>
S hel
li d</w>
out line</w>
g lowed</w>
promo tes</w>
plan ting</w>
mis leading</w>
anxi ety</w>
CC P</w>
Gr and
off ender</w>
progres sive</w>
pi ano</w>
je wel
gr ass
conspir acy</w>
degrad ation</w>
CYP3A 4</w>
counter party</w>
18 0</w>
ran ges</w>
ori an</w>
temper atures</w>
ri b
notic es</w>
Char les</w>
D ra
fil ing</w>
e ste
arro g
re sted</w>
dic ate</w>
Mo ve</w>
ren tly</w>
cruc i
K orea</w>
standardis ed</w>
S ign
du tch</w>
G OC</w>
excell ence</w>
de fl
cali fornia</w>
a sting</w>
deli vering</w>
ro b</w>
lingu istic</w>
hes itated</w>
qu est</w>
O ther
7 (2</w>
ch im
organiz ations</w>
comple mented</w>
spirit ual</w>
4 (3</w>
pan els</w>
W ant</w>
Me th
down town</w>
log s</w>
subcu taneous</w>
fo stering</w>
o o
res ort</w>
al lies</w>
Ad mir
gau ge</w>
fit ting</w>
C C</w>
apo logy</w>
EN .0
thank you</w>
addi tive</w>
rhyth m</w>
reco ver
wh ir
d in</w>
er ly</w>
defici ency</w>
Fi g
me als</w>
blo s
Con nec
e rec
NG Os</w>
resol utions</w>
flo ors</w>
avi an</w>
k it</w>
ad venture</w>
r &
under gone</w>
prospec t</w>
spil led</w>
ambassad or</w>
s ab
EU SR</w>
taxpay ers</w>
sol u
wa x</w>
sti ff</w>
spi der</w>
in stances</w>
cis co</w>
198 9</w>
contr ac
H ad</w>
in capable</w>
au top
ro pes</w>
dan ish</w>
2 :
Cour ts</w>
flow ing</w>
mark ings</w>
transpor ting</w>
capsu le</w>
S par
suscep tible</w>
ad ings</w>
4 50</w>
wan dering</w>
mal es</w>
vest ing</w>
ten dency</w>
enthusias m</w>
el ves</w>
remedi al</w>
p lot</w>
princi p
stan ts</w>
un justified</w>
chic ago</w>
Afr ican</w>
sadd le</w>
Meas ures</w>
Ro y
ph oned</w>
dra wer</w>
re organisation</w>
int act</w>
inter connection</w>
sc ul
exag ger
work force</w>
infin ite</w>
mom en
Regi ons</w>
v esti
h as
inf ants</w>
T an
L ab
T E</w>
h int</w>
hygi ene</w>
bi tions</w>
2 30</w>
/9 7</w>
mag nit
10 6</w>
substitu ted</w>
in sofar</w>
s words</w>
g lowing</w>
conf ession</w>
10 00</w>
g ren
clim bing</w>
T -
b end</w>
l ag
rec re
X X
blu e
cat aly
6 6
fon t</w>
eigh th</w>
trac ed</w>
fort ress</w>
dispat ched</w>
periph eral</w>
Al ways</w>
n ell</w>
B T</w>
nom enclature</w>
E I</w>
desk top</w>
Par ticip
pro jec
confir ming</w>
m ic</w>
arri ving</w>
dis su
architec ture</w>
al an</w>
train e
sh im
ed itor</w>
b ou
i stry</w>
di zz
refuge e</w>
gor geous</w>
u x</w>
emer ge</w>
up ward</w>
ran king</w>
grap hy</w>
S p
suppor tive</w>
endor sed</w>
ri gi
par don</w>
T on
ca ine</w>
ri bs</w>
manu ally</w>
the ast</w>
sub system</w>
Er ror</w>
Gu ar
r us</w>
M I</w>
pe ts</w>
a fil</w>
p s
Sim on</w>
devi ation</w>
consor tium</w>
sal aries</w>
electron ically</w>
ri gor
weal thy</w>
smo ked</w>
T C</w>
prefer ably</w>
bi om
communic ating</w>
infring e</w>
gri m</w>
mon day</w>
S ou
quar terly</w>
sim on</w>
ju ven
Ye ar</w>
us able</w>
Sever al</w>
cl um
az z
competi tor</w>
lo ve
13 9
R ay</w>
cl au
volun tarily</w>
safe guarding</w>
D ue</w>
gg ers</w>
shi pow
Ch ur
ce '</w>
2 /EC</w>
ter most</w>
el even</w>
pa use</w>
m our
fossi l</w>
ar se</w>
on wards</w>
ref erral</w>
Thi r
se af
form at
law fulness</w>
tr ic
A sia</w>
hu g</w>
fac to</w>
6. 5</w>
Ar my</w>
Ste ve</w>
cor relation</w>
F ree</w>
gen ts</w>
Chan ge</w>
harb or</w>
trans mit
inci dents</w>
S mith</w>
pri ori
glo b
T ha
7 7
cer y</w>
bul l</w>
hon ored</w>
lab elled</w>
vis itor</w>
vege table</w>
tim acy</w>
dag ger</w>
cour ageous</w>
spo ts</w>
ph er
om er
dr ying</w>
passage way</w>
ome tric</w>
o s
ab sent</w>
B E</w>
whis per</w>
Ad d</w>
li m</w>
Bu il
m ice</w>
cau tious</w>
sau ce</w>
46 /EC</w>
courty ard</w>
rit on
k orea</w>
S O
ven ti
tene gro</w>
pe ered</w>
ul ing</w>
c on</w>
T AR
m es
d ared</w>
am ine</w>
i raq</w>
Del eg
Fi f
stero ids</w>
el eg
v .</w>
ab str
0, 5</w>
di m</w>
tw in</w>
s worn</w>
che ating</w>
p ted</w>
introduc es</w>
in jected</w>
sen sed</w>
obs essed</w>
tal es</w>
fr ac
swee theart</w>
st lin</w>
plun ged</w>
po lis
la wn</w>
U CI
Direc torate</w>
feeding stuffs</w>
car t</w>
gan g
be e
to es</w>
en ni
pru dential</w>
dic t
vie t
Uni versity</w>
w en</w>
magnit ude</w>
exclu des</w>
ec ological</w>
cl en
d ge
ax e</w>
Cha ir
C o</w>
at ro
acceler ated</w>
den se</w>
al i</w>
sk el
meaning less</w>
fron tier</w>
in junction</w>
T w
um b
discre pan
bur nt</w>
fr ames</w>
minim is</w>
Fis her
sel fish</w>
P har
a ster
col ony</w>
Dan ish</w>
e than
under mined</w>
B raz
lac king</w>
lau s</w>
N AT
C le
s word
we re
fa ul
ur t</w>
distribu te</w>
mon t</w>
F L
monopo ly</w>
/9 8</w>
par ano
neu tro
leak age</w>
d ale</w>
op posing</w>
bl ond</w>
bol t</w>
am or
se c</w>
lo ses</w>
inv asion</w>
pota to</w>
defen sive</w>
st ence</w>
L y
ma ke
ay e</w>
m align
duplic ate</w>
str ings</w>
Cy prus</w>
ro tation</w>
AM E</w>
8 4
indu ce</w>
conveni ence</w>
10 3</w>
prof essions</w>
F R</w>
back ward</w>
gin s</w>
cancel ed</w>
rea uc
trans posed</w>
fe ar
go dd
B ru
pup ils</w>
chem istry</w>
grou ping</w>
inherit ance</w>
t wins</w>
Du ke</w>
Res ol
vo ted</w>
dep ths</w>
Com petition</w>
dimen sional</w>
de struc
disman t
car ved</w>
for gi
col oured</w>
Chic ago</w>
An gel
contamin ated</w>
dis c</w>
scrat ch</w>
apo logies</w>
dis advantage</w>
co co
prosper ity</w>
g reg
St art</w>
f s</w>
cu red</w>
infring es</w>
expendit ures</w>
fi ghts</w>
UCI TS</w>
contin ent</w>
inter views</w>
inc t</w>
in er</w>
acade my</w>
fir stly</w>
ol ds</w>
stra w</w>
Un fortunately</w>
k ate</w>
la undering</w>
9 (2</w>
shut tle</w>
supervis ing</w>
an ed</w>
Con tin
En ter</w>
helpl ess</w>
s cu
metabol ites</w>
Other wise</w>
im poses</w>
acc us
con ferences</w>
affec tion</w>
sp rin
re '</w>
ograp hic</w>
is ions</w>
der son</w>
happ ily</w>
glori ous</w>
es se</w>
EP A</w>
ple adings</w>
B on
Ser geant</w>
repor ter</w>
b ag
enshr ined</w>
accel eration</w>
for cing</w>
ex pose</w>
bu reauc
ign or
ner ves</w>
ama zed</w>
ten stein</w>
Whe ther</w>
Y oun
pre ference</w>
la stly</w>
Descri ption</w>
co st
restric ting</w>
ste adi
in ject</w>
gh tening</w>
ment s'</w>
taxpay er</w>
Fig ure</w>
Audit ors</w>
ed i</w>
Cali fornia</w>
er als</w>
IT Y</w>
your selves</w>
sou th
out fit</w>
run way</w>
Ea stern</w>
cir cled</w>
H aw
d ine</w>
ren d</w>
contr acted</w>
J on
E mi
fes tival</w>
le asing</w>
slaugh tered</w>
sc and
lec ture</w>
pen is</w>
S I</w>
origin '</w>
j ason</w>
M en</w>
140 8/
vacc ines</w>
or ally</w>
aler ts</w>
ess a</w>
ir ish</w>
198 8</w>
Y u
lad der</w>
it ably</w>
GN I</w>
ome ter</w>
di ment</w>
fra ud
tru stee</w>
aer op
can e</w>
z ole</w>
blon de</w>
amm ation</w>
O L</w>
load s</w>
ty pe
net working</w>
expres sions</w>
Produc ts</w>
swal low</w>
kni ves</w>
ref uses</w>
t ants</w>
rho ea</w>
se mester</w>
gall ery</w>
pro stitu
sugg estions</w>
sho cked</w>
F le
2 ,000</w>
por ch</w>
gh ted</w>
l end</w>
p assive</w>
fl us
titu des</w>
resi dential</w>
m 2</w>
com mo
pre t
broadca sters</w>
ro lls</w>
comb inations</w>
th al
5 -
T ex
sacrific ed</w>
expi res</w>
ce ases</w>
country side</w>
stat ue</w>
intri gu
the ft</w>
Max imum</w>
lin s</w>
priv a
up grade</w>
Re qui
c els</w>
at tain</w>
(2)( a</w>
grad es</w>
sandw ic
le thal</w>
can vas</w>
out look</w>
dram atic</w>
supervis ors</w>
h ill
x ation</w>
el o
magaz ines</w>
sal ad</w>
im perial</w>
P N
p our</w>
steadi ly</w>
ra ys</w>
Gmb H</w>
sp in</w>
a dian</w>
cu ffs</w>
Func tioning</w>
syn thetic</w>
ti ll
2 nd</w>
hun ger</w>
D r</w>
is y</w>
per missions</w>
O CT
bad ge</w>
C T</w>
1. 6</w>
1408/ 71</w>
minist ers</w>
a ver</w>
J ason</w>
air ing</w>
sp ic
smoo thly</w>
op ted</w>
met als</w>
day light</w>
wor ries</w>
od ynam
abo lition</w>
stat utes</w>
ru ins</w>
G O
3. 6</w>
plau sible</w>
riton avir</w>
cont emp
ff y</w>
4 3
lim bs</w>
I raq</w>
rit ual</w>
recover able</w>
on '</w>
hon ey
priva tisation</w>
be e</w>
poss ess</w>
overwhel ming</w>
vie wing</w>
im migrants</w>
dr a</w>
L a</w>
expl oring</w>
prote ins</w>
Manu fac
seiz ures</w>
righte ous</w>
jeop ardi
Treat ment</w>
cont ingent</w>
b ail</w>
Ser ver</w>
bo ws</w>
Con ver
As k</w>
brow ser</w>
tom my</w>
arti sts</w>
skel et
Pri v
pe as
lin ear</w>
busin ess
supple ments</w>
an cies</w>
For ce</w>
ign oring</w>
stran gers</w>
k u
hom ogen
TI NG</w>
p ound</w>
ph an
Scienti fic</w>
wr ongly</w>
in spir
regul ators</w>
Reg ul
bioci dal</w>
po o
loc king</w>
ri el</w>
analo gy</w>
C Z
g ress</w>
investi gative</w>
arti stic</w>
3 1.
cop ying</w>
Can ada</w>
condem ned</w>
ten se</w>
cab les</w>
loo m</w>
graphic s</w>
confron ted</w>
I EC</w>
In spec
o tive</w>
fa thers</w>
affir mative</w>
ab outs</w>
subsidis ed</w>
infl ammation</w>
vis as</w>
Fun da
diff ers</w>
ou termost</w>
Is rael</w>
avoi dance</w>
monit ors</w>
No t
as tic</w>
Pay ments</w>
pharmac o
suc ks</w>
d r</w>
pac i
li bri
rab bits</w>
Cat eg
iss ance</w>
nec kl
z apine</w>
mess enger</w>
semin ars</w>
exam inations</w>
es [
explo de</w>
al titude</w>
Gr and</w>
M it
De ath</w>
un authorised</w>
dol ph
recogn ising</w>
parti tion</w>
exten ds</w>
B ye</w>
M om
terri fying</w>
sun set</w>
op ing</w>
floo ding</w>
defini tively</w>
pack aged</w>
leni ency</w>
TE N</w>
Pl us</w>
secur i
A g
a ver
t wit
le ak</w>
motor cycle</w>
T ed</w>
c un
comple ting</w>
Fore ign</w>
work place</w>
du g</w>
n ap
p ad</w>
nor wegian</w>
embarrass ing</w>
s -</w>
heal ing</w>
nur ses</w>
US D</w>
bo thering</w>
S har
cess ation</w>
skin ny</w>
beli efs</w>
un clear</w>
3 /2004</w>
cy to
V C</w>
identi fier</w>
pur ity</w>
over head</w>
si es</w>
en ia</w>
neckl ace</w>
re sume</w>
ri sts</w>
c ans</w>
bl essed</w>
back yard</w>
Sum mary</w>
inhibit or</w>
hy p
ech tenstein</w>
cor ners</w>
ref re
Mon day</w>
suit case</w>
ami de</w>
inno cence</w>
co c
S ave</w>
E V
O ri
ann ie</w>
trans mitting</w>
teen th</w>
bil lions</w>
ca m</w>
pil low</w>
bur gl
pill ars</w>
circu its</w>
am ic</w>
hydro carbons</w>
ch ess</w>
or an</w>
P P</w>
rever sible</w>
pro be</w>
equi libri
har vested</w>
Tom my</w>
forth coming</w>
1 30</w>
tre mend
vigil ance</w>
lan ter
hy persensitivity</w>
P A
ev asion</w>
ac ids</w>
rep airs</w>
win ds</w>
calibr ation</w>
key board</w>
Su preme</w>
cri pt</w>
oe dema</w>
As si
pro test</w>
attribu tes</w>
stipul ated</w>
shoo ter</w>
C V</w>
dan ced</w>
ac tic</w>
sens or</w>
swe dish</w>
is hable</w>
gr um
work shops</w>
ban anas</w>
a to</w>
ly n</w>
ve rely</w>
so viet</w>
0 7
reli eve</w>
loc ally</w>
201 2/
hun ters</w>
acci dental</w>
Ju dic
di ve</w>
vi gor
ed '</w>
As sem
sur gical</w>
co operatives</w>
enzy me</w>
elev ated</w>
ra w
mon ary</w>
bl ur
frag ments</w>
ophi e</w>
K ate</w>
un duly</w>
pra ying</w>
ci a</w>
it y
alloc ating</w>
swe at
de pressed</w>
gro ws</w>
curren cies</w>
hum or</w>
str o</w>
tion /
b .
mon th
ex ter
t ore</w>
R C</w>
lu min
periodic ally</w>
pi lots</w>
ann ul</w>
stir red</w>
O M</w>
re conciliation</w>
autom ated</w>
CO UN
Em peror</w>
D a
Cro atia</w>
er o</w>
go v
A tt
T en</w>
vol can
bub ble</w>
mus h
V e
mo tive</w>
predic ted</w>
100 ,000</w>
ch el
a )(
O P</w>
sar ah</w>
mod alities</w>
peop les</w>
st .</w>
ad am</w>
interpre ting</w>
equilibri um</w>
Par k</w>
eth nic</w>
do va</w>
B B</w>
d ney</w>
IU U</w>
rough ly</w>
juris dic
ari ans</w>
st en</w>
home work</w>
regre ts</w>
9 00</w>
fil ters</w>
gate way</w>
suc ker</w>
so ap</w>
fu gi
K ey</w>
swa p</w>
clar k</w>
sco res</w>
bio fuels</w>
legislat or</w>
particul ate</w>
o ven</w>
Ad voc
gen ous</w>
al fa</w>
seas onal</w>
un believable</w>
Pro vi
mon ial</w>
der ness</w>
access ories</w>
tou gh
g aming</w>
Funda mental</w>
thin kin</w>
k ering</w>
s ins</w>
thr ust</w>
squi r
Nor wegian</w>
encour ages</w>
choo ses</w>
wheel chair</w>
pul sion</w>
boo ked</w>
sat ur
conver sations</w>
CYP 2
re start</w>
habit ats</w>
200 6
be gged</w>
un pleasant</w>
sel ls</w>
fl ask</w>
cor tico
ant agon
Gre en
CO 2</w>
lo e</w>
se verely</w>
mer cury</w>
secon d
insul t</w>
hor m
c in</w>
can ada</w>
bio diesel</w>
lim us</w>
12 5
I rish</w>
guit ar</w>
ri er</w>
ain t</w>
1 14</w>
H S
Auth or
over night</w>
P res
So ci
pro vin
ve ins</w>
hall uc
bis hop</w>
col ours</w>
hypothe tical</w>
ne e</w>
pois oned</w>
B ack
what are</w>
S hit</w>
t -
dec lining</w>
wat ch
og lit
cou pling</w>
wai ver</w>
e k
g ator</w>
appe aled</w>
ge o
co stly</w>
bus hes</w>
harmon ise</w>
exc essively</w>
law ful</w>
wal ter</w>
sk y
expec ts</w>
bi ds</w>
idi ots</w>
t ches</w>
rac hel</w>
lo b
dis cour
lap top</w>
o ke</w>
for t</w>
every day</w>
quo ted</w>
habit ual</w>
r ounds</w>
chem otherapy</w>
diar rhoea</w>
Con t
Z o
Acc ession</w>
Admir al</w>
Detec tive</w>
cha pters</w>
1 st</w>
- day</w>
in correctly</w>
ti bility</w>
real m</w>
decom missi
transi ent</w>
authoriz ation</w>
il es</w>
shar k</w>
for ti
chees es</w>
Bud get</w>
P I</w>
dec lined</w>
Eur o</w>
enjo ys</w>
J ack
haem orrha
Ho ly</w>
vi ation</w>
volunte er</w>
lo tte</w>
Con sum
with drew</w>
ir k</w>
vic tori
sens ation</w>
ad el
back wards</w>
arm ies</w>
or th
am bition</w>
market place</w>
G race</w>
at tle</w>
n ick
den ing</w>
M ust</w>
le u
ific ations</w>
encomp asses</w>
ali leo</w>
me tro
m at</w>
explo ded</w>
P .
s anta</w>
att an</w>
ad ven
Rec o
foreign ers</w>
equ als</w>
do ll</w>
bal con
In cre
duc k</w>
EC E</w>
Stat ute</w>
p act</w>
em ic</w>
ha bits</w>
ar ray</w>
under pin
dem ption</w>
doub ted</w>
do z
deleg ate</w>
Con ference</w>
sar a</w>
se ph</w>
beli e
ven dor</w>
global isation</w>
rap ed</w>
6. 2</w>
20 7
cri p
any time</w>
reco vering</w>
PRO C
the ater</w>
tr agic</w>
C e
ter restrial</w>
jewel ry</w>
P ET</w>
trans plant</w>
comb ining</w>
1, 5</w>
rob ust</w>
alleg ations</w>
Vi et
H ear
EN ER
s ank</w>
1 15
at or
mel an
bu gs</w>
K im</w>
to wers</w>
ba be</w>
wa ste
Ex plan
red ress</w>
ho stage</w>
re t</w>
min al</w>
fo ren
201 4/
pri mi
estim ation</w>
regul ating</w>
associ ates</w>
bre ed</w>
secre tly</w>
14 0</w>
p per
tempor al</w>
M ain
fran kly</w>
Sh ut</w>
Admini stration</w>
gh ter</w>
sub marine</w>
g li
l as</w>
ti ly</w>
logi sts</w>
fraud ul
preclu des</w>
ren a</w>
CZ K</w>
l .
brea thed</w>
la sts</w>
cap tive</w>
be asts</w>
decentr alised</w>
TI VE</w>
V IS</w>
B .
tis m</w>
ste p
done sia</w>
g ur
u red</w>
Bus iness</w>
N either</w>
vi ously</w>
qu et</w>
strai ghtened</w>
ki m</w>
san itary</w>
Swe dish</w>
fl ash
au tical</w>
veter in
inspi red</w>
ro s
ax le</w>
are t</w>
policem en</w>
deli veries</w>
psych ic</w>
conflic ting</w>
M ul
grap es</w>
com e
short age</w>
mil len
merchan ts</w>
E .
assem bled</w>
Ple as</w>
horm one</w>
ban g</w>
Fisher ies</w>
b ance</w>
t une</w>
P M</w>
contem pl
IM I</w>
sp it</w>
cy prus</w>
inv iting</w>
depos ited</w>
IS A</w>
au x</w>
tradi tions</w>
par aly
parad ise</w>
ec hes</w>
So viet</w>
oc co</w>
kilo grams</w>
........ ........
sub headings</w>
ell ers</w>
i v</w>
slow ed</w>
cand les</w>
la x
ban ana</w>
ty res</w>
where abouts</w>
Su pp
sl ender</w>
ton nage</w>
los is</w>
prohib iting</w>
ori th
deplo yed</w>
anno ying</w>
la tin</w>
O m
chloro thiazide</w>
ten ess</w>
and re
expec tation</w>
6. 3</w>
th under</w>
war p</w>
stake holder</w>
scul p
sur faces</w>
hand ful</w>
es hip</w>
T est</w>
dest inations</w>
AT E</w>
str ong
lip tin</w>
B lo
re posit
parti es'</w>
night ma
frag mentation</w>
kin da</w>
cli matic</w>
chuc kled</w>
cl an</w>
embas sy</w>
di ligence</w>
par cels</w>
under going</w>
6 (3</w>
p o</w>
al ex
op t</w>
lu ke</w>
scal es</w>
me l</w>
r ade</w>
s nor
acc ent</w>
new com
ce real</w>
re side</w>
vi olet</w>
gastro intestinal</w>
er ased</w>
instal ments</w>
postp oned</w>
H ur
len a</w>
deli ghted</w>
swi r
por table</w>
gas oline</w>
tion ers</w>
dread ful</w>
to se</w>
vir uses</w>
tur kish</w>
bre ached</w>
we ary</w>
simpli fying</w>
um bent</w>
lux ury</w>
neutr ality</w>
genu inely</w>
T EU</w>
supervis e</w>
ven s</w>
Em pire</w>
ad er</w>
tradi tionally</w>
sh it
fat ty</w>
W ork</w>
subordin ate</w>
succ essive</w>
repe al</w>
Cor por
M ill
glim pse</w>
Pr inci
S anta</w>
satis fying</w>
Un able</w>
promp t</w>
investig ator</w>
y m
es ar</w>
k head</w>
ti ans</w>
mon keys</w>
differenti ation</w>
em ma</w>
approxim ation</w>
1 11</w>
wor ded</w>
pri ests</w>
Du de</w>
ER S</w>
ven ge
under lines</w>
Min ist
boun dary</w>
bankno tes</w>
re mark</w>
gradu ate</w>
or derly</w>
' '</w>
dizz iness</w>
H i
E P</w>
I r
M .</w>
metal lic</w>
19 80</w>
k nel
hom eless</w>
al a</w>
ali gn</w>
dis til
P ho
edi tion</w>
al ice</w>
ac on</w>
expedi tion</w>
cre at
cou gh
warran ted</w>
Produc t</w>
wa king</w>
flo ated</w>
An dy</w>
heav ens</w>
ea u</w>
he ated</w>
hy poten
1 5.
Le e</w>
knel t</w>
E F</w>
13 1</w>
certi fying</w>
eri e</w>
descri ptions</w>
at tained</w>
demo graphic</w>
gradu ated</w>
al oud</w>
Com ple
st um
ship ments</w>
hybri d</w>
fri ed</w>
glo bin</w>
Me an
protec ts</w>
ol an
co caine</w>
5 ,
A my</w>
ab s</w>
NAT O</w>
simul taneous</w>
P lan
Assem bly</w>
AN CE</w>
pun ish</w>
d u</w>
AC T</w>
dat or</w>
char m</w>
3 00
ur ie</w>
ph en</w>
th es
je an</w>
process or</w>
b is</w>
1 12
sacrific es</w>
w rap</w>
v ain</w>
resi dency</w>
ta xed</w>
as cer
sanc tuary</w>
go s</w>
contradic tion</w>
law fully</w>
ascer tained</w>
go sla
complain ing</w>
5 9
8/ EEC</w>
na ment</w>
hon orable</w>
thi eves</w>
k icking</w>
tat to
hol low</w>
engine ers</w>
are rs</w>
pe ace
C en
py rami
MR Ls</w>
bl er</w>
ari ous</w>
hypo glycaemia</w>
inc umbent</w>
acc essed</w>
aggreg ated</w>
hair cut</w>
ag en</w>
impe de</w>
no l
UR L</w>
fore sees</w>
F ile</w>
inev itably</w>
ar us</w>
cu r</w>
ag grav
domic iled</w>
acknowle dges</w>
col n</w>
EC SC</w>
gen cies</w>
to wel</w>
identi fiable</w>
stimul ating</w>
defec t</w>
AIF M</w>
clari fying</w>
re demption</w>
op pose</w>
Youn g</w>
pre ferences</w>
eco systems</w>
S AL
u no
S eri
commo dity</w>
ch uck</w>
tw ist</w>
Reg arding</w>
the ories</w>
Ju dge</w>
ph al
Cer ti
alg orith
cou ples</w>
m age</w>
k evin</w>
tremend ous</w>
fl ashed</w>
ho lo
phy si
V .</w>
S W
dri ll</w>
ash a</w>
yi elds</w>
ce tax
small est</w>
D I
summar ised</w>
re conc
surviv ors</w>
pro pulsion</w>
f t
App aren
h attan</w>
den om
cop ied</w>
recap italisation</w>
bl ades</w>
Enter prise</w>
ge ons</w>
fe tch</w>
Judic ial</w>
fl u</w>
R on</w>
earth qu
oglit azone</w>
EE AS</w>
survi ving</w>
descen ded</w>
cas ino</w>
so ever</w>
Apparen tly</w>
episo de</w>
hide ous</w>
3 0.
Rac hel</w>
p om
uni forms</w>
ran ks</w>
dec o
H mm</w>
offen sive</w>
long it
lay out</w>
fli r
declar ing</w>
sna p</w>
re volu
f lip</w>
commen cement</w>
a emia</w>
reiter ates</w>
P it
Wom en</w>
bar a</w>
http://www. ema
v or</w>
num bered</w>
Guar an
nar co
el lit
E s
air space</w>
D on</w>
deal ers</w>
h ut</w>
enti al</w>
ear l</w>
is rael</w>
In iti
B eli
GB P</w>
formul ated</w>
batt le
no s</w>
hist oric</w>
trau ma</w>
im press</w>
W alter</w>
neglec ted</w>
as th
g inia</w>
foot steps</w>
super se
9 8
oun ce</w>
un common</w>
class ical</w>
ri vers</w>
Gover ning</w>
th ickness</w>
stra tions</w>
end an
bur ger</w>
it ations</w>
n ard</w>
gre l</w>
? '</w>
sp ine</w>
civili ans</w>
201 7</w>
cheer ful</w>
jun k</w>
a o</w>
Lat via</w>
de mi
strang ely</w>
at inib</w>
ab ine</w>
au to</w>
securi tisation</w>
dra fted</w>
bri an</w>
shi elds</w>
compar ability</w>
li pp
undertak es</w>
EA FR
stra p</w>
fur y</w>
so o
V I
expres sing</w>
feed back</w>
prece dence</w>
tor ates</w>
exp elled</w>
S ES
mi xing</w>
pro vo
over riding</w>
pul monary</w>
consi sted</w>
dan gers</w>
cand le</w>
ud ine</w>
inc ent</w>
mg /
b agg
' t
W ater</w>
drow ned</w>
d gement</w>
in admissibility</w>
tat too</w>
program med</w>
mi one</w>
competi tion/
ten nis</w>
Feder ation</w>
lim b</w>
In clu
stun ned</w>
over seas</w>
conce aled</w>
G ener
3 :
adop ts</w>
Ri ver</w>
cardio vascular</w>
pati ently</w>
R F
instinc t</w>
dec imal</w>
revis e</w>
bru tal</w>
8 5/
14 /EEC</w>
EI T</w>
B ring</w>
ca de
lor ds</w>
incorpor ate</w>
la in</w>
j an</w>
cus hi
Af ghanistan</w>
ES R
qu ad
B ay</w>
war dly</w>
pre y</w>
G ab
wav ing</w>
- 2</w>
k at
O l
awak ened</w>
o lives</w>
dd led</w>
inspec ted</w>
sp her
electro magnetic</w>
wi g</w>
jum ping</w>
hierarch y</w>
Re presen
econom ics</w>
illu sion</w>
Th rough</w>
co b
we ars</w>
explo ited</w>
deter rent</w>
gover n</w>
pen ed</w>
forgi veness</w>
under lined</w>
rehabil itation</w>
fin ishing</w>
stab ili
drag ons</w>
Z e
s coun
ca vern</w>
es hips</w>
cong estion</w>
Tal k</w>
co tt
ro d</w>
is ers</w>
rati fication</w>
complic ations</w>
ven ue</w>
un certain
j ar</w>
educ ated</w>
merchan dis
le ap</w>
v ables</w>
weak er</w>
M ol
refriger ator</w>
Elec tr
don ation</w>
flo at</w>
O F
quo te</w>
sco tt</w>
an om
abo tage</w>
invo ic
EAFR D</w>
ne um
IC AO</w>
fi ers</w>
L .
multip lied</w>
o eu
pur i
bre aches</w>
C lu
9 4/
sus an</w>
distur b</w>
skir t</w>
har vesting</w>
main land</w>
cro atia</w>
2/ EEC</w>
side walk</w>
go ssi
up side</w>
neighb ours</w>
road map</w>
A lex
un stable</w>
out puts</w>
G ir
subsi stence</w>
h ong</w>
moon light</w>
euro s</w>
C lin
16 0</w>
bl ess</w>
unlaw fully</w>
e ting</w>
ser o
rom ance</w>
wo od
pl ague</w>
frow ned</w>
haz ards</w>
reserv o
penetr ate</w>
r att
ar ose</w>
down ward</w>
bec ca</w>
l oun
for getting</w>
An na</w>
w rest
on i</w>
ob ile</w>
Nor thern</w>
presi dential</w>
G od
understand able</w>
re my</w>
in definite</w>
Dri zzt</w>
Tr ust</w>
ari al</w>
I denti
ch rist
com promised</w>
W S</w>
Lu ke</w>
Ad am</w>
7 3
De tailed</w>
dispar ities</w>
pi g
detri ment</w>
be fore
co ding</w>
O M
worsen ing</w>
s nat
ain s</w>
d av
c ely</w>
v on</w>
ol len</w>
sw ine</w>
E specially</w>
he ir</w>
Sw iss</w>
gri pped</w>
bever ages</w>
g es
In stru
dis rup
reg imen</w>
evol ved</w>
K evin</w>
S mall</w>
say in</w>
oeu v
w is</w>
start led</w>
k istan</w>
me d
persu aded</w>
ag ged</w>
tal ented</w>
sty les</w>
pen s</w>
ID S</w>
ram p</w>
cho le
spon sor</w>
oper a</w>
process ors</w>
n ano
administr ators</w>
schol ar
margin al</w>
gar ion</w>
centr alised</w>
h h</w>
sing er</w>
p airs</w>
cra wled</w>
wi res</w>
ti ger</w>
ke red</w>
a waiting</w>
Nav y</w>
pl um
bas ket
doz ens</w>
(2)( b</w>
H uh</w>
ve in</w>
At lantic</w>
cur tain</w>
loy d</w>
in effective</w>
bal d</w>
t ]
excipi ents</w>
fil ename</w>
Mi ddle</w>
gui ding</w>
rac ks</w>
on o
ab duc
biom ass</w>
detec ting</w>
mar rying</w>
car ter</w>
offen se</w>
sl ice</w>
in significant</w>
bagg age</w>
b ore</w>
pro found</w>
II I
no thin'</w>
de ple
OB D</w>
MA H</w>
cla ws</w>
ger ing</w>
e --</w>
shi vered</w>
sh allow</w>
B is
gi b
car bon
pe trol</w>
instinc ts</w>
- month</w>
in forma
a than</w>
ar on</w>
d ice</w>
sw iss</w>
auth ors</w>
bu cket</w>
S even</w>
defic its</w>
stac he</w>
de er</w>
De ar</w>
postp one</w>
Up on</w>
pro xy</w>
Applic ations</w>
C ast
servic es'</w>
M .
as mus</w>
200 7
equi voc
foot wear</w>
ap prehen
N AME</w>
recep tor</w>
crou ched</w>
ar c</w>
b out</w>
sor ting</w>
fil ament</w>
poe try</w>
B ra
A TIONS</w>
re actor</w>
6 ,
sign ation</w>
Po wer</w>
C ir
il legally</w>
hard est</w>
E BA</w>
10 9</w>
prosecu tors</w>
Je an</w>
tap es</w>
om et
Resol ution</w>
C _
primi tive</w>
pre vailing</w>
ta stes</w>
ar rows</w>
R an
vo y</w>
z i</w>
divi ding</w>
lo vers</w>
affor ded</w>
dis appearance</w>
13 6</w>
ki ly</w>
tum our</w>
trade mark</w>
resi des</w>
log istics</w>
gerich t</w>
C '
k ong</w>
wal ker</w>
Roy al</w>
E ver</w>
strong est</w>
ab u
an ten
For m</w>
sat ellit
imp lied</w>
r inging</w>
whi p</w>
arri ves</w>
Tom orrow</w>
su icidal</w>
. ht
` `</w>
year s'</w>
o ak</w>
el ded</w>
tra itor</w>
ru g</w>
distur bance</w>
29 6</w>
m n</w>
out sour
V or
ang les</w>
evac u
respec tful</w>
inter feron</w>
eyebro ws</w>
re k</w>
IM O</w>
par ade</w>
44 /2001</w>
Com pu
phosp hor
draw ings</w>
a '
2 (3</w>
50 ,000</w>
zz le</w>
spe aker</w>
admi re</w>
stero id</w>
sho t
pra yers</w>
mean while</w>
cetax el</w>
decor ated</w>
ati e</w>
Glo bal</w>
bac hel
p ar</w>
on i
speci fici
ery thro
comfor tably</w>
so cks</w>
F oun
ut ter</w>
clu tched</w>
equ ation</w>
am bush</w>
ti tr
in filtr
no d</w>
el bow</w>
in coming</w>
recal ls</w>
specifici ties</w>
coun tless</w>
nightma res</w>
af ghanistan</w>
psychi at
Lo ve</w>
ment 2</w>
IB M</w>
proph ec
what soever</w>
wi reless</w>
addres sees</w>
make up</w>
merchandis e</w>
brief case</w>
al o</w>
rub bing</w>
pol ar</w>
L A</w>
see kers</w>
Sus an</w>
celebr ating</w>
ne dy</w>
Imple mentation</w>
fo x</w>
Dec isions</w>
Chur ch</w>
er ated</w>
scen es</w>
Ob serv
)( a</w>
eth eless</w>
stair way</w>
peti tioner</w>
S pr
Sche me</w>
thought you</w>
practic ing</w>
counter vailing</w>
Scho ol</w>
Posi tion</w>
em an</w>
con ve
t to</w>
ski pper</w>
139 /2004</w>
inc ere</w>
1 18</w>
circ us</w>
re per
comm /
matri x</w>
circum vention</w>
ph ony</w>
po sting</w>
Institu te</w>
Ju d
sper m</w>
celebr ation</w>
al pha
mo red</w>
rac e
mer ger
TA C</w>
11 (2</w>
je ans</w>
fi replace</w>
col or
s incere</w>
car ing</w>
gui deline</w>
fo o
blin ked</w>
computer ised</w>
ar thri
clen ched</w>
tom b</w>
he ars</w>
sovere ign
molec ular</w>
hosp it
cap ital
Ch ristian</w>
L D
embr ace</w>
ce me
em bo
Clar k</w>
ra y
e ats</w>
es /</w>
ble ed</w>
a. m.</w>
sp ill</w>
no stri
P ap
fo ols</w>
Ro ad</w>
Con cer
A W
ac es</w>
mir rors</w>
ra tic</w>
strai ght
cal mly</w>
ma ils</w>
E TS</w>
ch ris</w>
we ights</w>
le dge</w>
fo am</w>
CP C</w>
bo t</w>
( b</w>
revo ked</w>
u pri
t ine</w>
Bri an</w>
ration ale</w>
e w</w>
stub born</w>
t d</w>
vie w
8 1(1</w>
mar ble</w>
dis per
electron ics</w>
Set up</w>
pic k
a ther
li kewise</w>
1 17</w>
facilit ated</w>
succ ession</w>
in ability</w>
so c
ch i</w>
Go od
Com pe
M ulti
t ing
Tur n</w>
scre ens</w>
D om
rad ical</w>
D I</w>
dece ption</w>
wor m
St .</w>
emer gencies</w>
be es</w>
swe ating</w>
bi es</w>
Any one</w>
ER A</w>
par a
tac tical</w>
Bl ue</w>
se q</w>
rep aired</w>
char ts</w>
interro gation</w>
dr ama</w>
P ak
f u</w>
che ated</w>
uncertain ties</w>
sl apped</w>
Over all</w>
IC ES</w>
, '</w>
R EC
es the
Har mon
whis key</w>
sc rap</w>
archi ves</w>
X I</w>
phosp hate</w>
e urope
pe te</w>
ven ant</w>
princip ally</w>
shi fting</w>
man eu
sta b</w>
) '</w>
so da</w>
down loaded</w>
tack ling</w>
sa usage</w>
reciproc al</w>
lan der</w>
ur ged</w>
no tary</w>
construc t</w>
C lose</w>
tou rists</w>
EC HR</w>
depar ted</w>
col lis
Regi stry</w>
r alph</w>
philosop hy</w>
ster dam</w>
d ope</w>
g s
i f
am mon
suc ked</w>
1. xml</w>
Al ice</w>
c il
kni ghts</w>
ES T</w>
no ises</w>
d ome</w>
Ch ris</w>
elec toral</w>
E ric</w>
demonstr ates</w>
Tre aties</w>
N E</w>
prohib its</w>
hyper tension</w>
qu an
sal v
proxim ity</w>
on set</w>
re mn
smar ter</w>
4 -
enthusias tic</w>
t .
enfor cing</w>
dele tion</w>
ap es</w>
en tran
88 (2</w>
a a
Un it</w>
def erred</w>
critic ism</w>
ES CB</w>
un equivoc
ri der</w>
recur rence</w>
vo d
par ticle</w>
tic k</w>
as sion</w>
pra zole</w>
ful fill</w>
Advoc ate</w>
respon dents</w>
journ alist</w>
puzz le</w>
po ker</w>
b au
H all</w>
G a
C .
TV 2</w>
mut tered</w>
ana emia</w>
fisher men</w>
wo ol</w>
flow ed</w>
reinfor cing</w>
amaz ement</w>
d ar</w>
sanc tion</w>
fraudul ent</w>
ho sting</w>
e ment'</w>
con spic
ign ition</w>
decreas es</w>
shi re</w>
roc ky</w>
sp ells</w>
tu ber
need les</w>
Categ ory</w>
che at</w>
p H</w>
coun tri
co ating</w>
pollut ants</w>
Tur kish</w>
vec tor</w>
ali e</w>
Res pon
bo iling</w>
du sty</w>
a res</w>
squ ad
ha ul</w>
rest oring</w>
ic he
betr ay</w>
stra w
asser tions</w>
Mc K
cru ise</w>
Gu ys</w>
sal mon</w>
ut terly</w>
ro tten</w>
pl a
acc red
i do
ra eli</w>
merger s/
competition/ mergers/
episo des</w>
De an</w>
I G
at ers</w>
ver ifications</w>
sm ashed</w>
o ten
k elly</w>
cu p
vic tor</w>
motiv ation</w>
un paid</w>
cell ar</w>
r ington</w>
E u
obe di
B U
Not withstanding</w>
passi onate</w>
in stantly</w>
re liance</w>
venti lation</w>
negli gence</w>
T ax</w>
duplic ation</w>
de t
at tainment</w>
men tioning</w>
co ffin</w>
mal function</w>
consul ar</w>
commen ce</w>
tan gle</w>
H z</w>
Con sul
tri ps</w>
comp iled</w>
adap ter</w>
w er
lis on</w>
bund le</w>
1 13</w>
F ami
12 3</w>
R am
we ir
happ ier</w>
dis counts</w>
upgrad ing</w>
shud dered</w>
n as
administ er</w>
K al
administ ering</w>
Rol and</w>
plen ary</w>
Val ue</w>
poss essed</w>
E qu
lin k
che aper</w>
pi p
pac es</w>
contradic tory</w>
str ous</w>
conf essed</w>
spo il</w>
Is land</w>
rigi d</w>
basket ball</w>
b lows</w>
ro man</w>
accred ited</w>
stat es'</w>
m p</w>
ha gen</w>
L ex</w>
t ying</w>
Sco tt</w>
inv ent
ay er</w>
sandwic hes</w>
or ds</w>
F S
un tie</w>
dwar ves</w>
b ust</w>
lat er
del u
der ive</w>
psych o</w>
Car ter</w>
s ick
af fixed</w>
7 5
ar is
H ong</w>
gl ad
elimin ating</w>
tra it</w>
str a</w>
c is</w>
mar row</w>
govern s</w>
7 th</w>
puzz led</w>
c es
rum or</w>
Four th</w>
s lower</w>
Environ ment</w>
pre h
8 (3</w>
gu m</w>
Lan gu
spe ar</w>
V eg
So on</w>
met abo
din o
ba thing</w>
bo il
tion less</w>
commissi oned</w>
A dd
constitu ents</w>
dro w</w>
trans form</w>
mar ines</w>
ber lin</w>
stim ated</w>
ro land</w>
fo dder</w>
6/ EEC</w>
V an
ko v</w>
good will</w>
pa ste</w>
gener ator</w>
M B
K ong</w>
appreci ation</w>
In tel
com posite</w>
maxim ise</w>
quick er</w>
l ens</w>
var ying</w>
satis fies</w>
pi do
meas ur
mod al</w>
An g
pro minent</w>
Ob jective</w>
encry pted</w>
ag ony</w>
hom eland</w>
cas es/</w>
91/4 14/EEC</w>
ur i</w>
un ch</w>
M IN
16 .
flav our</w>
redundan cies</w>
A B</w>
ac re</w>
bl end</w>
ti ghtened</w>
embr y
St ability</w>
work shop</w>
O U
po or
anch or</w>
HT ML</w>
thri lled</w>
I R</w>
trans late</w>
al led</w>
ri m</w>
trou bles</w>
immen se</w>
car c
6 9
Chil dren</w>
l on</w>
wor ms</w>
gra ins</w>
eradic ation</w>
acceler ating</w>
competition/mergers/ cases/</w>
R alph</w>
S NC
Medic ines</w>
D ro
sp ice</w>
resili ence</w>
be ams</w>
on ary</w>
T I</w>
Pe te</w>
o y
Th ings</w>
pas sports</w>
ul sion</w>
pal ms</w>
stri es</w>
mer cen
advoc ates</w>
ris en</w>
re tains</w>
M ama</w>
bar b
P hil
Sta tis
life style</w>
sur ance</w>
eth ics</w>
bar on</w>
om is
dri zzt</w>
cre epy</w>
F P
cra wl</w>
Regi on</w>
s giving</w>
pi oglitazone</w>
ut most</w>
mid -
list en
Al most</w>
mess ing</w>
ad dic
absor b</w>
clean er</w>
autop sy</w>
comp il
sub way</w>
Commit ments</w>
ip er</w>
epi demi
Sy n
re conci
ba vir
mag ician</w>
sole te</w>
p ic</w>
dis miss</w>
COMM UN
fri dge</w>
ur it
accru ed</w>
az z</w>
pit ch</w>
H ome</w>
D um
ch ristian</w>
aren a</w>
diversi fication</w>
sun shine</w>
st ack</w>
soci ally</w>
paci fic</w>
assum es</w>
R ev
gle aming</w>
leng thy</w>
off shore</w>
Slo venia</w>
resum ed</w>
Com b
V an</w>
Dec lar
Braz il</w>
hydro chlorothiazide</w>
emplo y</w>
elabor ate</w>
ly n
gen es</w>
priv ately</w>
straight forward</w>
ab norm
arbitr ary</w>
reiter ated</w>
mail box</w>
Fac ility</w>
n ancy</w>
M ir
smu ggling</w>
ag an</w>
R S
soc cer</w>
v ard</w>
star ch</w>
P S
deliber ate</w>
olan zapine</w>
ac her
as much</w>
stric ter</w>
de z
euro system</w>
ren ia</w>
mo b</w>
sk ins</w>
K K</w>
em ily</w>
ver te
pido grel</w>
lin er</w>
000 ,000</w>
mater nity</w>
commer cially</w>
por n</w>
L atin</w>
t ess</w>
kidn apping</w>
Super visory</w>
phi l</w>
mer ing</w>
ro ar</w>
comp assion</w>
ban ia</w>
brit ain</w>
Di ffe
Ber lin</w>
fo il</w>
mar s</w>
ac ity</w>
le mon</w>
Bo y</w>
K elly</w>
9/ 1999</w>
p neum
milli grams</w>
ap hy
ba it</w>
Pri me</w>
Euro system</w>
motiv ated</w>
kno cking</w>
ste ep</w>
e ff
aero drome</w>
j in</w>
suff ice</w>
pun c
de ems</w>
rus hing</w>
S end</w>
rob es</w>
revis ions</w>
remin der</w>
34 /2007</w>
leg acy</w>
mon u
d d</w>
ho tels</w>
l us
conqu er</w>
co s</w>
se men</w>
OCT s</w>
stre aming</w>
privileg ed</w>
z z</w>
shri e
tic a</w>
A IDS</w>
Qu estion</w>
ran ch</w>
A ri
12 2</w>
venge ance</w>
preten ded</w>
om er</w>
T Y</w>
- hour</w>
kin dness</w>
den ted</w>
bi ble</w>
drun ken</w>
comp elled</w>
predic t</w>
bel ts</w>
p ill</w>
fe athers</w>
marsh al</w>
hel m</w>
O k</w>
vill ages</w>
sle eve</w>
co d</w>
retro active</w>
Lar ry</w>
braz il</w>
yl an</w>
less ness</w>
cour tes
unil ateral</w>
prolon gation</w>
ar oma</w>
carc asses</w>
s k</w>
pip eline</w>
Cro ss</w>
G E</w>
F IN
satellit es</w>
de tained</w>
D an</w>
whist le</w>
COM P</w>
lar ry</w>
95/ 46/EC</w>
sulph ur</w>
micro phone</w>
U RES</w>
bes artan</w>
cra wling</w>
do omed</w>
M oun
orph an</w>
din er</w>
CF P</w>
counter parties</w>
man oeuv
PRO V
eag le</w>
dig it</w>
P OR
scan ned</w>
fair ness</w>
b all
out break</w>
V O</w>
presum ably</w>
dys function</w>
to tal
wat ches</w>
wi dow</w>
good ness</w>
success or</w>
appreci ated</w>
restaur ants</w>
wrec k</w>
le d
ob solete</w>
V A</w>
dis regarded</w>
alle vi
Al an</w>
po tent</w>
categ or
ethan ol</w>
justi fies</w>
Ac tions</w>
IC ATION</w>
Ap pro
instal ling</w>
i dity</w>
wit ches</w>
tru st
autom otive</w>
an th
recei vables</w>
di pine</w>
bas in</w>
k ans</w>
refre sh
lis a</w>
fo ref
exhaus tion</w>
g nations</w>
sur pris
wh ale</w>
decommissi oning</w>
ami e</w>
D rag
minist erial</w>
eleg ant</w>
ne ga
iche ver</w>
tr um
so aked</w>
re consider</w>
bra kes</w>
nor ms</w>
M O
Re view</w>
journ alists</w>
omet res</w>
L U
clu tching</w>
gov ina</w>
ut sche</w>
ar om
m ing
gas ped</w>
suffici ency</w>
ze govina</w>
lac tic</w>
Icel and</w>
hun garian</w>
sli ding</w>
12 6
s its</w>
Who a</w>
Agricul tural</w>
family --</w>
authentic ity</w>
aer on
on ian</w>
ner v
e ping</w>
before hand</w>
C enter</w>
r& d</w>
be ats</w>
dis ruption</w>
T T</w>
competi tions</w>
pir ate</w>
ari um</w>
dan cer</w>
ap ples</w>
Hal f</w>
inv itations</w>
mat t</w>
sal es
reimbur se</w>
inc in
ann ers</w>
descrip tive</w>
an n</w>
conserv ative</w>
M ars</w>
authori ties'</w>
gen ic</w>
2. 6</w>
cell or</w>
impris onment</w>
pre mature</w>
pat ents</w>
dess ert</w>
ballo on</w>
consul tancy</w>
bl essing</w>
For um</w>
long est</w>
Strat egi
equ itable</w>
sla p</w>
magi strate</w>
1. 7</w>
f i</w>
hon esty</w>
popul ated</w>
vi e</w>
h en</w>
In novation</w>
Conclu sions</w>
spor ting</w>
na val</w>
odynam ic</w>
Gar ion</w>
S el
ti ts</w>
fis h
won ders</w>
ha unted</w>
Program mes</w>
ack ers</w>
Fre e
vide ot
Bi o
cou pled</w>
An imal</w>
dis appearing</w>
so ber</w>
di vine</w>
Ru n</w>
le ans</w>
107 (1</w>
statis tically</w>
C AT</w>
arthri tis</w>
P ic
bacter ial</w>
conce i
C F</w>
mum my</w>
inhi bition</w>
tor ch</w>
emer gence</w>
disgu ise</w>
et ine</w>
che er</w>
under cutting</w>
hor mon
SAL W</w>
complain s</w>
de af</w>
me ta
domin ated</w>
char ge
abol ish</w>
contin ental</w>
Bas ic</w>
nin th</w>
k an</w>
Dun can</w>
mon k</w>
constitu ent</w>
r ine</w>
ul ted</w>
n ies</w>
whis pering</w>
dit ch</w>
val ry</w>
posi tioned</w>
redun dant</w>
nostri ls</w>
fav oured</w>
progres sively</w>
kil ometres</w>
substan ti
viet nam</w>
repe ating</w>
Bal tic</w>
gg led</w>
el iness</w>
ma ster
Po st</w>
CO M</w>
Ro ger</w>
rec ession</w>
ter ia</w>
upri ght</w>
Al ter
reconci le</w>
fi x
ceme tery</w>
defl ec
o res
ro ses</w>
Di strict</w>
ch ester</w>
har med</w>
v udine</w>
quar antine</w>
lat via</w>
random ised</w>
c ough</w>
Emi ly</w>
1 16</w>
dig its</w>
fici ally</w>
c ad
' bout</w>
app er</w>
comple ment
be th</w>
th ol
In dic
hero in</w>
h r
su itability</w>
under cover</w>
1 3.
perpetr ator</w>
duc t</w>
invent ories</w>
rus sians</w>
preh end</w>
jud ging</w>
the mes</w>
lo sure</w>
di stances</w>
th ick
pen cil</w>
iz es</w>
arm our</w>
cultiv ated</w>
read er</w>
si gh</w>
K no
gossi p</w>
ro ss</w>
contemp t</w>
distribu ting</w>
ex tracted</w>
Re porting</w>
ad orable</w>
ren dering</w>
co ward</w>
rul er</w>
scram bling</w>
g aret</w>
e ver
car av
i b
retro spec
ta sted</w>
clo wn</w>
Brit ain</w>
v ail</w>
W ay
qu in
extingu ished</w>
bun k</w>
198 7</w>
antibio tics</w>
ch o</w>
juven ile</w>
Ch rist
balcon y</w>
infec tious</w>
accompl ished</w>
acquain ted</w>
un lock</w>
br altar</w>
T en
13 8</w>
tari al</w>
affor dable</w>
abdom inal</w>
distingu ishing</w>
connec tivity</w>
veterin arian</w>
dilu ted</w>
senten ces</w>
ambigu ous</w>
R isk</w>
G row
evi den
ell as</w>
deb tors</w>
a warding</w>
commen ced</w>
ab sur
hol m</w>
hydr ate</w>
comple teness</w>
7 7/
s i</w>
so l</w>
Te am</w>
5 (3</w>
lit res</w>
eri an</w>
E ll
s andy</w>
ESR B</w>
belie ve
fac tories</w>
explo red</w>
mor gan</w>
D ele
wan dered</w>
at ri
institu tes</w>
g loom</w>
ri ders</w>
metabol ite</w>
for fe
pp le</w>
jam in</w>
sen sible</w>
thi gh</w>
ME A</w>
scri p
desi res</w>
incorpor ating</w>
I TIES</w>
Mal ta</w>
imper ative</w>
N az
est inian</w>
excre tion</w>
manag es</w>
distur bing</w>
m esh</w>
syn thesis</w>
EC B
mul tin
consist encies</w>
n ull</w>
sh y</w>
sovereign ty</w>
ou tr
hi des</w>
wel ls</w>
suscep tibility</w>
d :
am ber</w>
Pro per
parlia ments</w>
rep airing</w>
S aint</w>
D re
tru sting</w>
impul se</w>
u tility</w>
ght ful</w>
ec raft</w>
X ML</w>
echo ed</w>
cow boy</w>
la zy</w>
hy dra
Hun garian</w>
F C</w>
dun can</w>
eco system</w>
in asmuch</w>
evol ving</w>
dra in</w>
fl ags</w>
cosme tic</w>
bu sted</w>
sk ele
mar tial</w>
and ra</w>
ME S</w>
me red</w>
A I</w>
ren ts</w>
yl on</w>
cam pus</w>
nutri tional</w>
pose dly</w>
appro vals</w>
E M</w>
vide os</w>
acc use</w>
Ci tiz
gl omer
pr ick</w>
han ding</w>
ho stages</w>
dissu asive</w>
rul ings</w>
Co sts</w>
v ou
res ur
U sing</w>
1 a</w>
200 5
Ch em
sav age</w>
re acted</w>
shi fts</w>
on aire</w>
stipul ates</w>
cle arer</w>
Pl ace</w>
ev al</w>
EN.0 100
mo l</w>
writ es</w>
plain s</w>
Le vel</w>
E duc
0 5
lad en</w>
P GI</w>
Spar hawk</w>
P E</w>
side ways</w>
m amm
Gen tle
grad uation</w>
astron au
45 /2001</w>
per taining</w>
drow ning</w>
environ ments</w>
al is
SP C</w>
trans posing</w>
inf ant</w>
ograp hy</w>
t as
ad duced</w>
tex as</w>
P aci
expres ses</w>
10 :00</w>
ger mans</w>
at t</w>
U l
short cut</w>
mo tionless</w>
m m
H oriz
Institu tions</w>
forth with</w>
bac on</w>
M as
re alisation</w>
godd ess</w>
cous ins</w>
hypoten sion</w>
ren dez
F S</w>
tum or</w>
four teen</w>
What 's</w>
por ary</w>
cus sions</w>
h l</w>
eleph ant</w>
a tivity</w>
pat rick</w>
prospec tive</w>
CO NC
Agre ements</w>
Cer tain</w>
sw ollen</w>
as certain
fertilis ers</w>
5 10
angel es</w>
Ge orgia</w>
sc out</w>
poor ly</w>
j ah</w>
conf using</w>
k nuc
ten th</w>
U E</w>
de m</w>
dis advantages</w>
cir cling</w>
re jects</w>
cul t</w>
li ams</w>
consi g
bu zz
PROC ED
A mon
dis pos
numer ical</w>
Wh it
B ond</w>
n ul
inter faces</w>
2, 5</w>
haemo globin</w>
fl ori
C B
br al</w>
S ounds</w>
in consistencies</w>
mer ge</w>
c key</w>
room mate</w>
z in
do cetaxel</w>
f ond</w>
cartri dge</w>
8 )</w>
ur gently</w>
198 5</w>
pu pp
we st
sof a</w>
par as
ru sty</w>
nb lower</w>
cu ps</w>
conce al</w>
down turn</w>
stimul us</w>
sor ted</w>
sail or</w>
jack son</w>
tel es
Loc al</w>
solic itor</w>
Grow th</w>
pri ma</w>
in deb
b oul
k ki</w>
dis solved</w>
inten tional</w>
mp ic</w>
cur led</w>
. i</w>
blan kets</w>
L au
reluc tant</w>
B SE</w>
ri ver
den afil</w>
skele tal</w>
v i</w>
brus hed</w>
under water</w>
17 .
dr um
gr ac
Oper ational</w>
mer it</w>
en dy</w>
cre ws</w>
glo omy</w>
dis agreement</w>
senten ced</w>
pum ps</w>
flag ship</w>
bur ial</w>
nuc le
com ic</w>
accommo date</w>
- --</w>
cri es</w>
harmon ising</w>
post pon
li zed</w>
hoo ked</w>
bar gaining</w>
ti est</w>
boo ze</w>
kra inian</w>
ann um</w>
min ded</w>
ess ness</w>
Commissi oner</w>
lib eral</w>
el ding</w>
ai d
ag o
cur sor</w>
a isle</w>
ic e
n an</w>
Environ mental</w>
En try</w>
ali zing</w>
ob struc
Agricul ture</w>
on azole</w>
affili ated</w>
30 1</w>
Inte gr
G il
inher ited</w>
defend ants</w>
poe tin</w>
ear marked</w>
tor tured</w>
go ats</w>
abstr act</w>
stain s</w>
GM Os</w>
Paci fic</w>
r up</w>
open ly</w>
tri ple</w>
spar hawk</w>
at titudes</w>
L and
mi le
sie ur</w>
10 th</w>
ax es</w>
da e</w>
Bo s
un le
Au tom
tour nament</w>
ag li
apo log
ad or</w>
d le</w>
gar dens</w>
dis si
sur pl
reci pe</w>
tic ular</w>
organ ize</w>
bar k</w>
Bet ween</w>
PN R</w>
agr i</w>
P ass
p im
W it
ater ally</w>
G PS</w>
e ure</w>
to s</w>
ar ma
is ons</w>
d ave</w>
im balance</w>
t] he</w>
i k</w>
re set</w>
sign atures</w>
ff le</w>
vitam in</w>
L P
fac ie</w>
s nar
Su d
con sol
sup poses</w>
arti ficially</w>
kid neys</w>
man sion</w>
R ose</w>
rob in</w>
pi d</w>
atten ding</w>
[ 2</w>
bli ster</w>
aris en</w>
ri bavir
Gu ess</w>
receip ts</w>
cig ar</w>
AC s</w>
o v
cott age</w>
pe pper</w>
ho ward</w>
str apped</w>
sna kes</w>
author ises</w>
C H</w>
ti re</w>
Tex as</w>
ch rome</w>
tho od</w>
zo o</w>
sk im
ch a</w>
solu ble</w>
No tes</w>
A unt</w>
s ob
deb ates</w>
5 8
purchas ers</w>
encry ption</w>
he dge</w>
rendez vous</w>
In tro
cre pt</w>
Li thuania</w>
Docu ment</w>
re signation</w>
dis charged</w>
funda mentally</w>
over lap</w>
D ist
j ar
mou ths</w>
narro wed</w>
re construction</w>
ail s</w>
awa its</w>
she pher
cann on</w>
at te
Fi re</w>
maj eure</w>
pre vail</w>
proportion ately</w>
11 :00</w>
C ases</w>
f ella</w>
off line</w>
R ay
desi gnations</w>
20 .
for k</w>
mi liti
F al
[ 3</w>
res '</w>
NU TS</w>
weak ened</w>
T un
Guaran tee</w>
Viet nam</w>
discre tionary</w>
11 (1</w>
pres s
shor ts</w>
jer ked</w>
wh ichever</w>
Who ever</w>
Mor gan</w>
p ent</w>
explo iting</w>
harass ment</w>
D O
op es</w>
catastrop he</w>
Cont act</w>
i tive</w>
C AR
levi es</w>
classi fy</w>
Re ad</w>
RT D</w>
sle y</w>
F ron
este em</w>
Sur ve
P ow
Blo od</w>
Air lines</w>
commit ting</w>
Techno logy</w>
measur able</w>
can al</w>
sha ken</w>
ch al
t als</w>
Ch uck</w>
ko sovo</w>
y ell</w>
counc ils</w>
A gain</w>
meth yl
doub led</w>
12 1</w>
be ers</w>
ac ies</w>
dom ains</w>
ha r</w>
MA N</w>
dimin ished</w>
bo o</w>
14 5</w>
si um</w>
Jack son</w>
terri fic</w>
impro ves</w>
k ol
bi dding</w>
as cen
b az
w ick</w>
in scri
grap e</w>
all as</w>
in timate</w>
b ard</w>
re con
off s</w>
descen ding</w>
ti sed</w>
rati os</w>
bub bles</w>
5 2
pois oning</w>
R adi
mon otherapy</w>
br ass</w>
betr ay
archi ve</w>
contr ain
ME AS
car l</w>
21 st</w>
ma c</w>
Phar mac
rele ases</w>
ch ased</w>
sen ate</w>
phenom ena</w>
dro wn</w>
harb our</w>
H il
in equ
k an
fu tures</w>
e v</w>
legi timacy</w>
penetr ated</w>
ow es</w>
tr ick
fractu res</w>
ac tly</w>
lear nt</w>
out let</w>
spe eches</w>
re par
aud i</w>
ori um</w>
man ure</w>
ON AL</w>
polis hed</w>
ste ak</w>
no de</w>
je wish</w>
ho t
ge orgia</w>
tol l</w>
doub tful</w>
cu t
Stan ding</w>
slo vakia</w>
pier ced</w>
k u</w>
ci d:
d azz
CI L</w>
T ai
obli ge</w>
cinem a</w>
chole ster
er up
Ho ward</w>
ad ren
thir sty</w>
over ly</w>
nin ety</w>
J RC</w>
th under
r icul
eli zabeth</w>
out si
de eds</w>
sym pathy</w>
po em</w>
clo ses</w>
sh er
fin alised</w>
nic kel</w>
a wait</w>
r ite</w>
ca fe
ab bre
illumin ated</w>
emphas ised</w>
ster ies</w>
sup press</w>
Rom an</w>
penetr ation</w>
intrigu ing</w>
en rich
2 20
tr action</w>
com in</w>
ten sive</w>
f ren
ank le</w>
om i</w>
Be ing</w>
Jac ob</w>
s ation</w>
enti eth</w>
surpris ingly</w>
pil es</w>
Eli zabeth</w>
rail road</w>
az a</w>
spe eds</w>
65 9/1999</w>
se als</w>
man ners</w>
Ex change</w>
slo venia</w>
circum ven
gras ped</w>
min i</w>
P V</w>
wrin kled</w>
bro w</w>
ro ma</w>
he el</w>
us er
nom inated</w>
rati fied</w>
t ags</w>
w els</w>
sa iled</w>
dru m</w>
emphas ises</w>
o ta</w>
m asks</w>
rebel lion</w>
ro ger</w>
silic on</w>
diabe tic</w>
gi gan
acquis itions</w>
dero gate</w>
C lau
tuc ked</w>
tor pe
z an</w>
J HA</w>
ele c</w>
Gentle men</w>
comman ded</w>
o ks</w>
ic eland</w>
creat inine</w>
el ite</w>
Priv ate</w>
F l
he ights</w>
Medic inal</w>
un reasonable</w>
congrat ulations</w>
ro l
E valuation</w>
jac ob</w>
inequ alities</w>
shel ves</w>
ha iry</w>
C U
spac ecraft</w>
prepa redness</w>
m asses</w>
co er
ed iting</w>
superse ded</w>
reservo ir</w>
Foun dation</w>
gra titude</w>
al and</w>
gu inea</w>
S ame</w>
collec tively</w>
12 /
scre wing</w>
sh out</w>
gol d
DG s</w>
m L</w>
Ex plo
le on</w>
innov ations</w>
pro jection</w>
amus ement</w>
ak a</w>
II .
12 4</w>
enlar ged</w>
trav ellers</w>
haem at
c ass
Egy pt</w>
fire arms</w>
dum my</w>
se ize</w>
skelet on</w>
SG EI</w>
IC s</w>
inti mi
bit ches</w>
fu me</w>
M ess
slaughter house</w>
note book</w>
U ser</w>
j ones</w>
fre aked</w>
termin als</w>
haemorrha ge</w>
bo ston</w>
lo ween</w>
hus band
ni k</w>
Langu age</w>
cham pion
Y Y
high ness</w>
6. 6</w>
re places</w>
cre ativity</w>
L ic
fascin ating</w>
B ir
Ton ight</w>
12 6</w>
bu yers</w>
coordin ator</w>
apologi zing</w>
trac ked</w>
work in</w>
re constituted</w>
jo ints</w>
harm less</w>
volati lity</w>
dream t</w>
complement arity</w>
im partial</w>
p ond</w>
dic al</w>
poli tically</w>
oppon ents</w>
ation s'</w>
c ic
upgrad ed</w>
mathema tical</w>
A ra
counsel or</w>
3 ,000</w>
cry stal
com rade</w>
al e
Me dia</w>
sup posedly</w>
sup pression</w>
Mis sion</w>
dom s</w>
B est</w>
Sud denly</w>
fil ls</w>
sub tle</w>
L aw
je ff</w>
pun ched</w>
commen sur
off spring</w>
bi zar
PD F</w>
stre ams</w>
dri ve
Declar ation</w>
Ac ts</w>
1 19</w>
t fully</w>
pu b</w>
neutro pen
ID s</w>
pre supposes</w>
cap it
collis ion</w>
grou ped</w>
Fami ly</w>
cy top
IL O</w>
ar mored</w>
fro st</w>
7 6
H ence</w>
aster isk</w>
mathema tics</w>
Bo x</w>
arrog ant</w>
pre dec
Assi stance</w>
courtes y</w>
Gr ant</w>
sur prises</w>
po ols</w>
comprehen sible</w>
appren tic
co operated</w>
Im perial</w>
reve als</w>
amp li
activ eness</w>
12 8</w>
o to</w>
sta tin</w>
3 1
re members</w>
b ind</w>
micro grams</w>
RE G
lam b</w>
ud inal</w>
tu esday</w>
po pe</w>
d us</w>
. a</w>
attach ments</w>
all ory</w>
Ko sovo</w>
ha ven</w>
Bo ok</w>
cycl ical</w>
neare r</w>
distil lation</w>
E X</w>
pra yed</w>
extr apol
f ading</w>
sci ences</w>
st all</w>
exten sions</w>
7 2
man ts</w>
sad ly</w>
ro ll
ha y
catalo gue</w>
bre ast
Lo s</w>
infring ing</w>
wiz ards</w>
V ice</w>
r ack</w>
sole mn</w>
mar ty</w>
Loo king</w>
pir ates</w>
tw entieth</w>
remedi ed</w>
enrich ment</w>
at ter</w>
vi tiated</w>
S pace</w>
e .</w>
te aring</w>
B I
k as
hi ring</w>
lan a</w>
mal ta</w>
li ly</w>
insec ts</w>
millen ni
revis ing</w>
Strategi c</w>
pol ye
par ks</w>
b ren
Do c</w>
ste re
f in</w>
batt les</w>
un prece
ret ali
spon taneous</w>
PRODU CT
207 /2009</w>
marke table</w>
Car l</w>
ogen icity</w>
assi stants</w>
up stream</w>
anticip ate</w>
reposit ory</w>
s our</w>
H it
tac tics</w>
tran shipment</w>
mo scow</w>
apar tments</w>
sten ch</w>
al istic</w>
N A</w>
me dal</w>
le is
fur ious</w>
fore most</w>
sim ulation</w>
I '
hear ings</w>
J ones</w>
Fail ed</w>
pers ist</w>
8 :00</w>
d ab
compil ation</w>
rou ting</w>
fl our</w>
igh s</w>
progres sion</w>
di zzy</w>
ab il
spar k</w>
transpor ter</w>
format ting</w>
cha pel</w>
N ature</w>
I mag
critic ised</w>
O oh</w>
pe tty</w>
bear able</w>
with stand</w>
indi genous</w>
am er</w>
ul ty</w>
kin son</w>
conf use</w>
L .</w>
compar isons</w>
ke en</w>
clum sy</w>
attr activeness</w>
re produced</w>
5 6
es .'</w>
distribu tor</w>
in tu
R O</w>
molec ules</w>
An ti</w>
endor ses</w>
Bro ther</w>
sched ules</w>
B O
L IF
speci alists</w>
de em</w>
pac ket</w>
in fe
A sh
un conditional</w>
y --</w>
suff oc
commun ist</w>
R ural</w>
J ordan</w>
com modi
F OL
sad ness</w>
gigan tic</w>
legi ti
ser y</w>
my steries</w>
extrater restrial</w>
z in</w>
transf erable</w>
tr un
gul f</w>
ge ome
bas s</w>
f lock</w>
ev ap
shar ks</w>
IP A</w>
hydro x
IN I</w>
l ousy</w>
ru b</w>
D ave</w>
c ache</w>
an ing</w>
swe ep</w>
supple menting</w>
in dul
repe ti
cafe teria</w>
Col um
whit e
conv ul
vi vo</w>
B G</w>
deri ving</w>
bla h</w>
si vity</w>
co sm
even ly</w>
Be au
mad ame</w>
gar ath</w>
kit ch
fr amed</w>
incl ined</w>
v ines</w>
com partments</w>
longit udinal</w>
en ligh
go wn</w>
deduc tions</w>
loun ge</w>
par as</w>
M ain</w>
gent ina</w>
clai re</w>
ir ri
tic ul
registr ar</w>
com pression</w>
W ed
heavi er</w>
wil d
pi x
commer ci
4/ EEC</w>
Cap ital</w>
cur ing</w>
deep est</w>
cr ates</w>
d us
Su n</w>
ke tt</w>
du el</w>
Man ager</w>
dis agree</w>
seem ingly</w>
fore see</w>
fre ed</w>
res ale</w>
f ellas</w>
ro id</w>
embarrass ment</w>
12 34/2007</w>
fit tings</w>
spec ul
en closure</w>
resem bled</w>
gg les</w>
h ats</w>
ex otic</w>
den cies</w>
510 /2006</w>
tic als</w>
Jer ry</w>
j essica</w>
tro pical</w>
bio logy</w>
s have</w>
pharm acy</w>
J essica</w>
do t</w>
practi tioners</w>
li e
depri ve</w>
meth yl</w>
a woke</w>
forma tions</w>
Imp act</w>
3. 2.
pe e
L en
Ter rit
D at
tur n
bl amed</w>
1 16
class room</w>
7. 1</w>
egy pt</w>
remn ants</w>
dis appointment</w>
es tive</w>
inten tionally</w>
ans as</w>
An nie</w>
prescri be</w>
lit re</w>
201 0
accoun table</w>
ky o</w>
re constitution</w>
impris oned</w>
furn ished</w>
bloc k
oly mpic</w>
OT C</w>
tan tly</w>
war fare</w>
ur an
ambi ent</w>
cun ning</w>
recy cled</w>
beha ved</w>
h ex
grou p
om ide</w>
cam ps</w>
J .</w>
4 :
C li
o .
jurisdic tions</w>
bis cu
j ordan</w>
intensi fied</w>
head er</w>
ch ris
min erals</w>
S EA</w>
reg ain</w>
sw amp</w>
observ ance</w>
br ad
0 x
Mat t</w>
remo tely</w>
B V</w>
82 /2003</w>
Pan el</w>
cas s</w>
an gri
bab y
ed onia</w>
as pir
temp er</w>
vac ant</w>
quanti fied</w>
p ins</w>
civili zed</w>
jer ry</w>
with drawing</w>
read ers</w>
be et</w>
phys ic
avo idable</w>
inspir ation</w>
retri eve</w>
surpl uses</w>
r aid</w>
Ex actly</w>
dis regard</w>
advis able</w>
distr acted</w>
steri le</w>
E ven
z ers</w>
hand cuffs</w>
AC H</w>
o ked</w>
gras p</w>
mar shall</w>
9/ EEC</w>
wait ress</w>
na than</w>
promo tional</w>
ght ness</w>
P age</w>
l acks</w>
DV D</w>
honey moon</w>
lap se</w>
lox acin</w>
m apping</w>
flo wn</w>
Leg is
lou dly</w>
Bl ack
y ach
wr ath</w>
vers a</w>
pestic ides</w>
unprece dented</w>
transmit ter</w>
cur ricul
k im
mar ie</w>
pan e</w>
read able</w>
tex ture</w>
jeopardi ze</w>
9 /EC</w>
fle e</w>
reve aling</w>
5. 4</w>
un ci
n +
se an</w>
T im
199 0s</w>
a wards</w>
R ai
G S
week ends</w>
Bo dy</w>
s cars</w>
NR As</w>
bac king</w>
Concer ning</w>
sp ies</w>
nur sery</w>
Ex ternal</w>
Cre ate</w>
l ance</w>
P M
g love</w>
cont ing
i v
OP S</w>
D own</w>
rebel s</w>
bu ck</w>
Pr inc
7 6/
fin nish</w>
ly m
m .
trans plantation</w>
la me</w>
in cur
bi al</w>
inspec t</w>
inter cep
per mitting</w>
Vic tor</w>
in stan
tri angle</w>
cong ress</w>
Ag ainst</w>
pass ages</w>
Au to
parano id</w>
Nic ole</w>
di gi
oten sin</w>
ve gas</w>
devi ations</w>
battle field</w>
Dar k</w>
moun ting</w>
defec tive</w>
sha m
gre et</w>
o liver</w>
grin ning</w>
Amon g</w>
ak i</w>
we dn
ca sting</w>
C A
overl apping</w>
th reads</w>
it abine</w>
hun ted</w>
fic tion</w>
extr acts</w>
y og
fig uring</w>
PL N</w>
rac ed</w>
sy rup</w>
infl am
s lot</w>
adv ancing</w>
cont ag
2 10</w>
C lo
shot gun</w>
p tian</w>
ground water</w>
gen s</w>
4 th</w>
ver tically</w>
_ en
Bab y</w>
ch ell</w>
D ow
Argu ments</w>
be sto
take over</w>
mer ging</w>
sto ve</w>
sun rise</w>
hin der</w>
H A
u als</w>
young est</w>
weigh ting</w>
[ 4</w>
X P</w>
br is</w>
conver ting</w>
S TE
s op
el ena</w>
o sis</w>
sho ved</w>
moun tain
T aliban</w>
M en
rigor ous</w>
Rom a</w>
swe ater</w>
anti do
le en</w>
ar cha
desp ise</w>
wil derness</w>
cur tains</w>
Bo ston</w>
brief ing</w>
gras tim</w>
Ex port</w>
origin s</w>
commensur ate</w>
correc ting</w>
rec tang
B lu
3 (
E d</w>
3 :00</w>
re vel
licen ses</w>
ar tery</w>
borro wer</w>
9 :00</w>
ble d
vod ka</w>
87 (3)(
cy ber
7 (3</w>
c ine</w>
de part</w>
mu ffled</w>
e el</w>
stri kes</w>
inter institutional</w>
concei vable</w>
diplom a</w>
ion '</w>
dis closures</w>
3/ EEC</w>
R ef
apolog ise</w>
aerop lane</w>
tri l
approxim ate</w>
trac tors</w>
Tra ining</w>
questionn aires</w>
ter rain</w>
cr acks</w>
1/ EEC</w>
En for
sha w</w>
log ging</w>
ca the
r andy</w>
cap ita</w>
spher ic</w>
inf eri
multin ational</w>
CO S
pursu es</w>
0 8
mid st</w>
Con tro
ph ine</w>
13 5</w>
w re
she er</w>
blin ded</w>
i j
ris ked</w>
cry p
scre ams</w>
clu sters</w>
Fol low</w>
Di g
D ex
h man</w>
in accurate</w>
spo iled</w>
Mo scow</w>
tre acher
tru sts</w>
ti fully</w>
ali bi</w>
ac tress</w>
im itation</w>
psychi atric</w>
Pat rick</w>
acquain tance</w>
D ol
4 /EC</w>
mis e</w>
3/ 2011</w>
resur rec
ul f</w>
sh one</w>
ili an</w>
constra int</w>
O G
detec tives</w>
ca us
Sh all</w>
semin ar</w>
3 50</w>
millenni um</w>
vail able</w>
R yan
Cre dit</w>
wa stes</w>
Buil ding</w>
per fume</w>
shoo ts</w>
SNC M</w>
car ni
M and
com pressed</w>
198 6</w>
grap hs</w>
Jo ey</w>
incin eration</w>
mar vel
Educ ation</w>
Back ground</w>
m med</w>
abu sive</w>
posi tively</w>
cor rup
po et</w>
depos itary</w>
t win
pe aks</w>
volati le</w>
re new</w>
decla res</w>
Mom my</w>
Fin dings</w>
seven ty</w>
Pub lic
wa kes</w>
induc tion</w>
P reg
om budsman</w>
fol ding</w>
agre eing</w>
B at
1 /2006</w>
Bro wn</w>
L et
vie wers</w>
8 ,
scrat ched</w>
Agen da</w>
phys icians</w>
bizar re</w>
P T</w>
de fi
Surve illance</w>
anti body</w>
C ul
I TER</w>
forec losure</w>
Chair man</w>
conclu sive</w>
imag in
ent ine</w>
counterfe iting</w>
prophec y</w>
cu losis</w>
stor ms</w>
kee pers</w>
concomit antly</w>
D '
19 th</w>
Ac tive</w>
scan ning</w>
sign alling</w>
I ONS</w>
destruc tive</w>
threat ens</w>
thin k
In surance</w>
A sian</w>
ribavir in</w>
Certi fic
m am
B ush</w>
conspic uous</w>
anch or
Au stralia</w>
toler ated</w>
br ance</w>
IN G
respon dent</w>
ha i</w>
trans pose</w>
H ist
unanim ously</w>
Out turn</w>
lymp ic</w>
fast est</w>
Lis a</w>
wor ship</w>
mel ted</w>
fre aking</w>
cur ved</w>
you --</w>
even th</w>
crus hing</w>
tr am
ke ting</w>
mush rooms</w>
corro bor
not aries</w>
Y outh</w>
interf ering</w>
mass age</w>
raz or</w>
countri es'</w>
heal ed</w>
glit tering</w>
bron ze</w>
con den
W iz
man ship</w>
[ 1</w>
IN S</w>
[...]
