{
    "manag@@": 12298,
    "zer@@": 11795,
    "reminded": 5841,
    "rein@@": 9718,
    "meant": 2081,
    "BS": 9925,
    "supply": 973,
    "tariffs": 7136,
    "aids": 9805,
    "ADOP@@": 19480,
    "ownership": 3988,
    "Mess@@": 14993,
    "oils": 8442,
    "conversations": 11886,
    "Sorry": 3568,
    "eradic@@": 15891,
    "H@@": 410,
    "commun@@": 11246,
    "alice": 12325,
    "invention": 16841,
    "ghosts": 8505,
    "embassy": 12213,
    "dimension": 4528,
    "happily": 11302,
    "parks": 15173,
    "psychiatric": 15768,
    "lacked": 17060,
    "blu@@": 8098,
    "exhaustive": 9396,
    "joy": 5795,
    ".'": 1901,
    "trader": 6992,
    "confined": 7089,
    "wooden": 6329,
    "Jan@@": 10210,
    "lon@@": 5465,
    "AC@@": 3060,
    "aunt": 6333,
    "sam@@": 5596,
    "chooses": 11882,
    "Susan": 13064,
    "jointly": 5137,
    "Party": 3161,
    "bro": 8116,
    "metabolic": 16496,
    "contempl@@": 12158,
    "ECH@@": 16580,
    "differences": 2277,
    "lie": 1475,
    "Internet": 4496,
    "aling": 5654,
    "ption": 4698,
    "viet": 19463,
    "laughed": 5438,
    "insur@@": 13507,
    "wis@@": 7493,
    "dan@@": 3367,
    "attachments": 15117,
    "smaller": 3200,
    "interests": 1271,
    "AND": 3817,
    "traffic": 2304,
    "Johnson": 16554,
    "daugh@@": 19459,
    "coll@@": 17478,
    "jury": 6775,
    "Compe@@": 18546,
    "premiums": 9808,
    "pools": 15094,
    "they": 57,
    "ery@@": 17645,
    "drawing": 3379,
    "signing": 6942,
    "footsteps": 12548,
    "cape": 11434,
    "Se@@": 2231,
    "ot@@": 3079,
    "manually": 10988,
    "le'": 10368,
    "pren@@": 18302,
    "impression": 5891,
    "implementing": 1022,
    "exam": 10087,
    "expenditures": 11262,
    "fax": 5370,
    "petitioner": 13070,
    "heart@@": 11508,
    "with@@": 8113,
    "dit@@": 6173,
    "degree": 2314,
    "nie": 3833,
    "tionless": 19154,
    "shifting": 13228,
    "vege@@": 17710,
    "Phar@@": 18084,
    "fountain": 17170,
    "nerv@@": 18590,
    "OF@@": 12705,
    "anony@@": 16078,
    "door@@": 7575,
    "cit@@": 7980,
    "last": 244,
    "whole": 496,
    "resumed": 13662,
    "cast@@": 14211,
    "odynamic": 13990,
    "defended": 16654,
    "stom": 16477,
    "warnings": 8697,
    "Pho@@": 12323,
    "(2@@": 17764,
    "ns": 2298,
    "Slovakia": 16769,
    "the": 4,
    "gla@@": 7378,
    "bital": 17076,
    "flir@@": 12508,
    "significant": 709,
    "integrity": 5648,
    "ceased": 6232,
    "barb@@": 13595,
    "audits": 4876,
    "avoidance": 11594,
    "Hell@@": 13599,
    "discharge": 6291,
    "selling": 2664,
    "pumps": 14484,
    "sensed": 11126,
    "ZPO": 17181,
    "bel": 9268,
    "concealed": 12620,
    "mansion": 14603,
    "crete": 18863,
    "evac@@": 19426,
    "ordin@@": 5342,
    "Note": 5606,
    "problematic": 16312,
    "professions": 11215,
    "international": 559,
    "bacterial": 14018,
    "mainland": 12726,
    "pover@@": 18858,
    "chment": 16436,
    "Why": 845,
    "coverage": 5793,
    "tits": 13991,
    "viruses": 12245,
    "Board": 2578,
    "KK": 13701,
    "beneath": 4531,
    "privi@@": 19337,
    "restor@@": 19129,
    "quered": 19469,
    "stitu@@": 17951,
    "prosperity": 11255,
    "Educ@@": 19005,
    "Bo@@": 2696,
    "Back": 8740,
    "sun": 2036,
    "parcel": 17155,
    "iness": 4707,
    "benchmark": 7875,
    "recalls": 13032,
    "Carter": 13472,
    "progress": 1421,
    "bilities": 17940,
    "ending": 4648,
    "thi@@": 6224,
    "pun@@": 6515,
    "agu@@": 8544,
    "Assi@@": 18254,
    "enzymes": 10330,
    "renz": 19264,
    "ghtly": 17144,
    "electr@@": 8323,
    "Over@@": 11173,
    "dors": 16255,
    "pine": 9969,
    "arise": 4676,
    "universal": 5608,
    "parking": 4978,
    "indispensable": 7977,
    "captive": 12110,
    "orities": 18835,
    "Chairman": 15845,
    "parcels": 12215,
    "falling": 2445,
    "enlarged": 14979,
    "dogs": 3485,
    "tonom@@": 18259,
    "confessed": 13444,
    "RF@@": 12625,
    "garet": 14139,
    "partner@@": 18153,
    "regularity": 9754,
    "day": 218,
    "Detec@@": 18551,
    "repository": 15191,
    "pters": 18361,
    "sometime": 9127,
    "CE": 6056,
    "surplus": 5902,
    "entic": 19377,
    "insane": 8272,
    "plo@@": 10313,
    "feder@@": 15034,
    "gentle": 5803,
    "start": 603,
    "Save": 11709,
    "T.": 16516,
    "Nat@@": 7651,
    "Men@@": 15671,
    "narcotics": 16248,
    "pen": 4993,
    "devi@@": 12121,
    "ch": 1549,
    "emergencies": 13189,
    "suffering": 4816,
    "choo@@": 18982,
    "secrecy": 7525,
    "nam@@": 7065,
    "sufficient": 894,
    "slit": 16422,
    "restructuring": 1800,
    "not@@": 8863,
    "medication": 9229,
    "tence": 18930,
    "france": 3628,
    "joints": 15026,
    "mo@@": 813,
    "mits": 13435,
    "elaborate": 13666,
    "exac@@": 18827,
    "reported": 1228,
    "countless": 13034,
    "coloured": 11244,
    "jewish": 14814,
    "radioactive": 8649,
    "itability": 19012,
    "ambition": 12002,
    "operating": 1290,
    "zone": 2833,
    "cially": 19404,
    "roman@@": 9029,
    "repar@@": 14804,
    "Amendment": 8147,
    "uc@@": 2149,
    "emphasis": 6179,
    "registered": 1654,
    "tenders": 4758,
    "slow": 3083,
    "metr@@": 8340,
    "arc": 12924,
    "Cooperation": 8191,
    "ads": 5181,
    "thin": 3930,
    "MR@@": 9323,
    "renewal": 6750,
    "BAT": 16647,
    "findings": 2396,
    "attraction": 17271,
    "tactics": 15194,
    "inconsistencies": 14416,
    "wagons": 10067,
    "considers": 1114,
    "horm@@": 19403,
    "loveyou": 17248,
    "contem@@": 14461,
    "alpha@@": 13102,
    "transmission": 2237,
    "counting": 5873,
    "filter": 5645,
    "q@@": 5108,
    "reci@@": 17685,
    "motion": 4217,
    "global": 1446,
    "no@@": 1068,
    "Open": 7104,
    "ordon": 10702,
    "retained": 5936,
    "Pu@@": 8553,
    "decks": 16633,
    "(1@@": 17874,
    "brussels": 8140,
    "raeli": 13369,
    "careful": 3182,
    "understands": 9610,
    "ght": 11668,
    "paces": 13440,
    "ricul@@": 19307,
    "'re": 62,
    "mails": 13144,
    "Ta@@": 10505,
    "construed": 10442,
    "safe@@": 14642,
    "Land": 9627,
    "armor": 10271,
    "Kno@@": 14122,
    "holds": 5747,
    "mess": 4690,
    "interview": 5063,
    "forgetting": 12761,
    "righte@@": 18180,
    "lana": 15164,
    "campaigns": 10379,
    "constructive": 16419,
    "kinda": 12209,
    "hear": 683,
    "spreading": 8757,
    "charming": 10187,
    "ends": 3406,
    "mum": 10084,
    "fund": 1702,
    "sion": 2203,
    "Got": 6718,
    "attan": 19292,
    "egypt": 15416,
    "genuinely": 12256,
    "Cop@@": 10693,
    "safety": 629,
    "Despite": 8913,
    "merger": 4864,
    "ute": 8150,
    "snow": 4321,
    "become": 866,
    "pursuit": 7601,
    "matic": 7737,
    "glu@@": 10485,
    "revoked": 13154,
    "spectrum": 6430,
    "english": 4647,
    "assisted": 6725,
    "psychological": 9249,
    "sums": 7023,
    "Scott": 13461,
    "shortly": 6558,
    "pharmac@@": 7176,
    "yes": 578,
    "docu@@": 13104,
    "genic": 13965,
    "prima": 14448,
    "Probably": 10591,
    "al'": 7437,
    "fare": 14527,
    "kan@@": 14793,
    "isations": 15573,
    "imagination": 9092,
    "fucked": 5868,
    "packet": 15266,
    "alle@@": 11335,
    "pounding": 10594,
    "vac@@": 10429,
    "contrary": 1829,
    "triangle": 15593,
    "millenni@@": 19335,
    "slu@@": 9501,
    "burns": 9172,
    "cable": 6576,
    "excep@@": 18916,
    "usable": 11016,
    "thiness": 19473,
    "cabinet": 8327,
    "workin": 15024,
    "Stone": 15975,
    "aughter": 18606,
    "recal@@": 13978,
    "tom": 4423,
    "europol": 9965,
    "ings": 1146,
    "Econ@@": 17703,
    "tra": 6410,
    "consciousness": 7331,
    "pharmaceu@@": 17394,
    "tico@@": 17143,
    "African": 10913,
    "edge": 2693,
    "legislature": 4937,
    "offender": 10769,
    "dure": 19300,
    "proving": 8417,
    "Vir@@": 9469,
    "policy@@": 9536,
    "propose": 3807,
    "bears": 8659,
    "aqu@@": 8686,
    "nell": 10954,
    "nausea": 9842,
    "AG@@": 5136,
    "dependence": 8344,
    "ti@@": 665,
    "oked": 15506,
    "converted": 6121,
    "print": 3602,
    "para@@": 13195,
    "residu@@": 18994,
    "Simil@@": 18146,
    "immense": 13561,
    "Spi@@": 16038,
    "highness": 15010,
    "saturday": 9691,
    "reputation": 4749,
    "onset": 13278,
    "paused": 6894,
    "weighs": 16444,
    "aero@@": 12440,
    "ardo": 16680,
    "Up": 10246,
    "wor@@": 5019,
    "aided": 16820,
    "White": 6500,
    "ter": 1025,
    "r": 1356,
    "ners": 4596,
    "credits": 7865,
    "limits": 1376,
    "heavier": 15353,
    "demo@@": 8997,
    "passenger": 2998,
    "maximum": 948,
    "distinctive": 5977,
    "skele@@": 19466,
    "remedy": 5517,
    "based": 319,
    "fence": 8321,
    "Walter": 12542,
    "ax@@": 3953,
    "preclude": 7214,
    "loves": 4205,
    "fossi@@": 18662,
    "proved": 4930,
    "sk": 13819,
    "declar@@": 17122,
    "owns": 8073,
    "October": 2922,
    "sons": 5199,
    "variations": 9378,
    "defined": 901,
    "great@@": 17848,
    "Fig@@": 19181,
    "during": 294,
    "chamber": 3384,
    "rol@@": 14940,
    "slovak": 16106,
    "stranger": 7370,
    "agli@@": 14564,
    "essa": 11375,
    "tmark": 17111,
    "hydrochlorothiazide": 13664,
    "sweat@@": 11779,
    "ku": 14824,
    "ON@@": 4476,
    "okay": 412,
    "series": 2502,
    "Baltic": 14064,
    "hopeless": 16642,
    "divorced": 8423,
    "equ@@": 6100,
    "sailing": 15968,
    "superiors": 17160,
    "impul@@": 17480,
    "obtain": 1823,
    "outside": 881,
    "TA": 6019,
    "asia": 8965,
    "neigh@@": 19476,
    "ard@@": 5790,
    "identification": 2184,
    "gery": 17698,
    "ke@@": 2107,
    "junk": 12566,
    "bubbles": 14769,
    "Any@@": 13096,
    "you": 12,
    "matt": 13958,
    "devil": 5455,
    "attract": 8199,
    "gi@@": 2043,
    "smells": 8398,
    "problem": 825,
    "killer": 2963,
    "vailable": 15787,
    "footwear": 12918,
    "authorized": 9922,
    "vic@@": 6987,
    "carefully": 2856,
    "pulse": 9042,
    "File": 12419,
    "renal": 3423,
    "anth@@": 13894,
    "Bro@@": 4674,
    "martin": 10058,
    "astronau@@": 14328,
    "strong": 1225,
    "uch": 17955,
    "painting": 6631,
    "people": 179,
    "betrayal": 16002,
    "complementary": 5317,
    "inten@@": 6884,
    "leaped": 6721,
    "Animal": 14014,
    "zole": 18640,
    "Audit@@": 18308,
    "defl@@": 18106,
    "uptake": 16441,
    "rer": 4173,
    "Ol@@": 12653,
    "vested": 15267,
    "doing": 411,
    "ninety": 14836,
    "pack@@": 14507,
    "spilled": 10868,
    "Dutch": 9383,
    "fortunate": 11665,
    "submissions": 7200,
    "distortions": 7346,
    "communities": 4078,
    "comprehend": 16624,
    "Cy@@": 6842,
    "disputes": 3265,
    "realisation": 14358,
    "Danish": 11175,
    "you--": 15894,
    "lum@@": 10710,
    "release": 2040,
    "farms": 5839,
    "tool": 3699,
    "strate": 10861,
    "formul@@": 7603,
    "Standard": 10062,
    "Judge": 12453,
    "forget": 1755,
    "excluded": 2677,
    "dations": 15493,
    "Hon@@": 9955,
    "kidney": 7135,
    "/9@@": 4159,
    "bum@@": 7223,
    "subway": 13624,
    "outsi@@": 14842,
    "latest": 2407,
    "los": 5101,
    "Kong": 13518,
    "nis": 9991,
    "ad": 1851,
    "deteri@@": 19575,
    "cease": 6297,
    "East": 6926,
    "monkey": 8396,
    "di": 3882,
    "smooth": 4738,
    "volatility": 15028,
    "silly": 10108,
    "pare": 18727,
    "streng@@": 19522,
    "Media": 15047,
    "disease": 1554,
    "Get": 2270,
    "reconsider": 13915,
    "very@@": 18349,
    "reg@@": 3830,
    "org@@": 18057,
    "champion@@": 15008,
    "devoid": 16903,
    "asshole": 6278,
    "seven@@": 15339,
    "notaries": 15902,
    "frog": 17276,
    "ligence": 17599,
    "prosper@@": 18148,
    "integr@@": 17875,
    "tta": 9290,
    "ava": 17210,
    "&": 3580,
    "Tru@@": 7933,
    "antido@@": 15676,
    "shuddered": 13425,
    "MENTS": 9809,
    "throughout": 2209,
    "structural": 2325,
    "bast@@": 19346,
    "swiss": 12900,
    "chilly": 16986,
    "sprawled": 16988,
    "supervising": 11283,
    "Belgium": 6426,
    "satur@@": 11885,
    "collap@@": 17650,
    "sa@@": 1394,
    "Bal@@": 5711,
    "plenary": 13430,
    "po": 12218,
    "onal": 6088,
    "recognize": 5426,
    "upgrade": 11440,
    "arising": 2345,
    "client": 2804,
    "ish@@": 6130,
    "governmental": 7273,
    "Finance": 16029,
    "Dean": 13390,
    "defend@@": 19194,
    "concentrate": 6796,
    "muffled": 15706,
    "location": 2104,
    "sacrifice": 6377,
    "britain": 13724,
    "capital": 843,
    "disruption": 13947,
    "sufficiency": 13929,
    "internally": 16544,
    "mons": 16872,
    "bringing": 2770,
    "admissibility": 8035,
    "habitats": 11889,
    "rak@@": 16539,
    "ity": 1525,
    "sweater": 15675,
    "IM": 12270,
    "earned": 6660,
    "say": 192,
    "theore@@": 17180,
    "cigarette": 6579,
    "will@@": 11051,
    "mal": 9387,
    "costly": 11937,
    "challenges": 2813,
    "FC": 14257,
    "stopped": 1463,
    "paren@@": 10419,
    "composition": 4010,
    "valuation": 5092,
    "corpses": 9993,
    "campus": 14282,
    "operate": 2864,
    "precision": 8054,
    "geno@@": 9803,
    "Ma": 16971,
    "gastrointestinal": 12231,
    "food@@": 14831,
    "private": 755,
    "proposes": 4763,
    "emotions": 7155,
    "prescri@@": 8984,
    "pressure": 1423,
    "false": 4485,
    "ron@@": 4096,
    "fancy": 9622,
    "kled": 11486,
    "intergovernmental": 16445,
    "retain": 6594,
    "determination": 2973,
    "invested": 8817,
    "issance": 17961,
    ".europa.eu@@": 18862,
    "warri@@": 19422,
    "stration": 8843,
    "touch": 2087,
    "ords": 13459,
    "effort": 2648,
    "skin": 1708,
    "dissolved": 14453,
    "jail": 3754,
    "younger": 4609,
    "lantic": 19186,
    "clothes": 2474,
    "finally": 1224,
    "pool@@": 10564,
    "dial": 7587,
    "vitro": 8927,
    "rectang@@": 15690,
    "OR@@": 3396,
    "strikes": 15710,
    "frankly": 12092,
    "Statis@@": 13601,
    "policemen": 12139,
    ">": 4793,
    "t.@@": 13282,
    "reasonably": 5287,
    "lesbian": 16368,
    "subsidi@@": 18058,
    "ets": 6708,
    "loun@@": 18583,
    "house": 433,
    "older": 2118,
    "Sun@@": 13210,
    "Fr@@": 17439,
    "fixing": 5062,
    "reinforce": 8814,
    "she@@": 4765,
    "tag@@": 10106,
    "trousers": 9316,
    "nasty": 10139,
    "Eng@@": 17308,
    "wever": 19550,
    "PE": 14323,
    "queue": 17244,
    "Auth@@": 17891,
    "cheeses": 11983,
    "fluctuations": 10600,
    "Jeff": 16099,
    "spouse": 5960,
    "black@@": 4410,
    "irregul@@": 19169,
    "EEC": 1586,
    "acceler@@": 14259,
    "rumors": 10714,
    "sus": 9453,
    "hug": 11048,
    "mation": 16687,
    "raced": 15630,
    "intest@@": 17651,
    "engineer": 9491,
    "stocks": 3248,
    "opers": 16859,
    "amy": 7845,
    "Fre@@": 8343,
    "Agricul@@": 19477,
    "dropped": 3151,
    "stood": 1459,
    "penalty": 4551,
    "quote": 12706,
    "subordinate": 12268,
    "felt": 903,
    "itarian": 17898,
    "acet@@": 16619,
    "usual": 3169,
    "fragmentation": 12208,
    "manufac@@": 18715,
    "assa@@": 14916,
    "ressing": 16897,
    "ag@@": 1052,
    "oeuv@@": 19047,
    "DI": 13186,
    "adopted": 615,
    "agree": 1899,
    "s.": 5563,
    "approaches": 5368,
    "dino@@": 13494,
    "auto@@": 8389,
    "Conver@@": 11528,
    "hurt": 1450,
    "later@@": 18490,
    "contact": 1167,
    "sectoral": 4813,
    "babies": 10370,
    "analogue": 9461,
    "ti": 7767,
    "shooter": 11739,
    "considering": 3674,
    "borne": 2904,
    "Ryan@@": 19515,
    "ople": 18138,
    "tion/@@": 19065,
    "voters": 16189,
    "ry": 1587,
    "freedom": 1856,
    "International": 4289,
    "grat@@": 13078,
    "maintains": 7614,
    "ECR": 5188,
    "techniques": 4986,
    "tolerated": 15873,
    "lumin@@": 11796,
    "physically": 8045,
    "station": 1905,
    "chapel": 15229,
    "roughly": 11841,
    "chell": 15643,
    "hat@@": 8223,
    "subsystem": 10990,
    "excess": 5412,
    "overseas": 12619,
    "mode": 3426,
    "cinema": 14828,
    "upstream": 15189,
    "protein": 5419,
    "immediate": 3126,
    "minor": 3756,
    "adam": 11831,
    "occur": 2742,
    "efficient": 2357,
    "stake": 7387,
    "tz": 8416,
    "AD@@": 3324,
    "birthday": 3809,
    "deed": 16382,
    "filling": 5920,
    "ced": 4172,
    "(1)(@@": 6595,
    "ingly": 3698,
    "simpler": 9950,
    "accom@@": 18149,
    "important": 467,
    "kidnapping": 13713,
    "basic": 932,
    "characters": 5308,
    "agrees": 4787,
    "usti@@": 14388,
    "Same": 14964,
    "olly": 12263,
    "deta@@": 18234,
    "dwar@@": 16622,
    "RTD": 14711,
    "pens": 12818,
    "years'": 12981,
    "madman": 16832,
    "mexican": 16443,
    "ich@@": 10621,
    "vivo": 15320,
    "adap@@": 11427,
    "punched": 15057,
    "fuckin": 5164,
    "assign@@": 12920,
    "attempt": 3802,
    "baili@@": 17326,
    "basement": 6790,
    "parents": 1282,
    "var": 10648,
    "Fra@@": 17370,
    "inspir@@": 18097,
    "ri@@": 761,
    "trunk": 6840,
    "~": 5250,
    "west@@": 14430,
    "limit": 873,
    "dless": 13240,
    "carl": 14780,
    "enny": 8627,
    "ith": 7087,
    "tter": 6788,
    "symp@@": 17513,
    "opinion": 831,
    "Clu@@": 18337,
    "Use": 4736,
    "successor": 13863,
    "raith": 16765,
    "lad@@": 11523,
    "configuration": 4935,
    "ington": 8328,
    "allergic": 7686,
    "sight": 2759,
    "rubber": 7619,
    "i@@": 492,
    "low@@": 3907,
    "strengthened": 5589,
    "anas": 18747,
    "Christ@@": 14175,
    "thank@@": 13332,
    "traveling": 8137,
    "boxes": 6036,
    "Find": 10306,
    "bilateral": 4060,
    "gru@@": 8942,
    "iraq": 11108,
    "blocking": 9836,
    "dragons": 12681,
    "wholes@@": 15170,
    "eye@@": 9164,
    "bitr@@": 18345,
    "established": 494,
    "Its": 6488,
    "leniency": 11629,
    "gibility": 18487,
    "orientation": 8500,
    "leaflet": 7204,
    "prohibitions": 16180,
    "lur@@": 9054,
    "patience": 9471,
    "conve@@": 13081,
    "produce": 2268,
    "CHAPTER": 6702,
    "says": 904,
    "deduct": 9995,
    "islands": 6312,
    "states'": 13452,
    "possession": 5859,
    "[5": 16614,
    "p.m.": 6931,
    "inspections": 4391,
    "yard": 4299,
    "v": 1270,
    "anyone": 841,
    "salad": 11457,
    "negli@@": 18021,
    "cad@@": 14094,
    "gestu@@": 19482,
    "ainst": 19538,
    "Mari@@": 9988,
    "fine": 833,
    "tested": 3461,
    "farmers": 3399,
    "tee": 18194,
    "o@@": 332,
    "Kyle": 16193,
    "world": 315,
    "standard": 1116,
    "archi@@": 13755,
    "cancel@@": 17485,
    "frightened": 9574,
    "TAC": 13105,
    "swim@@": 17792,
    "warding": 16884,
    "Sm@@": 16275,
    "both": 310,
    "amon": 9607,
    "disturb": 12722,
    "annexes": 5577,
    "deaths": 6993,
    "ources": 16428,
    "conc@@": 13114,
    "dynamics": 16878,
    "shrie@@": 13775,
    "hurried": 9898,
    "cine": 15704,
    "So@@": 4475,
    "plausible": 11491,
    "econ@@": 17302,
    "colors": 6758,
    "anymore": 1648,
    "cared": 8603,
    "recon@@": 18962,
    "cart": 11135,
    "lemon": 13730,
    "piece": 1810,
    "builds": 16773,
    "negligence": 13393,
    "stress": 4831,
    "them": 98,
    "widow": 13861,
    "Rus@@": 12910,
    "intentions": 9804,
    "mining": 6138,
    "developed": 1546,
    "model": 1801,
    "crops": 6076,
    "tion@@": 2751,
    "mia": 9748,
    "cussions": 18797,
    "affects": 5723,
    "hs": 11052,
    "ickness": 19030,
    "maternal": 16803,
    "possible": 292,
    "Resi@@": 17084,
    "Accordingly": 5150,
    "atie": 13010,
    "k": 787,
    "/95": 10469,
    "processors": 12825,
    "pain": 1577,
    "unchanged": 7969,
    "observ@@": 9077,
    "inventory": 5835,
    "Whe@@": 17648,
    "prise": 18901,
    "await": 14851,
    "pent": 18981,
    "import@@": 18498,
    "ful": 2308,
    "competition/@@": 19172,
    "ourse": 19168,
    "illa": 8067,
    "spar@@": 5773,
    "titr@@": 13026,
    "joke": 4985,
    "IRE@@": 16370,
    "cream": 5078,
    "eches": 18484,
    "modes": 7183,
    "erythro@@": 13018,
    "hybri@@": 17427,
    "frequently": 5938,
    "Title": 6685,
    "detri@@": 19429,
    "anytime": 12053,
    "extends": 11621,
    "underlying": 3763,
    "extended": 2393,
    "cher": 4398,
    "July": 2599,
    "minimise": 8661,
    "reading": 2491,
    "fry": 17289,
    "judicature": 10278,
    "uh": 1203,
    "outs": 12510,
    "considerations": 3285,
    "peci@@": 19437,
    "adding": 6157,
    "Baby": 15648,
    "fatal": 7820,
    "Mul@@": 12143,
    "atories": 17466,
    "intentionally": 15420,
    "Instance": 4384,
    "overnight": 11911,
    "dian": 7886,
    "iled": 4733,
    "ate@@": 7286,
    "forestry": 7492,
    "euro": 1744,
    "optimal": 8985,
    "ge@@": 1372,
    "ming": 4257,
    "angri@@": 19117,
    "bran@@": 7816,
    "charm": 12373,
    "magazine": 7488,
    "every": 349,
    "remission": 16701,
    "slap": 13980,
    "haemorrhage": 15000,
    "vegetables": 6948,
    "Charter": 8086,
    "JRC": 14837,
    "miles": 1935,
    "accelerated": 11156,
    "/EEC": 8601,
    "TI": 13582,
    "provis@@": 17346,
    "Corpor@@": 12286,
    "States'": 9959,
    "marketplace": 12004,
    "rarely": 7042,
    "residue": 9719,
    "concentr@@": 18010,
    "defects": 9897,
    "ammation": 19413,
    "resa": 16364,
    "Star@@": 5255,
    "ra": 3818,
    "diet": 7263,
    "evacu@@": 12994,
    "mortality": 7629,
    "geant": 19569,
    "prudential": 11139,
    "TAR@@": 11102,
    "acher@@": 18811,
    "ago@@": 14511,
    "cles": 10739,
    "cup": 4113,
    "rehear@@": 8773,
    "External": 15566,
    "operatives": 17668,
    "abbre@@": 14854,
    "aper": 17613,
    "declaring": 12509,
    "justifies": 13885,
    "Norwegian": 11880,
    "laying": 3931,
    "Ste@@": 3744,
    "credi@@": 18909,
    "forec@@": 12249,
    "blue": 1834,
    "Uncle": 9338,
    "imal": 17322,
    "stol@@": 18601,
    "tose": 12244,
    "policy": 413,
    "arriving": 10964,
    "foremost": 15207,
    "echoed": 14251,
    "administer": 13427,
    "Requi@@": 11441,
    "feel@@": 16224,
    "tightly": 10581,
    "waste": 1188,
    "bron@@": 11952,
    "process": 636,
    "holding": 1391,
    "MA@@": 7646,
    "merit": 14477,
    "learnt": 14801,
    "channel": 5639,
    "operator": 1728,
    "mod@@": 7772,
    "succeeded": 6490,
    "eliminated": 8282,
    "lec@@": 5180,
    "stence": 18750,
    "legislat@@": 17861,
    "allen": 17452,
    "gating": 10965,
    "body@@": 7474,
    "ls": 1774,
    "luggage": 9011,
    "swear": 3462,
    "lenic": 19511,
    "ED@@": 7315,
    "length": 2636,
    "of@@": 1408,
    "drome": 18586,
    "lyrics": 15988,
    "consci@@": 17314,
    "knowle@@": 18217,
    "ge": 1528,
    "annex": 688,
    "ome@@": 6272,
    "HC@@": 7832,
    "secure": 3007,
    "nee": 17962,
    "gg@@": 7029,
    "stars": 3439,
    "Under@@": 8273,
    "creditor": 4777,
    "ESRB": 14193,
    "stabili@@": 12679,
    "anonymous": 10671,
    "pricing": 5601,
    "destroyed": 3214,
    "loser": 9005,
    "instinc@@": 17518,
    "desert": 5391,
    "modern": 4157,
    "audi@@": 7964,
    "lodipine": 16004,
    "lingu@@": 17790,
    "fundamental": 1927,
    "facilitates": 15966,
    "kings": 9814,
    "intelligent": 6683,
    "purple": 10715,
    "conting@@": 15570,
    "greater": 1323,
    "ek": 4560,
    "overall": 1212,
    "Sing@@": 17753,
    "tended": 16679,
    "rin@@": 5617,
    "impose": 3859,
    "Airlines": 14723,
    "poker": 13303,
    "han": 5182,
    "iel": 16718,
    "grandmother": 6846,
    "base": 1687,
    "School": 13084,
    "matory": 17442,
    "incompatible": 4451,
    "struc@@": 9901,
    "condition": 1415,
    "remaining": 2835,
    "Rai@@": 15568,
    "biting": 9891,
    "companies": 738,
    "uro@@": 11693,
    "ved": 4033,
    "E@@": 430,
    "sustained": 7161,
    "conformity": 2526,
    "twisted": 6483,
    "battles": 15180,
    "--@@": 11949,
    "DECISION": 9635,
    "Basic": 14041,
    "knelt": 12340,
    "immortal": 16905,
    "gle": 14751,
    "seless": 15984,
    "enter": 1303,
    "Fol@@": 16449,
    "conquer": 13766,
    "Oc@@": 15433,
    "purposes": 868,
    "R@@": 392,
    "NC@@": 9173,
    "lling": 10864,
    "Single": 8774,
    "stipulates": 14308,
    "taxable": 3695,
    "regime": 2781,
    "gown": 15336,
    "comparing": 8615,
    "ye@@": 5796,
    "bulk": 9973,
    "quick": 3380,
    "glas": 17249,
    "back": 138,
    "posed": 9136,
    "republic": 2142,
    "exploded": 12018,
    "ather": 7513,
    "approvals": 14285,
    "flowing": 10884,
    "modern@@": 9535,
    "hol@@": 2768,
    "tuc@@": 17408,
    "appropriate": 297,
    "examination": 1603,
    "hazards": 12751,
    "mo": 8809,
    "fit@@": 13770,
    "a@@": 489,
    "Matt": 15480,
    "three": 256,
    "arial": 12771,
    "RES@@": 9878,
    "equivalent": 1790,
    "accent": 12226,
    "specialist": 8650,
    "recognition": 2132,
    "roo@@": 8682,
    "lions": 12459,
    "Today": 7515,
    "JHA": 14923,
    "desperate": 6575,
    "Taliban": 15673,
    "inspection": 2032,
    "exter@@": 11792,
    "detailed": 1542,
    "un@@": 210,
    "camer@@": 16021,
    "masses": 14951,
    "ites": 4717,
    "someplace": 9089,
    "(3)(@@": 7114,
    "reproduction": 8533,
    "magazines": 11456,
    "weak@@": 7388,
    "kno@@": 5709,
    "presidential": 12766,
    "K": 2640,
    "winner": 8155,
    "types": 1231,
    "commerce": 9731,
    "Ministry": 6816,
    "tor@@": 1971,
    "zoo": 14633,
    "as@@": 768,
    "corruption": 5513,
    "solemn": 15144,
    "Entry": 14518,
    "interinstitutional": 15711,
    "soft": 3507,
    "pronounced": 9094,
    "tab": 7752,
    "mac@@": 4943,
    "seafarers": 16251,
    "extraterrestrial": 15283,
    "initiate": 5413,
    "foresee": 15372,
    "surrounding": 7353,
    "replacement": 4392,
    "zi@@": 4617,
    "CPC": 13151,
    "importantly": 10151,
    "videot@@": 14000,
    "twentieth": 15151,
    "strictly": 5632,
    "Hold": 8232,
    "naturally": 5961,
    "lowering": 10509,
    "joy@@": 16117,
    "tening": 16565,
    "confidenti@@": 18815,
    "manship": 15913,
    "romania": 8363,
    "regardless": 5005,
    "flo@@": 4502,
    "Sam@@": 6438,
    "EAN": 18680,
    "Roc@@": 8949,
    "rotten": 13365,
    "There@@": 18025,
    "schol@@": 14610,
    "tor(s": 16023,
    "training": 862,
    "catastrophe": 14704,
    "Sh@@": 5346,
    ",000": 1226,
    "soap": 11852,
    "Berlin": 13731,
    "ching": 3177,
    "descriptive": 13961,
    "seals": 14877,
    "cotton": 8185,
    "occas@@": 18988,
    "trapped": 7255,
    "pip@@": 19382,
    "tour": 6256,
    "gallery": 11409,
    "ardis@@": 18123,
    "think": 129,
    "highly": 2710,
    "address": 971,
    "ESC": 18292,
    "Thanks": 3479,
    "knife": 3430,
    "rich": 2685,
    "Show": 7612,
    "Po@@": 2778,
    "seats": 5009,
    "teaching": 6125,
    "dining": 10448,
    "ton@@": 3668,
    "mutatis": 9810,
    "geon": 12752,
    "travelling": 9123,
    "outer": 5135,
    "ak": 3166,
    "ami@@": 5155,
    "agre@@": 11538,
    "hears": 13121,
    "smashed": 13374,
    "autom@@": 9422,
    "Say": 8915,
    "anyway": 2176,
    "ogenicity": 15187,
    "nes": 7445,
    "hypoten@@": 18718,
    "migrant": 10206,
    "Their": 5072,
    "actress": 15766,
    "invites": 8944,
    "align@@": 16482,
    "causing": 6363,
    "slaughterhouse": 14994,
    "extinguished": 14152,
    "often": 1215,
    "pot": 6697,
    "labels": 8546,
    "remember@@": 16526,
    "expos@@": 19572,
    "october": 3032,
    "asses": 7953,
    "controllers": 15927,
    "gigantic": 15278,
    "unreasonable": 14937,
    "advanced": 3677,
    "Common": 4958,
    "were@@": 11185,
    "nearly": 3106,
    "constitutional": 6553,
    "Billy": 10310,
    "exhaus@@": 18115,
    "dirt": 6695,
    "strategi@@": 19206,
    "summar@@": 7642,
    "swallowed": 8860,
    "integral": 7419,
    "ryan": 8475,
    "boys": 1789,
    "organisation": 1276,
    "asi@@": 9911,
    "Me@@": 3134,
    "tibility": 18587,
    "decimal": 12629,
    "oes": 12991,
    "Shit": 11923,
    "ayer": 13457,
    "supported": 1864,
    "same": 200,
    "spa@@": 17360,
    "eter@@": 15771,
    "REC@@": 13214,
    "copying": 11570,
    "lump": 8837,
    "baked": 17063,
    "dessert": 13971,
    "Sim@@": 11443,
    "sil@@": 3687,
    "ven@@": 1773,
    "shotgun": 15637,
    "notice": 1297,
    "GN@@": 10443,
    "sort": 2038,
    "Others": 10256,
    "Shall": 15784,
    "equivalence": 8931,
    "developments": 2857,
    "orders": 1932,
    "protocol": 2618,
    "village": 3693,
    "pretty": 1088,
    "guarding": 16125,
    "K@@": 370,
    "sory": 17400,
    "vulner@@": 18208,
    "UCI@@": 19434,
    "budgetary": 2061,
    "breath": 3120,
    "Germany": 2787,
    "retrospec@@": 14145,
    "lifestyle": 13602,
    "cli@@": 4732,
    "arm@@": 5008,
    "luxembourg": 8591,
    "wis": 12808,
    "freezer": 16899,
    "questionn@@": 19325,
    "hammer": 9791,
    "swi@@": 17358,
    "materi@@": 7584,
    "centur@@": 18968,
    "dissip@@": 17008,
    "Project": 10417,
    "structured": 6943,
    "stepping": 9616,
    "Qu@@": 2820,
    "iii": 7066,
    "gments": 18479,
    "kol@@": 14750,
    "behaviour": 4134,
    "habit": 9285,
    "bowl": 7672,
    "incorpor@@": 18250,
    "Tem@@": 8779,
    "hank": 17061,
    "Similarly": 9816,
    "VER@@": 17165,
    "encry@@": 18346,
    "sector": 634,
    "pony": 17205,
    "council": 545,
    "A": 215,
    "logistics": 12963,
    "thought": 262,
    "alg@@": 17928,
    "roll@@": 15136,
    "acco": 18654,
    "hospit@@": 13123,
    "earthquake": 16404,
    "couples": 12454,
    "Euro@@": 6407,
    "bacon": 14356,
    "bler": 12408,
    "XI": 13220,
    "waving": 12650,
    "vill@@": 10501,
    "commercially": 13708,
    "kel@@": 7389,
    "Further": 6860,
    "watches": 13860,
    "slightest": 8958,
    "clever": 8422,
    "develops": 16562,
    "bage": 17774,
    "dissuasive": 14294,
    "design@@": 8851,
    "MB@@": 13516,
    "elet": 14747,
    "worries": 11483,
    "surve@@": 16848,
    "prosec@@": 19391,
    "remit": 16381,
    "draws": 7271,
    "mother@@": 15550,
    "Detective": 11976,
    "Seriously": 16542,
    "exceptionally": 10144,
    "Really": 6855,
    "gues": 7468,
    "alities": 5061,
    "acking": 10152,
    "regulators": 11555,
    "nerve": 8091,
    "entrusted": 5070,
    "feeling": 1559,
    "entrepreneurs": 10574,
    "squared": 16291,
    "unition": 19322,
    "kitchen": 3226,
    "(1)(b": 5866,
    "liaison": 10362,
    "Grou@@": 15844,
    "militi@@": 14681,
    "pace": 6493,
    "topics": 8399,
    "assur@@": 19209,
    "Except": 7826,
    "browser": 11530,
    "mystery": 6769,
    "veri@@": 8096,
    "conditioning": 10433,
    "crossed": 4992,
    "destruction": 4728,
    "engagement": 6681,
    "impartiality": 17051,
    "frost": 15081,
    "discharged": 14654,
    "pink": 6411,
    "ester": 15005,
    "tial": 7459,
    "shoots": 15793,
    "slope": 9302,
    "beneficiary": 2320,
    "replac@@": 17193,
    "fragile": 8431,
    "BA": 8734,
    "inde@@": 7349,
    "precinct": 17053,
    "exceeded": 5011,
    "shoulder": 2988,
    "non": 338,
    "thumb": 9706,
    "experiences": 6532,
    "inviting": 12163,
    "foot@@": 7888,
    "boy@@": 11288,
    "recovered": 4064,
    "Are": 1201,
    "kan": 14043,
    "forecast": 6977,
    "sacrifices": 12382,
    "could": 96,
    "charges": 1963,
    "parameters": 3503,
    "Charac@@": 16454,
    "unstable": 12732,
    "meal": 4235,
    "next": 469,
    "raining": 16222,
    "Europe@@": 18242,
    "furniture": 7923,
    "medicine": 2148,
    "f": 1027,
    "pha@@": 17195,
    "'": 54,
    "I": 22,
    "alfa": 11867,
    "increases": 3434,
    "principal": 3626,
    "bree@@": 17421,
    "respondent": 15876,
    "ame": 7069,
    "mem@@": 6496,
    "reiterates": 12517,
    "correcting": 15689,
    "augh@@": 10612,
    "sements": 8707,
    "budgets": 8479,
    "Ni@@": 5339,
    "weap@@": 18087,
    "august": 4949,
    "immy": 18679,
    "Pol@@": 6262,
    "infin@@": 13215,
    "Children": 13574,
    "multi@@": 3828,
    "set": 211,
    "reason": 727,
    "B.@@": 12115,
    "month": 1160,
    "vitamin": 14595,
    "Jud@@": 13099,
    "gent": 8301,
    "ip@@": 4232,
    "landing": 4360,
    "Organisation": 10365,
    "lesson": 6804,
    "R.": 16028,
    "mill": 10328,
    "ee": 8217,
    "y@@": 420,
    "establishments": 7105,
    "anniversary": 9658,
    "Committee": 1058,
    "rebut@@": 17259,
    "drank": 7050,
    "bla@@": 5161,
    "railing": 17136,
    "unique": 4174,
    "prom": 10643,
    "clearer": 14309,
    "custom": 6193,
    "axes": 14554,
    "accompanied": 2809,
    "restricted": 4133,
    "solely": 3447,
    "Ten@@": 14165,
    "ach@@": 2513,
    "reduces": 7323,
    "harmonisation": 4306,
    "appointed": 2981,
    "thum@@": 10953,
    "midnight": 7201,
    "glorious": 11303,
    "bullets": 7867,
    "er@@": 680,
    "Association": 6418,
    "defini@@": 19122,
    "fought": 4242,
    "second": 361,
    "eds": 5982,
    "ical": 2096,
    "distinc@@": 13483,
    "MC": 9433,
    "acqui@@": 9021,
    "tells": 3557,
    "tier": 7936,
    "Particip@@": 10959,
    "val@@": 2523,
    "gaine": 16726,
    "funny": 2934,
    "elf": 7963,
    "otic": 10522,
    "sheet": 2728,
    "orderly": 12310,
    "ine@@": 3178,
    "legen@@": 19310,
    "Euratom": 10305,
    "confidential": 3600,
    "harmonise": 11939,
    "newsp@@": 19088,
    "!": 77,
    "cooperation": 618,
    "watch": 1351,
    "tica": 13777,
    "slid": 6980,
    "pulled": 2254,
    "games": 3906,
    "Portuguese": 9025,
    "Islands": 16757,
    "sharing": 3352,
    "kick": 4670,
    "EX@@": 5310,
    "ograp@@": 12821,
    "sme@@": 14671,
    "sunday": 9221,
    "advertising": 4100,
    "statistical": 2962,
    "veterinary": 4279,
    "term": 548,
    "rescue": 3567,
    "equality": 4888,
    "wilderness": 15680,
    "stery": 18297,
    "vow": 16010,
    "lison": 13414,
    "delegation": 4879,
    "DGs": 14970,
    "supplied": 2892,
    "don@@": 3125,
    "votes": 6225,
    "fertilis@@": 13057,
    "func@@": 14716,
    "FOR@@": 9772,
    "influ@@": 8969,
    "tempor@@": 17991,
    "att@@": 4354,
    "knights": 13264,
    "kie": 3599,
    "officer": 1767,
    "eurosystem": 13697,
    "ements": 11094,
    "blanket": 9035,
    ".0@@": 18239,
    "Direct": 17260,
    "accredited": 13450,
    "gate": 2530,
    "interven@@": 7743,
    "nominal": 6223,
    "G@@": 350,
    "fears": 10046,
    "packaging": 3236,
    "Description": 11325,
    "_": 5543,
    "lookin": 7570,
    "tunnel": 5371,
    "harry": 4565,
    "denafil": 14466,
    "oto": 15104,
    "MIN@@": 13538,
    "unauthorised": 11614,
    "arrangements": 1516,
    "Bring": 12637,
    "pictures": 3933,
    "peaks": 15808,
    "dreamt": 15029,
    "chop": 16870,
    "committing": 14718,
    "gium": 19279,
    "worrying": 10506,
    "planned": 2068,
    "treated": 1364,
    "indic@@": 8998,
    "VIII": 6990,
    "merely": 2893,
    "mione": 12611,
    "quin@@": 14151,
    "expanded": 7171,
    "mike": 6504,
    "fal@@": 6413,
    "cock@@": 6886,
    "OLAF": 4671,
    "escort": 7391,
    "assessment": 478,
    "PAR@@": 7605,
    "embry@@": 13549,
    "formulation": 8836,
    "arab": 16827,
    "imple@@": 17386,
    "habitual": 11962,
    "/2001": 3315,
    "vodka": 15699,
    "housing": 4495,
    "Sign@@": 10798,
    "tionality": 9415,
    "MS@@": 10123,
    "provision": 671,
    "tly": 3593,
    "done": 465,
    "force": 533,
    "ttes": 18844,
    "introduces": 11123,
    "idiots": 11948,
    "basketball": 13447,
    "intensified": 15460,
    "throat": 3850,
    "ovisual": 19008,
    "nic@@": 4052,
    "Hz": 13405,
    "requesting": 5104,
    "rers": 6015,
    "ANCE": 12367,
    "remedies": 7381,
    "tally": 13409,
    "braz@@": 17926,
    "divor@@": 17407,
    "ult": 11602,
    "Several": 11017,
    "ble": 1887,
    "gr@@": 1934,
    "driven": 4336,
    "beard": 7311,
    "electromagnetic": 12659,
    "mushrooms": 15900,
    "raz@@": 12856,
    "Meas@@": 13254,
    "5@@": 112,
    "cake": 5901,
    "route": 3263,
    "amber": 14240,
    "honesty": 13983,
    "computerised": 13118,
    "aka": 14977,
    "Mer@@": 5105,
    "foren@@": 12082,
    "excre@@": 18368,
    "requests": 2216,
    "biggest": 4328,
    "projected": 7428,
    "intrin@@": 16545,
    "war": 1036,
    "ause": 14783,
    "hman": 15757,
    "delegations": 8735,
    "es/": 19359,
    "bur@@": 2644,
    "repaired": 13202,
    "depositary": 15806,
    "Shan@@": 10057,
    "serving": 5858,
    "elected": 6727,
    "afghanistan": 13037,
    "ra@@": 1083,
    "arious": 18132,
    "observe": 7097,
    "scrat@@": 14456,
    "acro@@": 14207,
    "Soci@@": 17924,
    "Tribunal": 8258,
    "mai@@": 9044,
    "telec@@": 17600,
    "tenegro": 11098,
    "amus@@": 17505,
    "extra@@": 14570,
    "ader": 12262,
    "jamin": 14210,
    "collectively": 14965,
    "incorporate": 12638,
    "anaphy@@": 16195,
    "eyeballs": 9385,
    "good": 181,
    "woke": 5781,
    "sells": 11892,
    "Enterprise": 12494,
    "supervisory": 2554,
    "expelled": 12592,
    "Reg@@": 8262,
    "fain@@": 10395,
    "SR@@": 10440,
    "sad@@": 13880,
    "brother": 1161,
    "counterfe@@": 18573,
    "wel": 11511,
    "defines": 6116,
    "Ell@@": 14204,
    "york": 4044,
    "AT": 7578,
    "alleging": 4007,
    "change@@": 8550,
    "win": 2003,
    "reports": 1157,
    "Admini@@": 17966,
    "orge": 17295,
    "rene": 10324,
    "agers": 10659,
    "larg@@": 18593,
    "promotes": 10761,
    "switch": 4581,
    "Being": 14871,
    "span@@": 17320,
    "ia": 1537,
    "demic": 17315,
    "bin": 10263,
    "dies@@": 18673,
    "politicians": 10514,
    "sery": 19458,
    "round": 2441,
    "goddess": 14359,
    "exploitation": 7392,
    "pressing": 6306,
    "stries": 13588,
    "hu@@": 2533,
    "shoul@@": 17689,
    "neare@@": 19580,
    "sustainable": 1646,
    "hydrocarbons": 11707,
    "Protec@@": 14946,
    "Dur@@": 9997,
    "Stop": 5238,
    "privileged": 13773,
    "michael": 5615,
    "highligh@@": 17567,
    "tech": 8807,
    "Mil@@": 6694,
    "risen": 13591,
    "Pa@@": 8333,
    "georgia": 14816,
    "yach@@": 15524,
    "ECE": 12029,
    "thanked": 16785,
    "ork": 18100,
    "Elena": 17102,
    "lation": 7481,
    "Among": 15615,
    "ness": 2014,
    "ineffective": 12859,
    "youn@@": 19176,
    "sunk": 16446,
    "respec@@": 10815,
    "ades": 7662,
    "pleas": 4653,
    "crad@@": 16842,
    "ky": 2150,
    "courtro@@": 17058,
    "iv": 12177,
    "grin@@": 17104,
    "hierarchy": 12662,
    "completed": 1958,
    "miracle": 7924,
    "businesses": 2492,
    "blies": 19388,
    "mas@@": 6670,
    "etings": 16020,
    "chron@@": 11049,
    "sorcerer": 17255,
    "tty": 9524,
    "larry": 13832,
    "Ron": 12497,
    "fireworks": 16493,
    "distributors": 9362,
    "irregularities": 5907,
    "than": 120,
    "relocation": 16126,
    "help@@": 18486,
    "commanding": 16098,
    "spra@@": 8300,
    "gloom": 14202,
    "cruc@@": 19405,
    "bu@@": 1649,
    "cooking": 7077,
    "sail@@": 17950,
    "locate": 6475,
    "abroad": 4574,
    "Ren@@": 7514,
    "Service": 4926,
    "spi@@": 5703,
    "FF": 10288,
    "complex@@": 18257,
    "belonged": 7339,
    "lls": 14098,
    "Si@@": 4819,
    "tapes": 12942,
    "throp": 16752,
    "intact": 10905,
    "feren@@": 14330,
    "obedi@@": 13383,
    "ser@@": 3808,
    "gaining": 14555,
    "picking": 7081,
    "pH": 13339,
    "ann@@": 4277,
    "sten@@": 9108,
    "stipul@@": 14516,
    "itations": 18915,
    "\\@@": 4713,
    "sharp": 3889,
    "experiment": 8569,
    "NE": 13273,
    "VIS": 12114,
    "ao": 12567,
    "Agr@@": 18752,
    "loo@@": 5091,
    "airspace": 12524,
    "swif@@": 18980,
    "corrections": 6188,
    "fting": 13269,
    "Electr@@": 12702,
    "sorry@@": 16704,
    "mson": 16612,
    "elimination": 6498,
    "revo@@": 18493,
    "fu@@": 3581,
    "designation": 4151,
    "AN@@": 2760,
    "andra": 14275,
    "relies": 7017,
    "criticised": 15233,
    "Manufac@@": 11518,
    "://@@": 18781,
    "se@@": 735,
    "ines": 2672,
    "theory": 4505,
    "ula": 10161,
    "creatures": 5393,
    "adder": 16472,
    "utory": 18569,
    "fluor@@": 16716,
    "divi@@": 17989,
    "average": 1277,
    "seri@@": 17627,
    "III.@@": 16603,
    "indications": 4828,
    "thirsty": 14834,
    "photo": 7259,
    "tuary": 17942,
    "aul": 15607,
    "reservation": 6843,
    ")(a": 13068,
    "settlement": 2826,
    "imprisoned": 15435,
    "ne@@": 1063,
    "With": 1456,
    "installed": 3920,
    "columns": 7965,
    "COM": 14069,
    "conver@@": 5582,
    "warning": 3137,
    "IDS": 19073,
    "kes@@": 8602,
    "sl@@": 2475,
    "know@@": 9238,
    "scope": 878,
    "oles@@": 18864,
    "Mechan@@": 16294,
    "wrist": 8653,
    "Mean@@": 18294,
    "soo@@": 12586,
    "icket": 16508,
    "lateral": 14273,
    "flames": 7889,
    "tro@@": 2034,
    "Jo@@": 3320,
    "cellar": 13380,
    "ambient": 15445,
    "AIFM": 12433,
    "add": 2253,
    "knocking": 13744,
    "sus@@": 13062,
    "agging": 17220,
    "disturbances": 8635,
    "infiltr@@": 13027,
    "dialogue": 2903,
    "Lu@@": 6528,
    "ynam@@": 18187,
    "grand@@": 5249,
    "mers": 9039,
    "broadca@@": 13352,
    "sho@@": 3224,
    "acity": 13728,
    "nest": 9115,
    "oring": 6432,
    "tels": 14256,
    "oversight": 7942,
    "Constitution": 10754,
    "ore@@": 7905,
    "cottage": 14618,
    "outlook": 11450,
    "exhi@@": 8540,
    "com": 7316,
    "enclature": 17829,
    "supplies": 3523,
    "sac@@": 15370,
    "clearly": 1292,
    "appellants": 8203,
    "hungarian": 13933,
    "ven": 4656,
    "eship": 12202,
    "Marty": 16673,
    "speeds": 14876,
    "vial": 4792,
    "enjo@@": 17807,
    "belon@@": 19462,
    "CM@@": 8901,
    "criteria": 837,
    "lugg@@": 18585,
    "dating": 4332,
    "z@@": 617,
    "lamp": 5274,
    "beforehand": 13943,
    "recei@@": 11587,
    "Agricultural": 13937,
    "centuries": 5640,
    "home@@": 9337,
    "september": 3243,
    "lier": 9669,
    "replaces": 15012,
    "covering": 3012,
    "folk": 10300,
    "w@@": 703,
    "sorce@@": 16310,
    "clean": 1946,
    "tri@@": 1769,
    "wy@@": 10043,
    "appoint": 5917,
    "torates": 12591,
    "cushi@@": 12641,
    "Aff@@": 19196,
    "Marine": 16560,
    "Hap@@": 19231,
    "resi@@": 5521,
    "Ru@@": 6162,
    "involvement": 3797,
    "acts": 1202,
    "kidneys": 14601,
    "edition": 12324,
    "Free": 11055,
    "unk": 12007,
    "Grow@@": 19423,
    "deflec@@": 14076,
    "survived": 5805,
    "muse@@": 17974,
    "majeure": 14670,
    "mail@@": 15619,
    "combining": 12063,
    "Ag@@": 18105,
    "cooperate": 3758,
    "analys@@": 16964,
    "valued": 8857,
    "dee@@": 11327,
    "cut@@": 14820,
    "ishment": 9726,
    "annulment": 2699,
    "player": 4822,
    "rug": 12985,
    "thankful": 9800,
    "dose": 871,
    "environmentally": 10327,
    "ropes": 10882,
    "delicate": 8683,
    "Federation": 12617,
    "kish": 18813,
    "lease": 6625,
    "drel": 19499,
    "facto": 11050,
    "alarm": 5365,
    "vie@@": 11104,
    "nam": 17545,
    "Ba@@": 9246,
    "European": 239,
    "passages": 15596,
    "courage": 5510,
    "challenge": 3038,
    "drained": 16632,
    "cope": 6266,
    "eful": 12076,
    "assumption": 5819,
    "probably": 848,
    "pee@@": 15407,
    "wound": 4705,
    "appropriateness": 9903,
    "grants": 3997,
    "offspring": 15058,
    "weekly": 8204,
    "TC": 11003,
    "Mill@@": 12275,
    "improved": 3119,
    "millions": 4775,
    "aemia": 12516,
    "dead@@": 16490,
    "ured": 12120,
    "carcin@@": 9671,
    "margins": 7564,
    "delivering": 10807,
    "unpleasant": 11891,
    "(1": 571,
    "opport@@": 18030,
    "combating": 5821,
    "position": 589,
    "eck": 10927,
    "compon@@": 18951,
    "defending": 9738,
    "ha@@": 945,
    "earl": 12529,
    "Earth": 3642,
    "sty@@": 11151,
    "accidentally": 8350,
    "environments": 14332,
    "built": 2329,
    "contracted": 11357,
    "exchange": 1106,
    "harmonising": 14493,
    "issu@@": 11466,
    "appropriat@@": 18794,
    "pipe": 5951,
    "jurisdictions": 15457,
    "aggres@@": 12571,
    "pr@@": 2525,
    "NA": 15203,
    "bell": 5818,
    "treaties": 7408,
    "envel@@": 13778,
    "retirement": 5364,
    "sem@@": 15750,
    "deg@@": 17717,
    "prehend": 18763,
    "super@@": 3052,
    "stared": 3855,
    "conserv@@": 17806,
    "trol": 18985,
    "console": 10706,
    "uous": 17448,
    "hart": 16994,
    "sie": 8224,
    "going": 184,
    "imperative": 14221,
    "vimes": 16658,
    "bovine": 7431,
    "fatty": 12267,
    "cu@@": 2026,
    "worse": 2180,
    "sten": 11844,
    "sper@@": 17640,
    "recovery": 1662,
    "dental": 7664,
    "Jack": 3418,
    "squi@@": 13795,
    "domic@@": 19195,
    "relate": 3176,
    "pir@@": 8384,
    "smell": 3234,
    "ped": 2409,
    "deadly": 8221,
    "trium@@": 16316,
    "whispering": 14051,
    "actual": 1576,
    "princip@@": 18393,
    "locals": 16821,
    "revie@@": 17949,
    "Meth@@": 17620,
    "rolls": 11423,
    "lims": 16922,
    "trace": 6743,
    "GPS": 14582,
    "signation": 18839,
    "respect": 485,
    "Russian": 5610,
    "MES": 14276,
    "tightened": 13546,
    "Or@@": 4443,
    "crown": 8319,
    "pulp": 16586,
    "hosp@@": 14402,
    "grab": 5405,
    "portrait": 16645,
    "tene@@": 19019,
    "war@@": 2071,
    "illustrated": 17117,
    "ting": 667,
    "prolonged": 6825,
    "spent": 1791,
    "frontier": 11164,
    "capacities": 6033,
    "atives": 15165,
    "sha@@": 1966,
    "Or": 2280,
    "vail": 19317,
    "conveni@@": 18212,
    "Bar@@": 3087,
    "circ@@": 19051,
    "practitioners": 15400,
    "starch": 13690,
    "mob": 13699,
    "expressing": 12588,
    "SF": 9075,
    "symptoms": 3043,
    "pit@@": 5435,
    "train": 2054,
    "bes@@": 13363,
    "remark@@": 17871,
    "champion": 9792,
    "ults": 13922,
    "ticals": 15389,
    "unused": 8631,
    "methodology": 4340,
    "effected": 8898,
    "parties'": 12207,
    "rest": 860,
    "industri@@": 14163,
    "pic@@": 3006,
    "vacant": 15479,
    "betrayed": 8999,
    "ato@@": 9755,
    "prog@@": 17337,
    "Pay@@": 14373,
    "registering": 16458,
    "ATM": 16940,
    "along@@": 19433,
    "Hague": 16334,
    "goals": 6236,
    "ECSC": 12426,
    "concer@@": 11372,
    "excipi@@": 18266,
    "gie": 4866,
    "Hal@@": 8443,
    "Officer": 8535,
    "destinations": 12205,
    "generated": 5170,
    "TV@@": 17662,
    "reverse": 7452,
    "emperor": 7650,
    "cocktail": 16598,
    "dummy": 14985,
    "replic@@": 7932,
    "DP": 8108,
    "ang@@": 4569,
    "committees": 6012,
    "crou@@": 17429,
    "...": 34,
    "bucks": 6175,
    "expedition": 12327,
    "competitors": 3926,
    "ists": 4703,
    "methyl": 15403,
    "desperately": 8755,
    "ilities": 19164,
    "amed": 7371,
    "gered": 18480,
    "aimed": 1563,
    "oved": 19146,
    "importation": 6624,
    "forest": 2624,
    "launched": 4361,
    "acquain@@": 17537,
    "telev@@": 18764,
    "diplomatic": 7934,
    "ored": 16781,
    "neys": 9420,
    "coma": 9194,
    "stable": 3389,
    "dutch": 10799,
    "bridges": 16721,
    "sives": 18178,
    "qualitative": 8510,
    "site": 1502,
    "vengeance": 13785,
    "unemployed": 9984,
    "dencies": 15388,
    "doubled": 14735,
    "planting": 10762,
    "Hi@@": 12313,
    "ghten": 8388,
    "chances": 7679,
    "sulph@@": 9742,
    "dece@@": 7420,
    "conservation": 5035,
    "Michael": 5925,
    "bey@@": 15043,
    "faith": 3518,
    "capsul@@": 18822,
    "colleague": 10399,
    "korea": 11096,
    "squeeze": 10409,
    "commissi@@": 13088,
    "contracep@@": 16301,
    "protect": 1259,
    "ola": 8825,
    "tomb": 13120,
    "treas@@": 15428,
    "ura": 4878,
    "Scho@@": 18359,
    "normal": 933,
    "chrome": 14631,
    "heat": 2716,
    "offsetting": 15957,
    "revise": 12631,
    "secre@@": 7581,
    "tune": 12156,
    "recall": 6431,
    "reluctant": 14462,
    "tortured": 14535,
    "something": 189,
    "sandwiches": 13458,
    "puzzle": 13302,
    "clearing": 6834,
    "imposed": 1787,
    "mp": 18449,
    "esty": 19370,
    "contested": 925,
    "autonom@@": 18317,
    "ESR@@": 18875,
    "anno@@": 10734,
    "manufactured": 6620,
    "attitude": 8009,
    "members": 814,
    "reb@@": 9787,
    "connection": 1235,
    "ography": 14338,
    "leep": 17775,
    "spells": 13331,
    "liter@@": 9233,
    "mering": 13717,
    "OK": 2394,
    "complexity": 6997,
    "conci@@": 18211,
    "directed": 5458,
    "embo@@": 13128,
    "analyses": 5144,
    "pening": 8563,
    "guns": 4337,
    "ho@@": 1069,
    "factor": 2511,
    "hairy": 14947,
    "manufactu@@": 18902,
    "cus@@": 12038,
    "entrance": 5260,
    "funeral": 6277,
    "PRC": 4416,
    "hur@@": 6763,
    "numbers": 2151,
    "demanded": 7228,
    "british": 7275,
    "nearest": 6412,
    "kicking": 12397,
    "AF": 16749,
    "compartment": 8465,
    "affection": 11297,
    "irregular": 8245,
    "commensur@@": 19330,
    "stain@@": 9873,
    "kender": 16745,
    "Hol@@": 4380,
    "den": 3005,
    "Ray@@": 14702,
    "Other": 2717,
    "nic": 14860,
    "tribes": 17065,
    "Middle": 12876,
    "Lim@@": 9659,
    "sn@@": 4401,
    "manure": 14809,
    "adopting": 4447,
    "tioner": 11073,
    "sels": 18351,
    "commanded": 14927,
    "vey": 7386,
    "eternal": 9266,
    "dly": 2602,
    "slower": 13488,
    "antha": 16605,
    "permanent": 2356,
    "care@@": 12473,
    "David": 6080,
    "following": 286,
    "wolves": 8617,
    "gambling": 8981,
    "emotion": 9169,
    "shrugged": 9409,
    "zumab": 16783,
    "Mand@@": 15817,
    "disagreement": 14481,
    "oul@@": 8787,
    "defense": 4708,
    "collapsed": 9291,
    "hardly": 4718,
    "jewels": 16338,
    "</s>": 3,
    "florida": 16627,
    "families": 3829,
    "onwards": 11042,
    "Fur@@": 18047,
    "pod": 16901,
    "attenu@@": 16559,
    "accomplish": 17284,
    "salary": 6480,
    "egg": 6484,
    "cameras": 6283,
    "Education": 15815,
    "CZK": 12107,
    "comman@@": 18102,
    "dam": 11944,
    "mathematics": 15085,
    "Fil@@": 8562,
    "endorsed": 10983,
    "enni@@": 17744,
    "ellas": 19060,
    "dies": 3939,
    "air": 550,
    "exactly": 1221,
    "List": 9397,
    "outturn": 10006,
    "irrespective": 4702,
    "warming": 9300,
    "ranging": 8212,
    "sy": 3852,
    "twi@@": 7694,
    "nails": 8410,
    "rocks": 6362,
    "glowed": 10760,
    "shouting": 9696,
    "specifications": 3491,
    "workshops": 11747,
    "hold": 1023,
    "ares": 13350,
    "rite": 14853,
    "Gra@@": 6668,
    "Sarah": 10257,
    "rate": 654,
    "Austria": 6932,
    "deliveries": 12140,
    "ulations": 11026,
    "classi@@": 8975,
    "paraly@@": 12168,
    "specific@@": 12094,
    "ECB": 2364,
    "ors": 1806,
    "eller": 7116,
    "social": 483,
    "thoughtfully": 16030,
    "plants": 2395,
    "lean@@": 17890,
    "aspec@@": 19363,
    "noticed": 3483,
    "receivables": 13897,
    "spoon": 16962,
    "tribunal": 4469,
    "doses": 3501,
    "Budget": 11986,
    "magne@@": 10773,
    "affordable": 14167,
    "her@@": 2004,
    "shelves": 14945,
    "customers": 2124,
    "Ran@@": 12951,
    "roommate": 14419,
    "assignment": 6923,
    "res": 1628,
    "ave": 10531,
    "resource": 3636,
    "eni@@": 10930,
    "shaking": 6598,
    "absurd": 16652,
    "cheek": 5380,
    "domiciled": 12423,
    "clear": 569,
    "damages": 4462,
    "deprived": 8473,
    "share@@": 14895,
    "circumstances": 811,
    "roaming": 9441,
    "autonomous": 8032,
    "App@@": 9384,
    "De@@": 1524,
    "island": 2875,
    "Sto@@": 10220,
    "bucket": 12903,
    "paediatric": 6815,
    "Pak@@": 18410,
    "hostile": 10717,
    "petition": 11759,
    "particle": 13295,
    "declare": 5833,
    "ts'": 6476,
    "perio@@": 19453,
    "bank@@": 11569,
    "quan@@": 18618,
    "traders": 6792,
    "ors'": 9103,
    "compiled": 13410,
    "Lin@@": 6070,
    "publis@@": 8806,
    "gic": 11212,
    "se": 1657,
    "complains": 14032,
    "annexed": 7210,
    "steep": 13745,
    "dom@@": 5372,
    "ech": 11495,
    "tw@@": 8448,
    "specul@@": 15381,
    "newcom@@": 12227,
    "avoided": 5985,
    "fork": 14680,
    "ten@@": 1921,
    "and@@": 1907,
    "vigorously": 16267,
    "dor": 9666,
    "stumbled": 8694,
    "invali@@": 12949,
    "aded": 8794,
    "ERIC": 16809,
    "murmu@@": 17732,
    "sin@@": 3820,
    "measur@@": 19025,
    "abruptly": 10718,
    "neutral": 8139,
    "itive": 14706,
    "lou@@": 10534,
    "ado@@": 10449,
    "epidemi@@": 18600,
    "waterway": 17164,
    "only": 107,
    "stretch": 10133,
    "optional": 7059,
    "marks": 2503,
    "hunt": 6165,
    "st@@": 748,
    "Sho@@": 10118,
    "calend@@": 18394,
    "High@@": 9631,
    "william": 10178,
    "just@@": 10359,
    "Cohesion": 7982,
    "book@@": 7266,
    "versions": 6590,
    "belly": 6956,
    "accustomed": 8925,
    "redundan@@": 17748,
    "level": 263,
    "xili@@": 19178,
    "calculation": 2099,
    "spain": 4784,
    "conqu@@": 15447,
    "manager": 3152,
    "initially": 6150,
    "restoring": 13353,
    "proceedings": 450,
    "consi@@": 18632,
    "rhy@@": 17540,
    "tooth": 9548,
    "tiated": 18206,
    "way@@": 12402,
    "tality": 17644,
    "talks": 6499,
    "nomenclature": 10956,
    "haem@@": 12680,
    "monopo@@": 17858,
    "wild@@": 15354,
    "sa": 4533,
    "tili@@": 17489,
    "bunch": 4170,
    "anom@@": 12708,
    "coo@@": 13837,
    "derogation": 3110,
    "globin": 18708,
    "brass": 14776,
    "executing": 9178,
    "focus@@": 18252,
    "gar@@": 2175,
    "blonde": 11390,
    "educ@@": 15606,
    "prevented": 4552,
    "providing": 1379,
    "twelve": 6525,
    "tival": 18642,
    "rat": 5240,
    "tionist": 16805,
    "lan@@": 2619,
    "securi@@": 18996,
    "amend@@": 19144,
    "apply": 398,
    "upheld": 9410,
    "distort": 8311,
    "trading": 3080,
    "haemat@@": 14982,
    "bos@@": 7460,
    "GM@@": 14255,
    "occupational": 7585,
    "released": 3417,
    "creature": 4142,
    "constituted": 7751,
    "Ms.": 10311,
    "societal": 9968,
    "sunset": 11624,
    "equi@@": 10156,
    "exclu@@": 10743,
    "Viet@@": 18475,
    "implic@@": 8368,
    "deser@@": 13416,
    "collective": 3345,
    "troubled": 9896,
    "pati@@": 11582,
    "compatible": 2659,
    "judic@@": 11763,
    "hnson": 19560,
    "morning": 838,
    "viewers": 15830,
    "MET": 8107,
    "hapl@@": 16609,
    "aron": 12898,
    "takes": 1049,
    "cels": 19058,
    "legality": 5642,
    "survey": 5042,
    "treating": 5948,
    "Struc@@": 18461,
    "aculture": 19013,
    "teles@@": 14444,
    "isms": 16103,
    "gasped": 13928,
    "trying": 552,
    "tobacco": 5173,
    "ground": 846,
    "smo@@": 5472,
    "enforceable": 8170,
    "theatre": 9556,
    "outsour@@": 12988,
    "concentration": 2213,
    "cular": 16169,
    "missile": 7717,
    "blo@@": 7327,
    "ply": 18008,
    "orn": 7436,
    "discovery": 7185,
    "nurses": 11653,
    "bee@@": 11137,
    "rehabil@@": 18228,
    "United": 2183,
    "tiger": 12843,
    "describing": 10397,
    "week": 922,
    "intra": 4988,
    "disasters": 8867,
    "Company": 9424,
    "na": 116,
    "fabulous": 8259,
    "distributed": 5578,
    "ature": 10011,
    "require": 1105,
    "ishable": 11745,
    "mild": 6530,
    "Dam@@": 11293,
    "counter@@": 4203,
    "ini@@": 5375,
    "updated": 3546,
    "lements": 18015,
    "mutual": 2579,
    "perspec@@": 17491,
    "tenant": 17643,
    "era": 5998,
    "ocul@@": 17094,
    "tum@@": 7693,
    "electron@@": 19004,
    "duction": 8695,
    "Take": 3374,
    "CIL": 19125,
    "fighting": 2296,
    "antas@@": 18543,
    "ring@@": 8831,
    "clas@@": 16595,
    "artists": 11533,
    "quest": 10813,
    "favi@@": 19411,
    "published": 1633,
    "lame": 15584,
    "contents": 3952,
    "examine": 2174,
    "able": 288,
    "disrup@@": 12802,
    "Regions": 10912,
    "quantum": 16035,
    "administrations": 6678,
    "mergers": 16533,
    "soda": 13232,
    "page": 1809,
    "alive": 1612,
    "minister": 4156,
    "esday": 17380,
    "nodded": 3757,
    "Wi@@": 10061,
    "momen@@": 10911,
    "removes": 17139,
    "longitudinal": 15334,
    "Op@@": 9555,
    "other": 86,
    "lev@@": 10315,
    "heels": 10690,
    "countryside": 11430,
    "search": 2102,
    "largely": 5528,
    "available": 368,
    "let": 224,
    "swee@@": 5625,
    "deeply": 6836,
    "Grant": 15098,
    "divorce": 2669,
    ";": 122,
    "wounded": 6079,
    "incredible": 7472,
    "please": 638,
    "cere@@": 8256,
    "I'@@": 15210,
    "darker": 16342,
    "lows": 8374,
    "migh@@": 18580,
    "person@@": 5468,
    "then": 155,
    "receipts": 14612,
    "misunderstanding": 15945,
    "James": 7229,
    "back@@": 4641,
    "centre": 2551,
    "apples": 13955,
    "ro@@": 592,
    "evaluations": 6833,
    "appears": 1813,
    "presentation": 4017,
    "par@@": 1240,
    "deriving": 15322,
    "Soon": 13495,
    "competi@@": 17630,
    "rison": 7852,
    "secon@@": 19035,
    "capit@@": 15072,
    "survi@@": 17739,
    "consen@@": 17397,
    "result": 524,
    "beans": 9253,
    "Bur@@": 4923,
    "tiz@@": 14549,
    "authori@@": 17361,
    "dependent": 3612,
    "cass": 15474,
    "pre@@": 941,
    "derness": 18191,
    "esus": 19156,
    "col@@": 2479,
    "combus@@": 18291,
    "deliberate": 13692,
    "youngest": 15659,
    "tenderer": 9206,
    "m@@": 580,
    "tennis": 12612,
    "defeated": 10188,
    "ises": 5655,
    "decentralised": 12112,
    "garion": 12836,
    "Mis@@": 10931,
    "ING": 3782,
    "inevitably": 12420,
    "lucky": 2772,
    "cheating": 11122,
    "ele": 17200,
    "Very": 5769,
    "seaf@@": 17699,
    "Tomorrow": 12989,
    "insofar": 10925,
    "COUN@@": 18086,
    "indicate": 2062,
    "dog": 1861,
    "dispatch": 9260,
    "qualifying": 10515,
    "joking": 8804,
    "appell@@": 18113,
    "Dev@@": 11279,
    "brea@@": 11773,
    "brick": 10500,
    "engine": 2310,
    "dealt": 5566,
    "Chic@@": 18032,
    "spider": 10876,
    "vari@@": 5100,
    "territory": 1177,
    "rors": 17646,
    "threat": 3174,
    "rena": 12106,
    "cataly@@": 10944,
    "RS@@": 13686,
    "ail": 4680,
    "flask": 11893,
    "surpr@@": 19574,
    "pirate": 13950,
    "thinkin": 11874,
    "pills": 7256,
    "indispens@@": 19243,
    "howard": 14621,
    "clinical": 1750,
    "february": 3893,
    "curse": 7630,
    "accredit@@": 18746,
    "After": 1796,
    "skirts": 17212,
    "ni@@": 1691,
    "sorted": 14440,
    "utsche": 13924,
    "grade": 3716,
    "interpret": 8899,
    "Stor@@": 16328,
    "chambers": 8485,
    "Those": 2670,
    "Deleg@@": 11111,
    "leap@@": 17054,
    "azz@@": 17980,
    "notebook": 14995,
    "airport": 2289,
    "shado@@": 17888,
    "sour": 15192,
    "west": 2496,
    "intake": 9885,
    "It@@": 14306,
    "incremental": 16941,
    "represented": 3095,
    "metallic": 12318,
    "handed": 4320,
    "purely": 5580,
    "Ref@@": 15717,
    "ritonavir": 11493,
    "lisbon": 6652,
    "prepar@@": 19175,
    "sexual": 3469,
    "Absol@@": 16907,
    "acceptable": 4254,
    "sadd@@": 13315,
    ";@@": 5234,
    "ran@@": 2634,
    "promises": 9908,
    "cher@@": 7227,
    "Yu@@": 11377,
    "priests": 12300,
    "ior": 11184,
    "gent@@": 17546,
    "engaged": 3914,
    "remarks": 5895,
    "fewer": 8487,
    "thereof": 1144,
    "poorly": 14383,
    "Claire": 16420,
    "hastily": 16725,
    "when": 88,
    "ix": 15919,
    "smiling": 6511,
    "community": 358,
    "suitability": 14105,
    "ruling": 2485,
    "Source": 17108,
    "lawful": 11941,
    "neglec@@": 17343,
    "dgement": 18385,
    "su@@": 1786,
    "provisional": 2413,
    "stepped": 3587,
    "}": 4948,
    "hit": 1387,
    "nish": 17363,
    "exclude": 4544,
    "injections": 9190,
    "Tw@@": 17751,
    "metric": 10243,
    "stringent": 8458,
    "assumes": 13653,
    "proxim@@": 17673,
    "original": 1412,
    "seem": 1805,
    "best": 466,
    "jurisdic@@": 18221,
    "asha@@": 18829,
    "/96": 8349,
    "record": 1665,
    "problems": 1046,
    "grow@@": 7526,
    "yog@@": 15627,
    "foreseen": 6234,
    "gus": 8174,
    "affor@@": 17931,
    "direction": 2484,
    "je@@": 3267,
    "Ter@@": 5825,
    "concerns": 1532,
    "BC": 8383,
    "extension": 2791,
    "dilution": 9768,
    "mis@@": 1434,
    "roy@@": 9733,
    "purse": 7637,
    "orgia": 19250,
    "recy@@": 17586,
    "Peri@@": 17288,
    "such": 124,
    "Indu@@": 12431,
    "revision": 5162,
    "Saint": 14270,
    "ku@@": 11546,
    "ea@@": 14941,
    "abouts": 19183,
    "may@@": 7028,
    "slip": 8554,
    "income": 1602,
    "trage@@": 18687,
    "heights": 14935,
    "strange": 1872,
    "info": 17172,
    "watch@@": 11926,
    "prob@@": 6053,
    "inflammation": 11585,
    "VA": 13874,
    "death": 821,
    "placing": 4371,
    "pping": 3870,
    "downward": 12759,
    "....@@": 18424,
    "filtr@@": 17352,
    "civil": 992,
    "kor@@": 17204,
    "Spr@@": 13071,
    "already": 330,
    "rational": 8226,
    "jur@@": 11035,
    "senses": 10427,
    "meetings": 2224,
    "spo@@": 4686,
    "pack": 3377,
    "each": 221,
    "utions": 18469,
    "mechanical": 6167,
    "Tony": 10483,
    "metformin": 10497,
    "mi": 16548,
    "tary": 9869,
    "assess@@": 12243,
    "wreck": 13870,
    "water@@": 4903,
    "bore": 12875,
    "crises": 9775,
    "mouth": 1453,
    "jar": 12694,
    "values": 1411,
    "illance": 19564,
    "Last": 4873,
    "breast@@": 15139,
    "cleaner": 13622,
    "Once": 3671,
    "parano@@": 17895,
    "ad@@": 778,
    "caus@@": 15783,
    "ageous": 17506,
    "figh@@": 17948,
    "HIV": 7787,
    "designations": 14677,
    "fractures": 14800,
    "fis@@": 6371,
    "skel@@": 19273,
    "raped": 12049,
    "bid": 7583,
    "coer@@": 19023,
    "guided": 7880,
    "brush": 7324,
    "failing": 6957,
    "pleasant": 7595,
    "partment": 19259,
    "oned": 5064,
    "Represen@@": 12673,
    "whereas": 2073,
    "What's": 14365,
    "VAT": 1957,
    "ched@@": 17219,
    "PP": 11711,
    "cardio@@": 18341,
    "pharmacokine@@": 19248,
    "thiazide": 18671,
    "User": 14996,
    "quicker": 13522,
    "pass@@": 11718,
    "poss@@": 10432,
    "tracks": 7507,
    "youth": 3874,
    "promptly": 9937,
    "Monday": 11689,
    "allel": 19229,
    "liner": 13704,
    "Ple@@": 17811,
    "ros@@": 12135,
    "jewel@@": 18782,
    "beat": 3116,
    "flan@@": 16928,
    "docetaxel": 14423,
    "trade": 547,
    "probe": 11713,
    "knew": 471,
    "Law@@": 15055,
    "Il@@": 16507,
    "Phil": 16853,
    "trash": 9854,
    "notary": 13242,
    "rant": 12368,
    "brief": 5324,
    "beha@@": 18672,
    "vudine": 14084,
    "ceilings": 9036,
    "Protection": 8043,
    "grouped": 15075,
    "ane": 2643,
    "Working": 9239,
    "RO@@": 7034,
    "bers": 4996,
    "asserts": 16362,
    "routine": 7562,
    "wing": 2506,
    "labour": 1758,
    "impulse": 14247,
    "ple": 4928,
    "screening": 9861,
    "teria": 19044,
    "tablet": 5446,
    "stunned": 12615,
    "phen@@": 7540,
    "malignant": 16760,
    "europe": 1590,
    "porary": 14366,
    "apper": 14096,
    "exists": 3536,
    "Hello": 5117,
    "sion@@": 6774,
    "challenged": 6845,
    "apologise": 15719,
    "solemn@@": 17194,
    "VC": 11664,
    "metabo@@": 18581,
    "definitions": 5433,
    "clusters": 15755,
    "key": 775,
    "oedema": 11735,
    "Concer@@": 18694,
    "reductions": 6471,
    "onaire": 14307,
    "meaning@@": 18554,
    "PO@@": 8257,
    "deal@@": 17309,
    "funds": 939,
    "Mrs": 9361,
    "encryption": 14645,
    "enlar@@": 18371,
    "carbons": 17973,
    "tt@@": 5194,
    "/92": 9523,
    "ordered": 2318,
    "family": 558,
    "isle": 17257,
    "verse": 6398,
    "restore": 5551,
    "rack": 15143,
    "names": 1788,
    "sensors": 8688,
    "knocked": 5658,
    "velocity": 9701,
    "isation": 3295,
    "oundings": 16970,
    "ass": 1289,
    "neg@@": 17695,
    "departure": 5177,
    "periodically": 11797,
    "photographs": 6777,
    "Red": 7567,
    "install@@": 17624,
    "pidogrel": 18773,
    "restored": 7952,
    "enough": 486,
    "onate": 15397,
    "ship@@": 7785,
    "suspec@@": 18101,
    "cab": 8016,
    "poetin": 14533,
    "go@@": 1474,
    "underlined": 12676,
    "Level": 14319,
    "ward": 3317,
    "regions": 1384,
    "mately": 13389,
    "subjective": 16229,
    "aire": 15656,
    "target": 1564,
    "thick@@": 14114,
    "Growth": 14447,
    "pad": 11649,
    "Free@@": 13999,
    "investig@@": 18755,
    "explanation": 4772,
    "grant": 1335,
    "entire": 1218,
    "em@@": 1032,
    "igh": 16670,
    "harbour": 14792,
    "reforms": 4003,
    "incidence": 7361,
    "ist": 2108,
    "wearing": 2668,
    "abstr@@": 18127,
    "ethnic": 11835,
    "clam@@": 10008,
    "iving": 17007,
    "Explanatory": 16880,
    "fig@@": 18938,
    "No": 203,
    "madness": 9408,
    "genous": 18283,
    "expectation": 12194,
    "counterparties": 13845,
    "OB@@": 13780,
    "tickets": 5777,
    "bloc@@": 14544,
    "load": 2339,
    "demonstr@@": 17399,
    "ish": 2482,
    "Boy": 13732,
    "Manager": 15368,
    "appellant": 3459,
    "investigation": 818,
    "compar@@": 13255,
    "kes": 3129,
    "prosecute": 16462,
    "re@@": 198,
    "antly": 9924,
    "gol@@": 9865,
    "recep@@": 15877,
    "Pacific": 14543,
    "slapped": 13209,
    "remark": 12307,
    "diesel": 9309,
    "Commission": 149,
    "distributing": 14129,
    "matched": 9721,
    "ousing": 18301,
    "logo": 10292,
    "Register": 16467,
    "holm": 14181,
    "gaseous": 16298,
    "nigger": 16843,
    "servation": 18190,
    "Gen@@": 6115,
    "dead": 583,
    "himself": 737,
    "tment": 8337,
    "Rel@@": 7276,
    "terrified": 6534,
    "misuse": 9638,
    "thur": 19392,
    "objects": 3794,
    "footage": 8963,
    "about": 84,
    "redit@@": 17623,
    "won": 3289,
    "facial": 16144,
    "Half": 13956,
    "mitigation": 9284,
    "dimensional": 11239,
    "conclude": 3694,
    "cury": 18790,
    "bridge": 2865,
    "bureau": 7195,
    "floated": 12334,
    "miller": 17092,
    "loe": 11898,
    "minus": 8472,
    "shark": 11981,
    "L.": 15246,
    "infrastructure": 1522,
    "uncertainty": 5666,
    "steri@@": 18042,
    "difference": 1584,
    "brands": 15955,
    "Mag@@": 5659,
    "approach": 1051,
    "ties": 2083,
    "concentrating": 16807,
    "EUROPEAN": 8452,
    "celebrating": 13055,
    "confession": 10935,
    "lounge": 15338,
    "nationally": 17357,
    "audit": 1885,
    "device": 1617,
    "susan": 12721,
    "hall@@": 14471,
    "cane": 11388,
    "general": 299,
    "Z@@": 1315,
    "VI@@": 12587,
    "mn": 18729,
    "Web": 7484,
    "dere@@": 14867,
    "necklace": 11674,
    "leis@@": 18963,
    "D.@@": 9587,
    "question@@": 12574,
    "ner@@": 5853,
    "exec@@": 18637,
    "acquaintance": 15769,
    "Condi@@": 18522,
    "blessing": 13975,
    "raise": 2420,
    "advocate": 9147,
    "viral": 8034,
    "european": 226,
    "miami": 17010,
    "wanna": 896,
    "spe@@": 5292,
    "CZ@@": 19207,
    "badly": 6665,
    "trad@@": 10228,
    "scientific": 1656,
    "buy": 1547,
    "ant": 978,
    "EIF": 16766,
    "alise": 8179,
    "ech@@": 14653,
    "abine": 18447,
    "tucked": 14918,
    "shir@@": 16966,
    "flat@@": 9862,
    "preceded": 9746,
    "allocated": 2788,
    "otas": 19308,
    "advice": 2128,
    "bored": 9538,
    "cis@@": 17027,
    "mass": 2247,
    "corner": 2828,
    "working": 477,
    "judges": 4650,
    "afforded": 12957,
    "ration@@": 9210,
    "codes": 4005,
    "rit@@": 4251,
    "editing": 14953,
    "wins": 10704,
    "quarantine": 14085,
    "leng@@": 14913,
    "erron@@": 17653,
    "shel@@": 8407,
    "almost": 701,
    "automatically": 2957,
    "revealing": 15544,
    "propor@@": 19396,
    "tone": 5026,
    "explo@@": 8976,
    "weed": 9459,
    "Another": 5806,
    "deci@@": 18046,
    "homo@@": 10012,
    "undertaken": 4663,
    "ph@@": 1660,
    "recent": 2143,
    "IB@@": 10299,
    "play@@": 5918,
    "devel@@": 19326,
    "drain": 14264,
    "Inter@@": 3928,
    "native": 8420,
    "constituent": 14048,
    "gn": 15539,
    "A.@@": 5956,
    "designer": 16076,
    "citizen@@": 17577,
    "Mol@@": 12719,
    "phosphorus": 15918,
    "institu@@": 11931,
    "years": 197,
    "supplier": 3904,
    "valu@@": 9200,
    "Fer@@": 8556,
    "very": 206,
    "question": 331,
    "debates": 14641,
    "une": 6891,
    "weigh": 15348,
    "BR@@": 8900,
    "hurts": 8216,
    "semen": 13768,
    "pharmaceutical": 7778,
    "Mus@@": 10625,
    "wheat": 10546,
    "aval@@": 16170,
    "ver@@": 1205,
    "ratified": 14897,
    "twit@@": 11636,
    "Hey": 1142,
    "thirty": 4486,
    "ICs": 14990,
    "toi@@": 13338,
    "Right": 3109,
    "polish": 7917,
    "heter@@": 17095,
    "auditors": 5286,
    "hul@@": 16319,
    "alis@@": 14333,
    "Technology": 14720,
    "flashing": 16228,
    "trum@@": 13913,
    "Wal@@": 6676,
    "prevents": 6288,
    "natural": 977,
    "employer": 4474,
    "tti": 10054,
    "ulf": 15776,
    "clearance": 4145,
    "shoo@@": 17472,
    "OBD": 12881,
    "dome": 13268,
    "icide": 18310,
    "COMMUN@@": 13635,
    "thal@@": 11425,
    "warran@@": 10450,
    "ec.europa.eu/@@": 18991,
    "existing": 849,
    "infringing": 15141,
    "wind": 2135,
    "Bab@@": 17436,
    "sal@@": 2509,
    "challen@@": 18369,
    "thunder": 12195,
    "favour@@": 14590,
    "beverages": 12800,
    "capac@@": 13432,
    "eternity": 10298,
    "step": 1427,
    "Bat@@": 15828,
    "tunnels": 10513,
    "AIF": 17146,
    "ape": 7938,
    "-year": 3348,
    "preventing": 4357,
    "hills": 6240,
    "tracking": 6469,
    "acknowle@@": 17554,
    "Rap@@": 10249,
    "derogate": 14917,
    "As": 497,
    "suffered": 3276,
    "sought": 2814,
    "spending": 3900,
    "Sp@@": 10981,
    "lust": 17011,
    "Private": 14933,
    "steps": 1913,
    "boun@@": 6335,
    "DS": 9468,
    "contribute": 1814,
    "LD@@": 13126,
    "salaries": 10999,
    "collu@@": 16156,
    "constitu@@": 17298,
    "agreements": 1062,
    "uation": 16889,
    "gre@@": 3342,
    "carbon": 2954,
    "spon@@": 5649,
    "zu@@": 12892,
    "messing": 13617,
    "gri@@": 2967,
    "astron@@": 16256,
    "fishery": 7558,
    "whenever": 4295,
    "throne": 7538,
    "listening": 3670,
    "robots": 9798,
    "laughing": 5906,
    "dered": 6187,
    "-1": 7673,
    "dense": 11159,
    "offset": 6281,
    "matches": 6799,
    "predicted": 11821,
    "capability": 10293,
    "Ca": 6831,
    "tools": 2695,
    "nament": 18681,
    "poli@@": 17958,
    "Seri@@": 18227,
    "satellites": 13825,
    "dust": 3972,
    "returning": 6764,
    "inn": 7422,
    "hob@@": 10235,
    "remn@@": 18759,
    "validity": 3279,
    "phenom@@": 19542,
    "depri@@": 17428,
    "curve": 8066,
    "draw": 2239,
    "Sci@@": 14844,
    "broader": 6542,
    "perfume": 15792,
    "comfor@@": 14422,
    "Member": 183,
    "performs": 16498,
    "discretionary": 14689,
    "yed": 5737,
    "fluc@@": 19288,
    "centres": 4422,
    "yours": 2238,
    "posal": 18872,
    "treat": 3186,
    "registry": 4761,
    "Luc@@": 7248,
    "early": 1316,
    "ruled": 5488,
    "ue": 4434,
    "likelihood": 5444,
    "arch": 8497,
    "upstairs": 5509,
    "album": 10554,
    "Category": 13334,
    "conf@@": 7365,
    "scary": 8753,
    "Ye@@": 14019,
    "mitigating": 10007,
    "stations": 5103,
    "ema@@": 18271,
    "advance": 2845,
    "fingers": 2928,
    "speech": 4659,
    "fulfil": 3162,
    "Since": 2388,
    "invited": 2600,
    "slave": 7861,
    "ONS": 17918,
    "grew": 3881,
    "identical": 3588,
    "premium": 5721,
    "accepts": 8847,
    "scrap@@": 8295,
    "gement": 17682,
    "ste@@": 1841,
    "traditions": 12167,
    "promised": 3146,
    "lonely": 6754,
    "trail@@": 9644,
    "rush": 8049,
    "endless": 9306,
    "puzz@@": 17799,
    "improving": 2086,
    "troops": 6386,
    "determine": 1223,
    "investigated": 7854,
    "coordination": 2106,
    "tuberculosis": 16478,
    "plantation": 17618,
    "eless": 6416,
    "tants": 11406,
    "Lan@@": 9982,
    "which": 49,
    "Opin@@": 18905,
    "suscep@@": 19352,
    "stall": 15132,
    "reper@@": 18370,
    "ingent": 19263,
    "once": 458,
    "matrix": 13092,
    "flexible": 5557,
    "AUC": 10040,
    "hypertensive": 16974,
    "instant": 8528,
    "ICT": 6367,
    "TV2": 13309,
    "Click": 9308,
    "reli@@": 6869,
    "indu@@": 18510,
    "vietnam": 14062,
    "restrict": 6195,
    "reck@@": 9573,
    "canada": 11905,
    "for": 14,
    "prohibition": 3644,
    "software": 3805,
    "tioned": 5449,
    "Leave": 9961,
    "foresee@@": 18880,
    "excellence": 10801,
    "satellite": 4983,
    "descen@@": 12266,
    "instincts": 12894,
    "Action": 4514,
    "meter": 6114,
    "difficul@@": 19297,
    "Surve@@": 19142,
    "dri@@": 2870,
    "believed": 3117,
    "owes": 14798,
    "chilled": 16883,
    "ders": 1941,
    "digit": 13849,
    "quantified": 15481,
    "stein": 8000,
    "viewing": 11509,
    "millen@@": 18395,
    "applications": 1298,
    "truck": 2614,
    "disappointed": 9037,
    "Ax@@": 16710,
    "ter@@": 1373,
    "growth": 960,
    "interesting": 2883,
    "ela": 6611,
    "paste": 13514,
    "poland": 7073,
    "ily": 8676,
    "orth@@": 12001,
    "explains": 6379,
    "swal@@": 12387,
    "repairs": 11726,
    "trucks": 9827,
    "careers": 15958,
    "wag@@": 18104,
    "glowing": 10934,
    "ve": 1881,
    "submarine": 12097,
    "governments": 3876,
    "Competi@@": 16834,
    "pru@@": 18316,
    "even": 185,
    "At": 1213,
    "Dro@@": 13575,
    "font": 10945,
    "man": 167,
    "deer": 12907,
    "CON@@": 6554,
    "remote": 3801,
    "aspects": 2127,
    "compartments": 15333,
    "dark@@": 8642,
    "leagues": 16740,
    "investing": 9530,
    "Americans": 10337,
    "Bet@@": 13200,
    "passes": 7231,
    "behavior": 5077,
    "commo@@": 18953,
    "wave": 4393,
    "extracted": 14130,
    "IN": 4857,
    "particular": 238,
    "home": 383,
    "kets": 5953,
    "Programmes": 13997,
    "spheres": 16869,
    "fog": 8991,
    "olives": 12656,
    "Am": 9191,
    "n@@": 479,
    "anni@@": 11036,
    "bra": 9231,
    "OG@@": 15781,
    "instinct": 12627,
    "Protocol": 3534,
    "negoti@@": 14602,
    "Feder@@": 18972,
    "cr@@": 2340,
    "thers": 9232,
    "lam@@": 4664,
    "Au@@": 4724,
    "respective": 3528,
    "June": 2348,
    "lack": 1863,
    "disseminate": 16196,
    "trains": 8527,
    "flagship": 14485,
    "ek@@": 11930,
    "diffic@@": 19552,
    "residing": 10630,
    "unsuccessful": 8308,
    "antibiotics": 14155,
    "mission": 2112,
    "Ro@@": 2499,
    "worn": 9026,
    "membership": 6078,
    "erased": 12233,
    "sheriff": 7084,
    "quite": 1539,
    "teen": 7093,
    "dull": 10079,
    "equals": 12024,
    "prac@@": 19061,
    "windows": 2632,
    "sni@@": 7750,
    "leadership": 4867,
    "asi": 16339,
    "Mas@@": 14357,
    "area": 437,
    "si@@": 942,
    "stuffs": 18826,
    "past": 993,
    "publicity": 10459,
    "desp@@": 15089,
    "jeopardise": 8082,
    "exception": 2284,
    "sad": 3486,
    "enna": 7560,
    "sequence": 7222,
    "undoub@@": 19304,
    "sober": 14006,
    "adapting": 9226,
    "that@@": 10320,
    "Preg@@": 15824,
    "patient": 1759,
    "milk": 1877,
    "sham@@": 15611,
    "7": 157,
    "checks": 1693,
    "synthesis": 14229,
    "occasions": 7708,
    "couch": 6794,
    "liation": 16535,
    "saddle": 10901,
    "substituted": 10924,
    "transportation": 6787,
    "coats": 17147,
    "suggesting": 8994,
    "infringed": 4352,
    "abdomen": 16758,
    "sit@@": 5815,
    "sau@@": 17392,
    "them@@": 17589,
    "It": 115,
    "murdered": 3250,
    "consequences": 2025,
    "smoo@@": 18545,
    "colle@@": 18065,
    "Institute": 13097,
    "marking": 5220,
    "silk": 8414,
    "motel": 10138,
    "Kevin": 12817,
    "short": 1075,
    "ev@@": 2465,
    "Paul": 6068,
    "spotted": 8526,
    "command": 2158,
    "hygi@@": 18276,
    "article": 147,
    "hurting": 8336,
    "safely": 6346,
    "build": 2531,
    "mative": 17972,
    "surface": 1993,
    "bind": 15108,
    "akers": 15933,
    "negotiation": 7660,
    "iting": 5860,
    "fe": 9943,
    "structuring": 13973,
    "seized": 8892,
    "bul@@": 2680,
    "invisible": 7986,
    "puts": 5694,
    "roadmap": 12730,
    "elabor@@": 14748,
    "verely": 19454,
    "credible": 10447,
    "batch": 7766,
    "recommen@@": 17529,
    "summon": 16638,
    "Love": 13039,
    "gau@@": 14300,
    "nap@@": 11647,
    "TF@@": 10566,
    "fish": 1682,
    "food": 696,
    "ascertain@@": 14378,
    "im": 4862,
    "govern": 12672,
    "SALW": 14031,
    "gil@@": 9432,
    "tained": 18147,
    "ticket": 5010,
    "inf@@": 5327,
    "mistak@@": 17414,
    "Cha@@": 6160,
    "Work": 12276,
    "cle": 11856,
    "explanations": 6669,
    "succession": 13174,
    "prospect": 10867,
    "eutic": 17864,
    "estimation": 12083,
    "crystal": 8478,
    "Club": 16405,
    "obs@@": 11433,
    "preferred": 6211,
    "interaction": 5808,
    "Unit": 13288,
    "SNC@@": 18774,
    "exploit": 9650,
    "nonsense": 8894,
    "ox": 16032,
    "consum@@": 11189,
    "competitive": 1914,
    "thin'": 19128,
    "hardware": 8325,
    "rington": 13381,
    "exchanging": 9405,
    "quit": 4330,
    "tongue": 4825,
    "monster": 4942,
    "wakes": 15822,
    "pan": 6038,
    "Korea": 10802,
    "refusal": 4258,
    "itals": 15325,
    "folks": 6983,
    ":@@": 1496,
    "meters": 4832,
    "[2": 14607,
    "redness": 17461,
    "paragraphs": 1396,
    "EU-@@": 8795,
    "agreeing": 15827,
    "unequivoc@@": 13292,
    "gone": 858,
    "ok": 3897,
    "ard": 1781,
    "citizen": 5023,
    "eure": 19526,
    "publicly": 5241,
    "judged": 10181,
    "XX@@": 12829,
    "assessing": 2748,
    "ment2": 13041,
    "sizes": 8012,
    "omy": 13237,
    "header": 15461,
    "sional": 17419,
    "has@@": 17553,
    "step@@": 12117,
    "filename": 12862,
    "Bon@@": 11307,
    "eurozone": 16000,
    "fodder": 13510,
    "<s>": 2,
    ",'": 13213,
    "web": 3128,
    "disturban@@": 19456,
    "c.@@": 16910,
    "Ber@@": 5440,
    "nee@@": 14089,
    "respectful": 12995,
    "Sparhawk": 14324,
    "repeat": 5431,
    "................@@": 17549,
    "ruption": 18793,
    "AS@@": 2712,
    "s[@@": 8743,
    "portion": 8003,
    "mour@@": 11037,
    "success@@": 18466,
    "ashing": 9883,
    "relation@@": 18879,
    "J.": 15454,
    "ma'am": 7282,
    "sets": 2359,
    "duplic@@": 15241,
    "my": 52,
    "poem": 14846,
    "veins": 11915,
    "Doc": 15175,
    "fred": 13868,
    "versity": 18574,
    "burden@@": 16525,
    "resolutions": 10857,
    "italian": 3957,
    "Thi@@": 18011,
    "sured": 17850,
    "occasion": 7357,
    "pus@@": 13570,
    "authorities'": 13964,
    "scor@@": 10569,
    "vil@@": 7184,
    "athan": 12897,
    "attain": 11442,
    "Because": 1451,
    "guys": 822,
    "Fif@@": 11113,
    "close": 790,
    "moves": 6244,
    "Hou@@": 17176,
    "regain": 15467,
    "develop": 1883,
    "sian": 7984,
    "Directives": 9504,
    "professional": 1510,
    "pertaining": 14329,
    "requisite": 10607,
    "group": 526,
    "pel@@": 5674,
    "pom@@": 12501,
    "ghost": 5716,
    "gency": 17447,
    "insu@@": 16270,
    "cat@@": 4353,
    "swimming": 8543,
    "beating": 6710,
    "potent": 13879,
    "EFSA": 9084,
    "law@@": 5305,
    "referring": 2369,
    "ians": 10812,
    "duce": 10674,
    "Medicines": 13577,
    "dre@@": 6903,
    "whoa": 8316,
    "bl@@": 1513,
    "South": 5572,
    "revi@@": 9714,
    "superi@@": 18129,
    "excuse": 2566,
    "engen": 19554,
    "interferon": 12996,
    "vam@@": 13198,
    "namely": 2452,
    "grey": 4979,
    "eth": 17121,
    "measuring": 5014,
    "oni@@": 13016,
    "diluted": 14172,
    "terr@@": 10525,
    "chocolate": 7329,
    "universe": 3366,
    "e.@@": 13899,
    "gan@@": 5479,
    "existed": 6005,
    "atin": 10239,
    "infection": 3938,
    "metabolites": 11290,
    "embr@@": 13824,
    "Observ@@": 18335,
    "concerted": 10158,
    "foc@@": 17523,
    "sign@@": 5158,
    "nom@@": 6343,
    "agents": 2605,
    "redundancies": 13540,
    "Emi@@": 18358,
    "competent": 484,
    "blown": 9513,
    "tendering": 7265,
    "embarr@@": 17757,
    "pin": 6474,
    "linked": 1918,
    "rapidly": 4965,
    "distil@@": 18464,
    "dant": 8657,
    "replacing": 8829,
    "countries": 373,
    "inter@@": 1187,
    "aud@@": 18112,
    "Mom@@": 18054,
    "hus@@": 11389,
    "ext": 18964,
    "heard": 529,
    "incorporation": 16124,
    "herd": 9495,
    "elections": 6706,
    "cafeteria": 15314,
    "ln": 10407,
    "defective": 15610,
    "fer@@": 2638,
    "hel@@": 3093,
    "Like": 2689,
    "reject": 6185,
    "belgium": 6996,
    "M@@": 364,
    "Thus": 4161,
    "complex": 2527,
    "Prepar@@": 16167,
    "departments": 6832,
    "Implementing": 8162,
    "complement@@": 19151,
    "besartan": 18705,
    "THIS": 4994,
    "aquatic": 10251,
    "coupled": 14004,
    "~@@": 15102,
    "acy": 3653,
    "elegant": 13912,
    "tex": 9277,
    "tournament": 14562,
    "least": 362,
    "eval": 14311,
    "histor@@": 17971,
    "ATION": 7988,
    "respond": 3861,
    "Third": 7149,
    "crowd": 4637,
    "honey@@": 18076,
    "troubles": 13560,
    "dges": 6238,
    "deline": 17833,
    "spirit@@": 18213,
    "liances": 17881,
    "forth@@": 19353,
    "Hy@@": 5971,
    "accountability": 9514,
    "Where": 842,
    "paragrap@@": 19002,
    "deter@@": 10332,
    "es.'": 15252,
    "portal": 8524,
    "intimi@@": 14991,
    "shu@@": 5484,
    "med": 2947,
    "lip": 5699,
    "star@@": 2995,
    "eable": 8243,
    "transparent": 3356,
    "arrive": 6674,
    "agen@@": 17004,
    "V": 2089,
    "Global": 13011,
    "desirable": 8907,
    "id": 2649,
    "prises": 17981,
    "regar@@": 19374,
    "Everyone": 7002,
    "acquisitions": 14912,
    "lid": 10758,
    "broad@@": 9002,
    "cone": 16655,
    "decreases": 13328,
    "privilege": 9971,
    "sman": 6204,
    "Finland": 9125,
    "Sir": 4094,
    "utilis@@": 14126,
    "wom@@": 13086,
    "daughter@@": 14271,
    "Much": 16914,
    "betting": 9345,
    "performed": 2657,
    "queries": 17202,
    "citizens": 1480,
    "dawn": 6629,
    "chen": 14959,
    "ena": 5893,
    "amm@@": 8974,
    "temple": 6970,
    "foodstuffs": 8274,
    "bush": 8537,
    "telecommunic@@": 18320,
    "stipulated": 11738,
    "mistakes": 6915,
    "handic@@": 9254,
    "hip": 7330,
    "session": 4107,
    "mer@@": 2444,
    "ening": 5048,
    "instruc@@": 8648,
    "ques@@": 18830,
    "Structural": 8372,
    "nies": 14050,
    "doll@@": 18961,
    "reiter@@": 17779,
    "undere@@": 10565,
    "routes": 5068,
    ".europa.eu": 14872,
    "yourselves": 11344,
    "behave": 10275,
    "Pl@@": 13072,
    "ribs": 10986,
    "tam@@": 9195,
    "Dec@@": 8874,
    "democratic": 5347,
    "apprehen@@": 12919,
    "aerodrome": 13747,
    "Don": 12532,
    "ophi@@": 14131,
    "eld": 12056,
    "experts": 2405,
    "grel": 18999,
    "liquidity": 4849,
    "principles": 1135,
    "order": 196,
    "am": 379,
    "mr": 4601,
    "olds": 11275,
    "consequently": 2519,
    "BO@@": 15261,
    "ouch": 17319,
    "reporter": 11310,
    "elia": 10126,
    "equival@@": 15123,
    "scattered": 7624,
    "minimum": 1004,
    "cost": 765,
    "foam": 13149,
    "parad@@": 16882,
    "eded": 15694,
    "invoked": 10655,
    "library": 4564,
    "ministers": 11477,
    "Courts": 10889,
    "reporting": 1609,
    "digits": 14091,
    "tried": 870,
    "mouse": 6552,
    "arisen": 14609,
    "share": 895,
    "consent": 3775,
    "modifications": 7814,
    "limitations": 7208,
    "ania": 11161,
    "inc@@": 3823,
    "precautionary": 7012,
    "arbitrary": 13675,
    "scrap": 13218,
    "zapine": 18609,
    "FOL@@": 18986,
    "minium": 18874,
    "believes": 3057,
    "RS": 15931,
    "fts": 6849,
    "focuses": 8318,
    "tru@@": 4225,
    "aye": 11207,
    "biofuels": 11862,
    "induction": 15823,
    "fre@@": 3652,
    "cousins": 14360,
    "compul@@": 17725,
    "tees": 17333,
    "fourteen": 14364,
    "deliberately": 9031,
    "rep@@": 4900,
    "burning": 4076,
    "During": 4604,
    "traf@@": 18904,
    "entrepreneurship": 7277,
    "SC": 4579,
    "proof": 1819,
    "repeti@@": 15310,
    "oblige": 14827,
    "alliance": 8312,
    "amic": 11706,
    "chec@@": 17723,
    "murder": 1644,
    "circum@@": 11548,
    "coated": 6819,
    "exporter": 6448,
    "specified": 889,
    "Someone": 5138,
    "Tom": 6261,
    "blond": 11197,
    "unting": 16154,
    "willingness": 10103,
    "unforeseen": 16347,
    "Cast@@": 18415,
    "breast": 4160,
    "combined": 3063,
    "oklyn": 16027,
    "Mark": 7413,
    "ween": 19197,
    "eva": 7680,
    "brit@@": 17767,
    "But": 225,
    "studied": 4500,
    "responsibility": 1200,
    "shower": 5421,
    "viable": 8355,
    "updates": 8102,
    "hands": 777,
    "swelling": 10241,
    "wounds": 6953,
    "sti@@": 2458,
    "head": 424,
    "decor@@": 9427,
    "stake@@": 18433,
    "passport": 6803,
    "y'": 4137,
    "ary": 1567,
    "sailor": 14441,
    "tal@@": 3728,
    "Priv@@": 18219,
    "transfers": 4283,
    "Sunday": 9886,
    "sunshine": 13646,
    "inging": 10932,
    "ling": 1056,
    "competen@@": 18255,
    "iv@@": 15572,
    "distingu@@": 12091,
    "eur@@": 10191,
    "mag@@": 4026,
    "essie": 16973,
    "dealing": 3403,
    "sanc@@": 10929,
    "hit@@": 8586,
    "flown": 15520,
    "importance": 1641,
    "ka": 2598,
    "ing'": 5784,
    "bi": 7971,
    "receive": 1857,
    "tags": 14898,
    "TP": 9105,
    "thrilled": 13554,
    "Rob@@": 9727,
    "ball@@": 13853,
    "method": 1197,
    "instructed": 8632,
    "jeopardi@@": 18080,
    "action": 381,
    "teach@@": 18139,
    "kilometers": 8019,
    "dest": 8717,
    "spectr@@": 18281,
    "prophec@@": 18560,
    "Blu@@": 15691,
    "ffed": 10375,
    "cer@@": 3973,
    "norms": 13918,
    "os@@": 11084,
    "l.a.": 16110,
    "hence": 7398,
    "Da@@": 11807,
    "recognising": 11618,
    "seeking": 3759,
    "list@@": 7188,
    "suff@@": 13917,
    "cur": 18126,
    "clarifying": 12434,
    "threatens": 15861,
    "jumping": 12661,
    "abusive": 15801,
    "unless": 1112,
    "ESS": 10627,
    "trees": 2803,
    "pierced": 14823,
    "originate": 15939,
    "horiz@@": 18463,
    "profiles": 10545,
    "lax@@": 12180,
    "sport": 5947,
    "rigid": 13446,
    "immunity": 7236,
    "r.": 10973,
    "sors": 10634,
    "sends": 8972,
    "Pakistan": 16838,
    "Enough": 17188,
    "ast": 3888,
    "pre": 1619,
    "Health": 7038,
    "explanatory": 7463,
    "bows": 11526,
    "ETS": 13145,
    "firing": 7364,
    "ometric": 11083,
    "curio@@": 19267,
    "anyon": 16131,
    "conceivable": 15712,
    "wax": 10874,
    "somewhere": 2044,
    "organization": 4995,
    "vol@@": 5109,
    "oth@@": 10134,
    "fantastic": 9557,
    "carries": 5340,
    "institutional": 4045,
    "regener@@": 17432,
    "set@@": 8514,
    "explorer": 17112,
    "faithful": 9954,
    "buzz@@": 14403,
    "aren": 10593,
    "istan": 18837,
    "Davi@@": 18786,
    "admission": 7407,
    "impact": 646,
    "unloading": 16950,
    "candidates": 3622,
    "raid": 15495,
    "side@@": 10928,
    "surviv@@": 17500,
    "mors": 17894,
    "vote": 2307,
    "stand": 1401,
    "I.@@": 8626,
    "Ko@@": 10231,
    "passion": 8675,
    "adds": 7761,
    "Reco@@": 12022,
    "perform": 3114,
    "presumption": 6028,
    "again": 270,
    "dressing": 10351,
    "sugg@@": 18491,
    "alit@@": 16689,
    "cycles": 7124,
    "hydrate": 14182,
    "aches": 5139,
    "goddamn": 7173,
    "agen": 12414,
    "nowhere": 6424,
    "iceland": 14952,
    "Per@@": 2986,
    "IR@@": 4535,
    "tens": 9403,
    "nation@@": 7146,
    "rades": 19102,
    "controller": 7994,
    "inability": 13175,
    "virtually": 10756,
    "polye@@": 15171,
    "Jer@@": 10782,
    "jay": 16852,
    "Answer": 3745,
    "comprising": 6814,
    "rations": 16233,
    "undergo": 10212,
    "vaccine": 5696,
    "observations": 2723,
    "wholly": 8639,
    "shareholders": 4803,
    "lessons": 6422,
    "His": 1518,
    "exaggerated": 16657,
    "harder": 6599,
    "favour": 3427,
    "weapons": 2030,
    "office": 673,
    "part@@": 8739,
    "COMM@@": 17551,
    "earliest": 9060,
    "revel@@": 15693,
    "james": 7111,
    "waiting": 1119,
    "ase": 3031,
    "restaurant": 4536,
    "Best": 15059,
    "allocations": 10190,
    "abovementioned": 6321,
    "annoying": 12190,
    "achievement": 5156,
    "discipl@@": 12902,
    "expi@@": 19328,
    "donesia": 12118,
    "derivative": 10527,
    "civilians": 12563,
    "gina": 16335,
    "negotiate": 7502,
    "dividu@@": 17250,
    "corri@@": 17791,
    "laden": 14320,
    "ean": 18745,
    "sur@@": 2574,
    "inary": 9909,
    "Asian": 15865,
    "guides": 17275,
    "erial": 9434,
    "worsening": 12790,
    "regards": 574,
    "deals": 8119,
    "Prof@@": 17426,
    "rhythm": 10843,
    "rays": 11461,
    "manufacturer": 1969,
    "levy": 8186,
    "sations": 16094,
    "Jessica": 15410,
    "Clar@@": 16012,
    "nodes": 16934,
    "sealed": 7218,
    "negative": 1821,
    "mL": 14971,
    "Black": 8481,
    "aci@@": 8206,
    "hear@@": 7958,
    "catching": 9500,
    "ogen@@": 10356,
    "ICAO": 12712,
    "masks": 14906,
    "tearing": 15160,
    "massage": 15905,
    "sixteen": 16876,
    "ounce": 12551,
    "ger": 2545,
    "GR@@": 10611,
    "TW@@": 9956,
    "excitement": 9600,
    "mit": 10592,
    "dop@@": 10056,
    "monsters": 9592,
    "stiff@@": 9876,
    "reaction": 3569,
    "powder": 4471,
    "magical": 7636,
    "enforced": 7701,
    "IA": 6001,
    "finnish": 15599,
    "vaccinated": 16068,
    "inhi@@": 10939,
    "para": 9393,
    "ichever": 19200,
    "Je@@": 4282,
    "angeles": 14381,
    "ancient": 3165,
    "realistic": 7269,
    "flashlight": 16024,
    "sarah": 11825,
    "twist": 12446,
    "taxpayers": 10873,
    "absor@@": 13040,
    "ular": 3086,
    "blades": 12483,
    "Boston": 15686,
    "Journal": 3369,
    "cough": 14087,
    "bear": 2015,
    "ageing": 7586,
    "consulted": 6229,
    "spread@@": 16341,
    "reside": 12229,
    "welfare": 4954,
    "liti@@": 17706,
    "assive": 18383,
    "del": 6654,
    "activate": 9552,
    "raq@@": 16359,
    "subsistence": 12735,
    "ff@@": 2450,
    "protected": 1902,
    "familiar": 4210,
    "incurred": 2259,
    "glad@@": 13470,
    "p.": 2220,
    "rural": 3091,
    "Her": 3076,
    "electronically": 11000,
    "PA": 8733,
    "polis@@": 18049,
    "pened": 12674,
    "tag": 8320,
    "sav@@": 9576,
    "dn@@": 14395,
    "accompanying": 5402,
    "evaluated": 4845,
    "fest": 17574,
    "punk": 16123,
    "crawled": 12841,
    "vers": 3885,
    "Cir@@": 12936,
    "than@@": 7907,
    "s/@@": 14925,
    "cs": 9665,
    "aromatic": 16993,
    "Ear@@": 14137,
    "renewable": 4129,
    "doctr@@": 16635,
    "gate@@": 18619,
    "wrapping": 16712,
    "code": 1138,
    "cked": 10077,
    "yo": 9303,
    "abs": 12362,
    "unlocked": 17247,
    "calendar": 4191,
    "ediatric": 17788,
    "wormhole": 16938,
    "diagram": 16018,
    "poses": 10595,
    "accessible": 3591,
    "closures": 17344,
    "licenses": 15695,
    "abnorm@@": 13674,
    "floo@@": 16702,
    "writ": 16019,
    "primi@@": 19081,
    "coffee": 2582,
    "fellow": 5676,
    "Tommy": 11724,
    "intru@@": 8253,
    "vector": 13343,
    "EFTA": 4721,
    "summary": 3215,
    "discarded": 8619,
    "deposited": 12164,
    "therein": 3573,
    "Division": 10727,
    "hosting": 13325,
    "rhe@@": 9794,
    "vaccination": 6458,
    "frequ@@": 19028,
    "ation": 446,
    "weapon": 2933,
    "basket": 8941,
    "Business": 12123,
    "ag": 16521,
    "aks": 6988,
    "proportionate": 4264,
    "constituting": 7736,
    "Far@@": 9758,
    "Second": 4454,
    "presum@@": 14231,
    "munic@@": 19541,
    "barn": 10423,
    "tale": 5490,
    "broadcasting": 6468,
    "antibio@@": 17836,
    "equally": 4890,
    "tus": 6405,
    "suicide": 5734,
    "stan@@": 4603,
    "vin": 5761,
    "kat@@": 12652,
    "were": 74,
    "CA@@": 15618,
    "decreased": 3847,
    "thousands": 4082,
    "market": 195,
    "communist": 15275,
    "bullet": 4799,
    "predomin@@": 18188,
    "essential": 1346,
    "schedules": 15260,
    "transmitter": 15530,
    "NO": 10598,
    "Royal": 12968,
    "equivoc@@": 19341,
    "rene@@": 17587,
    "cartridge": 14426,
    "attention": 1301,
    "Appeal": 5219,
    "axe": 11149,
    "reared": 16315,
    "dav@@": 12792,
    "Who@@": 18098,
    "Network": 8365,
    "ure@@": 10276,
    "Y": 2164,
    "unil@@": 16056,
    "solved": 8835,
    "surpluses": 15492,
    "contacts": 4997,
    "stair@@": 14291,
    "scheme": 885,
    "billion": 2512,
    "maneu@@": 13229,
    "while": 320,
    "rotation": 11211,
    "control": 354,
    "ic": 1183,
    "painful": 6514,
    "getting": 816,
    "accord@@": 19406,
    "jeop@@": 17965,
    "alternatives": 7833,
    "pledge": 16955,
    "agreed": 1206,
    "TI@@": 2609,
    "initiated": 3090,
    "investigative": 11566,
    "snor@@": 12225,
    "figuring": 15628,
    "bot": 13152,
    "R&@@": 17388,
    "booze": 14499,
    "instalment": 17049,
    "thouse": 9344,
    "visi@@": 9269,
    "Communities": 5698,
    "3@@": 82,
    "personally": 4861,
    "": 19563,
    "g@@": 422,
    "intelli@@": 17671,
    "invo@@": 17125,
    "aga": 9730,
    "look": 230,
    "substantially": 4465,
    "informed": 1541,
    "competences": 5954,
    "mount": 10229,
    "multilateral": 7006,
    "retrieve": 15491,
    "programmes": 847,
    "erral": 15663,
    "commence": 13402,
    "tar@@": 4079,
    "suppressed": 16819,
    "platelet": 17096,
    "attribu@@": 16452,
    "inconsistent": 10537,
    "ounding": 9560,
    "contests": 15964,
    "commercial": 1107,
    "Germans": 17115,
    "itely": 13792,
    "cid:@@": 14825,
    "credibility": 10585,
    "Export": 15684,
    "kans": 13900,
    "hin@@": 6626,
    "opens": 7697,
    "lic@@": 3613,
    "liable": 3354,
    "sta@@": 3739,
    "seems": 1575,
    "pursue": 5408,
    "individual": 794,
    "maternity": 13707,
    "atory": 3118,
    "Pharmac@@": 14788,
    "fruit": 3471,
    "de": 798,
    "ij@@": 15748,
    "differs": 11589,
    "ju@@": 2603,
    "Sy@@": 4912,
    "annulled": 6259,
    "transporter": 15226,
    "Paci@@": 19479,
    "unanim@@": 15316,
    "harvest": 7995,
    "coco@@": 17866,
    "cogn@@": 16866,
    "do@@": 1302,
    "murders": 7951,
    "prohi@@": 18423,
    "HA@@": 15657,
    "bands": 9040,
    "measures": 186,
    "correspon@@": 11789,
    "arrived": 3058,
    "Bulgaria": 8902,
    "email": 8269,
    "website": 2433,
    "sli@@": 4748,
    "forth": 5576,
    "laughter": 8966,
    "instance": 1730,
    "she": 87,
    "beasts": 12111,
    "auditor": 8841,
    "/93": 10646,
    "in": 11,
    "Fundamental": 11875,
    "fear": 1889,
    "nurse": 4479,
    "ruin": 7561,
    "gh@@": 2783,
    "myo@@": 17044,
    "Down": 15575,
    "No@@": 3654,
    "quad@@": 12642,
    "iles": 11980,
    "correlation": 11054,
    "scars": 15557,
    "suppress": 14857,
    "pin@@": 4737,
    "xon": 10722,
    "who@@": 9889,
    "zin": 15285,
    "domestic": 1658,
    "lets": 3796,
    "lower": 1127,
    "sweetie": 8565,
    "illuminated": 14855,
    "percent": 4499,
    "oke": 11958,
    "accep@@": 17770,
    "tall": 3857,
    "treacher@@": 15762,
    "DI@@": 12470,
    "suffici@@": 19234,
    "employ@@": 11447,
    "ellar": 16979,
    "internal": 857,
    "cylin@@": 17661,
    "heel": 14892,
    "dess@@": 17880,
    "geograp@@": 15176,
    "$@@": 17943,
    "tower": 4790,
    "arbitration": 5464,
    "tem@@": 5620,
    "hyper@@": 4503,
    "holes": 6301,
    "Co@@": 1717,
    "Can": 1466,
    "Blood": 14717,
    "cro@@": 3212,
    "especially": 1252,
    "kay": 18094,
    "mesh": 14228,
    "infant": 14337,
    "GF": 18678,
    "OHIM": 4817,
    "function": 1491,
    "and": 9,
    "tension": 7409,
    "engaging": 16128,
    "dings": 17156,
    "chic@@": 18226,
    "Amon@@": 19086,
    "duration": 1854,
    "memory": 2241,
    "adequately": 5768,
    "heart": 875,
    "III@@": 12878,
    "nonetheless": 17025,
    "rel@@": 3606,
    "bin@@": 5333,
    "corrupt": 10705,
    "leaders": 4975,
    "ack": 3445,
    "first": 150,
    "Lex": 13455,
    "instances": 10877,
    "sting": 3022,
    "Sure": 6057,
    "gloomy": 14480,
    "O": 1557,
    "bang": 12152,
    "grouping": 11226,
    "ity@@": 11777,
    "briefing": 15682,
    "domin@@": 7631,
    "operations": 1185,
    "jealousy": 16448,
    "cigarettes": 8106,
    "color@@": 13110,
    "metal": 2958,
    "THE": 2045,
    "partments": 19079,
    "deserves": 9001,
    "Court": 540,
    "solicitor": 14446,
    "tony": 9507,
    "Drizzt": 12770,
    "virtu@@": 17379,
    "Speci@@": 11748,
    "rout@@": 17921,
    "dividends": 7632,
    "Article": 152,
    "presti@@": 16723,
    "ys@@": 3526,
    "festival": 11359,
    "fibres": 9624,
    "systemic": 5593,
    "ender": 11387,
    "guaran@@": 15754,
    "bunk": 14153,
    "wages": 8449,
    "loses": 11201,
    "nol@@": 12416,
    "Programme": 3650,
    "module": 7096,
    "nblower": 14434,
    "equipped": 4041,
    "thes@@": 12376,
    "Tax": 13395,
    "m": 576,
    "Full": 16199,
    "huge": 2406,
    "intr@@": 11155,
    "install": 6004,
    "shortcut": 14349,
    "altitude": 11611,
    "veter@@": 16037,
    "stiff": 10875,
    "Jap@@": 19109,
    "kidnap": 16738,
    "tings": 11503,
    "statement": 1281,
    "pupp@@": 14428,
    "marketable": 15186,
    "icians": 12354,
    "OF": 2260,
    "smallest": 12468,
    "halt": 9910,
    "Wom@@": 18110,
    "participant": 7031,
    "wonder": 2916,
    "rom@@": 17952,
    "novel": 5534,
    "tour@@": 17420,
    "shelter": 7677,
    "righteous": 11521,
    "sla@@": 6137,
    "feasibility": 10628,
    "PL@@": 4720,
    "absur@@": 18780,
    "broadband": 8215,
    "itor": 9481,
    "fishing": 1121,
    "temporary": 2002,
    "danger": 3044,
    "connects": 16306,
    "Innovation": 13987,
    "hardest": 12938,
    "dic": 9771,
    "instrument": 1761,
    "cardboard": 17231,
    "israel": 12530,
    "avenue": 16171,
    "configure": 9064,
    "accession": 3099,
    "#@@": 18070,
    "relieve": 11754,
    "scouts": 16861,
    "add@@": 7530,
    "POR@@": 13850,
    "ung": 4244,
    "providers": 3310,
    "domain": 4848,
    "amazement": 13320,
    ":30": 7516,
    "Setup": 13168,
    "beg": 6937,
    "network": 991,
    "copies": 4711,
    "Cul@@": 15841,
    "cruise": 13360,
    "Collec@@": 16568,
    "dreadful": 12240,
    "bicycle": 9774,
    "III": 1866,
    "painted": 6841,
    "choice": 1622,
    "helpful": 6247,
    "Team": 14188,
    "distributor": 15253,
    "tions": 1170,
    "fab@@": 12701,
    "distant": 5231,
    "thee": 16264,
    "adjusting": 9822,
    "awards": 15549,
    "cus": 7904,
    "tto": 13082,
    "Decree": 10697,
    "Gar@@": 6802,
    "repairing": 14244,
    "Recital": 16731,
    "echan@@": 19119,
    "gram": 8109,
    "chlorothiazide": 18869,
    "walk": 1735,
    "ML@@": 15920,
    "risked": 15749,
    "awaits": 14664,
    "bathroom": 4381,
    "friends": 864,
    "ities": 6572,
    "Nov@@": 18192,
    "product": 356,
    "knight": 9786,
    "Finan@@": 17543,
    "mouths": 14659,
    "to": 8,
    "terribly": 7539,
    "packs": 8031,
    "Randy": 16161,
    "insulin": 4435,
    "expenses": 3316,
    "approval": 1238,
    "reached": 1261,
    "setting": 1326,
    "chasing": 8115,
    "ong": 4031,
    "pson": 16728,
    "tele@@": 5004,
    "disman@@": 18354,
    "alists": 12435,
    "sword@@": 11183,
    "drawn": 2001,
    "dam@@": 5222,
    "costume": 10260,
    "tissue": 5253,
    "compression": 15352,
    "sweat": 6906,
    "revis@@": 18840,
    "affecting": 3955,
    "jac@@": 7972,
    "mix@@": 17979,
    "create": 1314,
    "sensitivity": 9493,
    "t]he": 14588,
    "innocent": 4368,
    "awake": 7549,
    "travel": 2190,
    "introduction": 2464,
    "stly": 8197,
    "garbage": 8594,
    "seeds": 8599,
    "choices": 7851,
    "palms": 13587,
    "gripped": 12799,
    "simplify": 8628,
    "stains": 14539,
    "hen": 13986,
    "sized": 3314,
    "Secon@@": 18352,
    "suppression": 15049,
    "nominated": 14896,
    "silicon": 14909,
    "currencies": 11784,
    "proportionately": 14673,
    "wednesday": 16219,
    "stays": 6724,
    "transformation": 6255,
    "novel@@": 9654,
    "convinced": 3873,
    "dizz@@": 18778,
    "eng@@": 5054,
    "Whenever": 15961,
    "pet": 8704,
    "factors": 1668,
    "live": 699,
    "rapporteur": 9985,
    "writers": 16469,
    "ef": 10838,
    "expecting": 5429,
    "d": 464,
    "XIII": 16575,
    "Horiz@@": 14351,
    "women": 803,
    "trademark": 12961,
    "begin@@": 17475,
    "bot@@": 12003,
    "ex": 1508,
    "U.@@": 17919,
    "col": 17700,
    "Annex": 764,
    "accustom@@": 19555,
    "establish@@": 18950,
    "conditional": 6756,
    "neighbors": 9677,
    "thought@@": 13926,
    "apparent": 2853,
    "teacher": 4105,
    "subject": 390,
    "dict": 8990,
    "mary": 4800,
    "feared": 9425,
    "opathy": 17057,
    "principally": 13225,
    "Mars": 13968,
    "on@@": 604,
    "insisted": 8382,
    "Too": 9023,
    "py@@": 4913,
    "busted": 14269,
    "bella": 16155,
    "climb": 6052,
    "ratt@@": 12755,
    "issues": 1139,
    "Public": 6827,
    "rushing": 13753,
    "higher": 859,
    "disability": 9436,
    "consists": 4135,
    "generating": 10363,
    "lay@@": 9828,
    "Decision": 1071,
    "shold": 19293,
    "understand": 677,
    "commodi@@": 19332,
    "eliness": 14066,
    "menting": 11268,
    "acceptance": 4507,
    "view@@": 13164,
    "whispered": 6126,
    "remarkable": 9401,
    "ches": 2501,
    "backup": 7757,
    "elix": 15998,
    "awaiting": 12846,
    "cried": 5280,
    "Fri@@": 10656,
    "Nature": 15230,
    "Does": 3669,
    "pizza": 8956,
    "invent@@": 19241,
    "Army": 11053,
    "serbia": 16881,
    "fix": 2700,
    "Next": 6467,
    "medit@@": 14241,
    "Stay": 9398,
    "savage": 14303,
    "dwarf": 8848,
    "thirdly": 10437,
    "operated": 4229,
    "reng@@": 14449,
    "ordan": 19055,
    "pneum@@": 13733,
    "issuing": 3869,
    "notably": 5251,
    "Is@@": 7338,
    "Chan@@": 7592,
    "unfounded": 7217,
    "P": 1159,
    "sovereign@@": 19031,
    "surrendered": 15996,
    "comp@@": 3493,
    "treasure": 8127,
    "From": 2815,
    "inspector": 7702,
    "ristopher": 17187,
    "suggested": 4919,
    "An": 1695,
    "ough@@": 11117,
    "Accord@@": 19532,
    "upgrading": 13424,
    "postpon@@": 14494,
    "virtue": 5415,
    "viewed": 10162,
    "formulated": 12534,
    "Turn": 13184,
    "definitively": 11627,
    "relation": 1192,
    "Good": 2105,
    "constructed": 6209,
    "exhaust": 6762,
    "cyclo@@": 16050,
    "pieces": 3404,
    "accreditation": 8678,
    "ON": 5256,
    "systematic": 5929,
    "Gro@@": 10345,
    "issue": 664,
    "misses": 16898,
    "_@@": 2361,
    "started": 828,
    "needing": 16287,
    "molecular": 13122,
    "reproduced": 15251,
    "CYP3A4": 10777,
    "promotional": 15511,
    "eyed": 9846,
    "thieves": 12396,
    "refri@@": 19556,
    "differential": 17183,
    "exploration": 10069,
    "markets": 1044,
    "Specific": 7347,
    "illusion": 12664,
    "let@@": 4128,
    "at@@": 730,
    "sand@@": 8280,
    "skip": 10287,
    "buttons": 10055,
    "independently": 6892,
    "comprehensible": 15096,
    "surr@@": 14729,
    "sers": 16984,
    "microsoft": 7170,
    "neck": 2436,
    "accidents": 6561,
    "l": 605,
    "fitted": 4764,
    "useful": 2740,
    "iland": 16160,
    "sero@@": 12745,
    "tile": 6610,
    "necess@@": 12026,
    "lia": 6248,
    "ging": 3325,
    "actors": 3664,
    "inev@@": 18841,
    "transmitted": 4343,
    "voting": 5332,
    "Page": 15513,
    "Legal": 6107,
    "entries": 6434,
    "wan@@": 4795,
    "accrued": 13638,
    "ational": 7744,
    "equal": 1347,
    "reveal": 5991,
    "usal": 18045,
    "sugar": 2337,
    "police": 1059,
    "cheap": 7076,
    "busin@@": 19445,
    "cla@@": 9962,
    "Consul@@": 13407,
    "cre@@": 2332,
    "Ga@@": 13307,
    "served": 2715,
    "framed": 15330,
    "confess": 8946,
    "workplace": 11643,
    "text": 1300,
    "mention": 3217,
    "strial": 17391,
    "monthly": 5612,
    "Lab@@": 10917,
    "specimen": 9595,
    "distracted": 15500,
    "ollen": 18866,
    "Total": 7638,
    "taining": 7608,
    "authorised": 1274,
    "lene": 7251,
    "bitch": 2451,
    "cry": 4374,
    "fetch": 12486,
    "transplantation": 15583,
    "esis": 11762,
    "^": 19249,
    "taxpay@@": 18861,
    "economics": 12663,
    "tro": 16132,
    "anian": 6991,
    "authoriz@@": 18079,
    "settings": 3985,
    "ons": 1309,
    "woods": 4417,
    "reduce": 1422,
    "aphy@@": 18741,
    "collec@@": 7224,
    "hing": 5671,
    "OP": 11824,
    "awk@@": 18130,
    "are@@": 3540,
    "umulation": 17269,
    "twins": 11228,
    "increasing": 1726,
    "undergoing": 12217,
    "He@@": 2898,
    "constitute": 1778,
    "Slo@@": 9414,
    "event": 795,
    "consumer": 1352,
    "powerful": 2915,
    "ophie": 11771,
    "suicidal": 12978,
    "country@@": 17670,
    "Britain": 14149,
    "whoever": 4906,
    "wig": 12660,
    "participate": 3336,
    "single": 691,
    "online": 3266,
    "idal": 16411,
    "sample": 1944,
    "these": 133,
    "honeymoon": 15517,
    "ACE": 8611,
    "emergency": 2217,
    "Section": 3016,
    "extrapol@@": 15129,
    "frac@@": 17761,
    "asked": 521,
    "DU@@": 12315,
    "supporting": 2401,
    "tackling": 13234,
    "una": 10017,
    "processing": 1398,
    "rock": 2559,
    "conjunction": 6614,
    "absence": 1880,
    "oli@@": 10575,
    "sacri@@": 18716,
    "IR": 13555,
    "cash": 1494,
    "ML": 16044,
    "disappearance": 12958,
    "acks": 7393,
    "pol": 11250,
    "\\": 17704,
    "EX": 15127,
    "mistress": 10020,
    "defect": 12432,
    "banks": 1929,
    "fraudul@@": 18945,
    "supplements": 11540,
    "Jordan": 15284,
    "goodwill": 13513,
    "rel": 7307,
    "book": 1124,
    "keeper": 7877,
    "demption": 19316,
    "vi": 14468,
    "kitch@@": 15329,
    "dra@@": 4783,
    "flu": 12487,
    "tide": 7896,
    "Austrian": 10649,
    "vacu@@": 18465,
    "absent": 11085,
    "AR@@": 2434,
    "municipalities": 9322,
    "laugh@@": 14770,
    "pivo@@": 16266,
    "tourists": 13246,
    "debris": 17216,
    "ask": 575,
    "mrs.": 3011,
    "ming@@": 13927,
    "Ans@@": 19420,
    "cosmetic": 14267,
    "invoice": 8023,
    "cage": 8093,
    "stricts": 17135,
    "persuaded": 12813,
    "tical": 3785,
    "standardis@@": 18731,
    "execution": 3303,
    "behaved": 15449,
    "rude": 10050,
    "iry": 19118,
    "ce": 2540,
    "promoting": 2251,
    "Exam@@": 10318,
    "myth": 16547,
    "heav@@": 10839,
    "Wor@@": 5752,
    "new": 168,
    "scores": 11860,
    "Z": 4437,
    "came": 328,
    "cor@@": 1954,
    "typical": 5760,
    "peti@@": 16178,
    "ering": 3239,
    "family--": 13938,
    "techno@@": 16963,
    "EUROP@@": 17517,
    "environment": 1013,
    "indigenous": 15240,
    "ori": 7846,
    "reposit@@": 18408,
    "profitable": 8662,
    "defi@@": 15838,
    "lee": 8800,
    "medic@@": 8621,
    "ica": 4399,
    "ethan@@": 18334,
    "ght@@": 13336,
    "plastic": 3989,
    "Spec@@": 11732,
    "ana@@": 8644,
    "own": 255,
    "paris": 6395,
    "reward": 6645,
    "long@@": 10027,
    "conflicts": 6425,
    "perimeter": 10369,
    "transient": 11978,
    "Ah": 5564,
    "ount": 12906,
    "harassment": 14699,
    "heartbeat": 10576,
    "territ@@": 18289,
    "mysteries": 15281,
    "surrender": 6928,
    "cooperative": 9180,
    "competencies": 16150,
    "bren@@": 15174,
    "gives": 2218,
    "Em@@": 9391,
    "satisfied": 3549,
    "ow@@": 3788,
    "cyclical": 15122,
    "servicing": 16700,
    "wn": 3992,
    "acher": 9058,
    "viability": 6037,
    "conduct": 1785,
    "lot@@": 9683,
    "Item": 16828,
    "saf@@": 18604,
    "January": 2331,
    "scott": 12707,
    "dic@@": 2956,
    "adaptations": 16093,
    "vitam@@": 19068,
    "align": 12322,
    "chest": 3331,
    "modal": 13528,
    "Ori@@": 11696,
    "park": 3681,
    "ever@@": 14140,
    "delic@@": 15120,
    "preamble": 5212,
    "liberty": 8190,
    "Exchange": 14893,
    "IDs": 15067,
    "sia": 5067,
    "ben": 5385,
    "ugly": 5187,
    "Value": 13433,
    "Mor@@": 3936,
    "yeah": 393,
    "comfortably": 13019,
    "dice": 12899,
    "invoke": 16608,
    "realized": 2532,
    "ull": 10301,
    "repeated": 3868,
    "Develop@@": 17628,
    "omis@@": 13605,
    "Min@@": 6781,
    "granting": 2684,
    "cigar": 14614,
    "probability": 7618,
    "ppers": 10100,
    "observed": 1635,
    "ize": 4679,
    "surveys": 9032,
    "furnished": 15436,
    "az@@": 2326,
    "dumped": 4287,
    "perfect": 2201,
    "Inser@@": 16353,
    "fraudulent": 13323,
    "bean": 7844,
    "bub@@": 16058,
    "ator": 1585,
    "approximate": 15723,
    "Im@@": 3424,
    "coast": 5354,
    "insured": 8013,
    "posts": 7099,
    "fuck": 1448,
    "balances": 13871,
    "prospects": 7721,
    "CN@@": 10410,
    "mur@@": 4278,
    "braltar": 14164,
    "rubbed": 9657,
    "hyp@@": 11682,
    "fisher@@": 17665,
    "happy": 1168,
    "ED": 5394,
    "nostrils": 14057,
    "sor": 16198,
    "emphasised": 14856,
    "flour": 15218,
    "USD": 11655,
    "junc@@": 11109,
    "organising": 9503,
    "greet": 15612,
    "ap": 6444,
    "engers": 17908,
    "complaint": 2510,
    "wrongly": 11553,
    "cracked": 10559,
    "Eur@@": 18249,
    "door": 623,
    "phoned": 10902,
    "SC@@": 6916,
    "understandable": 12767,
    "th@@": 752,
    "wick": 14755,
    "suspend": 7342,
    "clinic": 7696,
    "slaughtered": 11362,
    "rejects": 14399,
    "forcing": 11314,
    "jeopardised": 17169,
    "love@@": 17528,
    "resulted": 4117,
    "led@@": 13872,
    "rests": 16698,
    "vehic@@": 17768,
    "scienti@@": 15595,
    "disparities": 12781,
    "month@@": 11790,
    "degrees": 5677,
    "tailor": 15990,
    "albe@@": 19397,
    "autum@@": 19425,
    "made": 175,
    "draw@@": 11132,
    "perceive": 16546,
    "tarial": 14166,
    "illegally": 12937,
    "enti@@": 5409,
    "nor@@": 4112,
    "perce@@": 18478,
    "out": 59,
    "tox@@": 10637,
    "facilitating": 4850,
    "speci@@": 4807,
    "Dre@@": 14245,
    "chair": 2392,
    "observes": 7678,
    "visits": 6064,
    "shorts": 14693,
    "Dig@@": 15756,
    "Israel": 11603,
    "neighb@@": 17696,
    "bearable": 15237,
    "biological": 4616,
    "umul@@": 18887,
    "Vice": 15147,
    "boots": 5758,
    "cross": 1057,
    "studio": 7734,
    "amer": 15242,
    "CoR": 10732,
    "fying": 4600,
    "poin@@": 7212,
    "warp": 12196,
    "squee@@": 17615,
    "emis@@": 14692,
    "Services": 7709,
    "filthy": 9083,
    "sudden": 3584,
    "blamed": 15412,
    "ico": 16570,
    "solid": 3886,
    "screens": 13181,
    "tations": 4459,
    "hypersensitivity": 11720,
    "revolu@@": 12512,
    "Management": 5390,
    "Ab@@": 5553,
    "stop@@": 10687,
    "tick": 13296,
    "Will": 3712,
    "bone": 3241,
    "tians": 12288,
    "pit": 7496,
    "professor": 5672,
    "defensive": 11204,
    "slightly": 3466,
    "ptions": 7301,
    "teeth": 3343,
    "calm": 3655,
    "purpose": 566,
    "aths": 18031,
    "hen@@": 5975,
    "entrepreneur@@": 17350,
    "f@@": 609,
    "speculation": 16148,
    "tribun@@": 16421,
    "OT@@": 9299,
    "faded": 9711,
    "substitu@@": 9382,
    "ker@@": 5878,
    "detectives": 15782,
    "SMEs": 2694,
    "Costs": 14298,
    "+@@": 6740,
    "lever": 17209,
    "what": 60,
    "hesitated": 10811,
    "thresholds": 7523,
    "erated": 13065,
    "pop@@": 15462,
    "regimes": 10400,
    "Cat@@": 11401,
    "eral": 12754,
    "predec@@": 15088,
    "Young": 12443,
    "employe@@": 17742,
    "restrictive": 4595,
    "valuable": 5581,
    "drun@@": 14768,
    "greatly": 9474,
    "define": 3619,
    "secur@@": 18539,
    "van@@": 3927,
    "confusing": 14386,
    "inti@@": 17612,
    "planets": 8786,
    "lap@@": 11519,
    "over": 172,
    "promising": 8978,
    "cau@@": 17654,
    "kids": 1249,
    "endure": 16109,
    "efully": 16484,
    "presents": 9349,
    "labelling": 4241,
    "pressures": 10114,
    "urs": 10074,
    "preh@@": 19257,
    "Of": 2342,
    "feeding@@": 18556,
    "bat": 9692,
    "cent@@": 18029,
    "gesture": 8852,
    "struction": 13545,
    "pipes": 8176,
    "silic@@": 15645,
    "liver": 3616,
    "short@@": 6897,
    "resting": 8120,
    "fostering": 10829,
    "half@@": 17304,
    "separate": 1721,
    "For": 530,
    "reve@@": 13572,
    "under": 119,
    "Sat@@": 10457,
    "Direc@@": 7044,
    "prisoner": 7385,
    "Tu@@": 11640,
    "deception": 13187,
    "photo@@": 9784,
    "doorway": 5474,
    "angles": 12993,
    "aggregated": 12412,
    "preli@@": 18979,
    "Help": 8950,
    "zegovina": 13930,
    "oured": 10081,
    "removed": 2378,
    "io@@": 11721,
    "bar": 1862,
    "metab@@": 19158,
    "screwing": 14967,
    "grac@@": 14475,
    "wife": 855,
    "confidence": 3431,
    "admit": 3311,
    "parties": 400,
    "everybody": 2514,
    "loy@@": 17501,
    "thorough@@": 18771,
    "pref@@": 18023,
    "conspic@@": 18683,
    "imports": 1283,
    "Excuse": 5992,
    "idly": 18692,
    "ually": 10507,
    "fleet": 3515,
    "pregnant": 3355,
    "Joe": 6099,
    "co@@": 693,
    "unlock": 14162,
    "tively": 4224,
    "descrip@@": 17556,
    "suspicious": 7727,
    "nanny": 15953,
    "ound@@": 12273,
    "competing": 6585,
    "circle": 4178,
    "shortage": 12146,
    "Andy": 12343,
    "brutal": 12632,
    "assemblies": 16711,
    "sign": 1308,
    "tem": 17455,
    "adopts": 12622,
    "failures": 7658,
    "swords": 10926,
    "glucose": 7062,
    "DO@@": 14700,
    "many": 369,
    "Dou@@": 8853,
    "december": 1890,
    "milligrams": 13734,
    "conform": 8521,
    "tents": 17279,
    "kosovo": 14730,
    "residency": 18240,
    "still": 220,
    "Kyo@@": 17236,
    "plunged": 11131,
    "diagnosed": 16254,
    "measu@@": 14873,
    "negotiations": 2737,
    "bited": 14443,
    "beau@@": 11210,
    "Roy@@": 18474,
    "motionless": 14350,
    "needed": 867,
    "Mex@@": 15698,
    "symbol": 5745,
    "AIDS": 13779,
    "ups": 8828,
    "approximation": 12296,
    "supper": 7955,
    "mm": 2333,
    "Len@@": 15408,
    "manner": 1736,
    "seekers": 13054,
    "nightma@@": 19113,
    "logist": 9797,
    "TM@@": 16374,
    "touching": 7448,
    "broadly": 9106,
    "ames": 10538,
    "slo@@": 5208,
    "awoke": 15404,
    "contributes": 6215,
    "helpless": 11287,
    "bic@@": 11243,
    "correspondence": 9497,
    "transactions": 1640,
    "zi": 12954,
    "tories": 12756,
    "ologist": 16512,
    "representa@@": 17301,
    "dreamed": 8702,
    "systematically": 8519,
    "ilit@@": 10148,
    "assess": 1939,
    "Br@@": 9464,
    "restart": 11888,
    "wonder@@": 17565,
    "Pur@@": 12193,
    "happening": 2785,
    "methodologies": 9120,
    "mix": 6305,
    "English": 4669,
    "south@@": 11345,
    "pho@@": 5404,
    "esome": 14011,
    "rek": 12999,
    "undue": 7790,
    "accommodate": 14489,
    "handing": 14292,
    "contained": 1909,
    "OD@@": 7755,
    "topo@@": 16894,
    "enter@@": 7143,
    "stran@@": 8461,
    "deli@@": 7106,
    "fragments": 11770,
    "treatments": 9066,
    "va@@": 5714,
    "cyber@@": 15702,
    "rusty": 14433,
    "Let": 1324,
    "headache": 9438,
    "ine": 758,
    "proud": 3373,
    "sie@@": 14728,
    "/EC": 757,
    "aid": 231,
    ".i": 14458,
    "skull": 5999,
    "losis": 18274,
    "W": 3017,
    "infl@@": 13493,
    "induce": 11213,
    "Guys": 13361,
    "placed": 1659,
    "SNCM": 15794,
    "profile": 3375,
    "maxim@@": 12241,
    "conclu@@": 18639,
    "advancing": 15634,
    "EBA": 12939,
    "fiers": 12713,
    "tim": 16978,
    "pp@@": 3811,
    "offense": 12871,
    "comment": 5230,
    "De": 16572,
    "bundle": 13415,
    "ide@@": 4540,
    "incar@@": 16764,
    "ghter": 12096,
    "CS": 9930,
    "love": 403,
    "asleep": 3844,
    "comprises": 8808,
    "flip": 12513,
    "reaches": 8182,
    "intend": 5855,
    "I-@@": 17241,
    "resale": 15374,
    "missiles": 8430,
    "inhabit@@": 18173,
    "stunning": 16322,
    "Hall": 13310,
    "Cap@@": 6166,
    "tland": 9067,
    "evolved": 12806,
    "tum": 10186,
    "com@@": 1878,
    "identi@@": 16517,
    "genius": 8163,
    "traded": 8062,
    "consolidated": 5748,
    "Harmon@@": 13226,
    "chess": 11708,
    "declarations": 4640,
    "Af@@": 15772,
    "contractual": 3084,
    "Vimes": 17131,
    "clarified": 5834,
    "endan@@": 18218,
    "foreseeable": 7086,
    "thrust": 11878,
    "resur@@": 18997,
    "FL@@": 11191,
    "retri@@": 9047,
    "acquiring": 8432,
    "rou@@": 5647,
    "remedied": 15152,
    "cows": 10599,
    "Indian": 9107,
    "formations": 15405,
    "imposing": 5718,
    "elec@@": 9317,
    "Swe@@": 14989,
    "robes": 13754,
    "ached": 8076,
    "counterfeiting": 15849,
    "several": 899,
    "moved": 1543,
    "HT@@": 15525,
    "grassland": 16211,
    "ther@@": 3813,
    "ffec@@": 19141,
    "updating": 7992,
    "deterior@@": 10381,
    "measure": 658,
    "vibr@@": 9789,
    "message": 1503,
    "situation": 567,
    "erec@@": 10854,
    "dark": 1070,
    "elev@@": 8520,
    "al@@": 504,
    "ficial": 17404,
    "tractor": 8255,
    "oming": 10001,
    "restriction": 3634,
    "turns": 3755,
    "ahead": 2058,
    "if@@": 13257,
    "aker": 6874,
    "programmed": 12610,
    "simultaneously": 7132,
    "terrorism": 5683,
    "north": 2382,
    "hall": 3301,
    "Cham@@": 16084,
    "detection": 5817,
    "sauce": 11093,
    "upgraded": 15040,
    "distorted": 8883,
    "wat@@": 7127,
    "cycl@@": 15700,
    "desper@@": 18200,
    "ered": 5720,
    "implemen@@": 18743,
    "pistol": 7430,
    "child": 660,
    "Un@@": 3498,
    "ai@@": 2041,
    "anna": 5439,
    "assassin": 10341,
    "PT": 15836,
    "Nick": 10045,
    "eleg@@": 18306,
    "activation": 8457,
    "par": 13014,
    "economically": 6726,
    "oy@@": 13583,
    "results": 719,
    "priced": 16210,
    "ko": 4214,
    "Hell": 10358,
    "superseded": 14955,
    "weighted": 7147,
    "jet": 10541,
    "Ea@@": 18824,
    "regulate": 9926,
    "mug": 17268,
    "today": 632,
    "stru@@": 16077,
    "amine": 11107,
    "amen@@": 13418,
    "dians": 10745,
    "hydrogen": 6890,
    "production": 438,
    "Whit@@": 14407,
    "enemies": 5037,
    "and/or": 1264,
    "compu@@": 7940,
    "conven@@": 12750,
    "armour": 14117,
    "PNR": 14576,
    "Instead": 7946,
    "Nations": 9527,
    "here@@": 5530,
    "L@@": 374,
    "chaos": 9725,
    "Paris": 6485,
    "got": 141,
    "roma": 14891,
    "heroes": 9732,
    "rebel": 16086,
    "tea": 4077,
    "monitoring": 979,
    "skinny": 11659,
    "firm": 2896,
    "cho": 14156,
    "ta@@": 1186,
    "somewhat": 6745,
    "everything": 443,
    "whel@@": 19092,
    "Order": 9976,
    "breath@@": 17088,
    "dispos@@": 14405,
    "temper": 15478,
    "Jones": 15222,
    "anners": 13960,
    "suitcase": 11688,
    "Minist@@": 12319,
    "ba": 5301,
    "ll": 3610,
    "killed": 763,
    "fascinating": 15015,
    "debit": 15982,
    "yearly": 9406,
    "carter": 12870,
    "supplementary": 4924,
    "protecting": 3525,
    "Mu@@": 7018,
    "collater@@": 16814,
    "works": 1370,
    "nai@@": 16620,
    "bil@@": 4730,
    "factories": 14195,
    "face": 459,
    "Adam": 12779,
    "external": 1395,
    "medium": 1931,
    "scenari@@": 18976,
    "addiction": 16429,
    "unfavourable": 16220,
    "samur@@": 16107,
    "Well": 421,
    "Class": 9293,
    "influenza": 8992,
    "phy": 8658,
    "gotten": 3726,
    "mirac@@": 11162,
    "removing": 5411,
    "Tech@@": 18832,
    "accompl@@": 12927,
    "left": 366,
    "vable": 9833,
    "feel": 509,
    "expects": 11945,
    "September": 3144,
    "calcium": 8674,
    "P@@": 284,
    "win@@": 3477,
    "tre@@": 2569,
    "excluding": 4520,
    "las@@": 5627,
    "SA@@": 5461,
    "SME": 7166,
    "ius": 15915,
    "green@@": 8017,
    "federation": 7726,
    "OL@@": 5442,
    "yel@@": 8386,
    "TH@@": 5097,
    "bag": 2274,
    "haw@@": 13163,
    "jordan": 15459,
    "walter": 11942,
    "prohibiting": 12188,
    "storm": 4404,
    "backyard": 11680,
    "releasing": 17019,
    "Foundation": 14957,
    "jo@@": 2580,
    "Joey": 15813,
    "esh": 14339,
    "information": 146,
    "concluded": 1111,
    "French": 2837,
    "gates": 6437,
    "class@@": 10262,
    "reconciliation": 11802,
    "laptop": 11957,
    "evolution": 4583,
    "pirates": 15150,
    "ten": 1115,
    "Edward": 10321,
    "translated": 9484,
    "ats": 2880,
    "alone": 850,
    "Products": 11399,
    "Ladies": 10367,
    "thereby": 3357,
    "causal": 10709,
    "Ac@@": 3193,
    "Imperial": 15103,
    "newly": 6635,
    "dag@@": 15600,
    "dol@@": 6875,
    "companion": 8745,
    "tac@@": 4773,
    "simplified": 6387,
    "compromised": 12776,
    "discus@@": 18695,
    "picture": 1922,
    "julia": 16057,
    "dle": 14567,
    "stability": 2711,
    "inform": 1556,
    "nap": 14911,
    "tedness": 16259,
    "Bri@@": 5232,
    "invalid": 5013,
    "cooperated": 15099,
    "easier": 3170,
    "fury": 12585,
    "honest": 3723,
    "objection": 5496,
    "wid@@": 14268,
    "approximately": 2604,
    "max@@": 12104,
    "facilit@@": 14148,
    "weights": 13147,
    "benefici@@": 19011,
    "helpl@@": 16532,
    "mean": 290,
    "statements": 2529,
    "integrate": 9458,
    "butter@@": 10668,
    "eviden@@": 14177,
    "IL@@": 6084,
    "Ser@@": 7268,
    "ing": 365,
    "transp@@": 18379,
    "pretended": 13787,
    "word": 924,
    "juven@@": 18177,
    "barriers": 5073,
    "Glo@@": 17860,
    "resolving": 9913,
    "amounting": 6925,
    "raises": 9404,
    "ged": 3158,
    "diag@@": 17531,
    "clouds": 6030,
    "injured": 6208,
    "ID@@": 5396,
    "intense": 9297,
    "PRODUCT@@": 15185,
    "dig@@": 7078,
    "ural": 7806,
    "helping": 2971,
    "consultations": 4563,
    "stor@@": 9766,
    "ked": 1827,
    "die": 938,
    "feedingstuffs": 11134,
    "traces": 8560,
    "artist": 7741,
    "estly": 17868,
    "piano": 10772,
    "vein": 12853,
    "tion'": 4111,
    "salesman": 16778,
    "Plan": 6749,
    "merged": 8727,
    "Lake": 16054,
    "ancies": 11541,
    "consuming": 16246,
    "Spanish": 5337,
    "icans": 17423,
    "pain@@": 5281,
    "calcul@@": 15497,
    "burned": 4219,
    "boost": 9356,
    "crews": 14479,
    "ves": 1842,
    "Book": 15121,
    "room": 475,
    "repair": 5523,
    "warmth": 10622,
    "Hist@@": 15881,
    "worsen@@": 18396,
    "establishing": 1737,
    "E.": 15973,
    "remem@@": 17936,
    "9": 169,
    "jured": 18753,
    "banana": 12182,
    "cob@@": 12668,
    "nel": 7046,
    "stat": 17474,
    "including": 312,
    "spil@@": 15375,
    "pardon": 10984,
    "politically": 15035,
    "neur@@": 13404,
    "wipe": 8782,
    "otherwise": 1675,
    "DG": 4335,
    "cipi@@": 18929,
    "Outturn": 15883,
    "damp": 10689,
    "objectively": 9454,
    "\"@@": 6366,
    "correct": 2245,
    "counsel": 8177,
    "ush": 8561,
    "hard@@": 7609,
    "skill": 7810,
    "explode": 11610,
    "celebration": 13101,
    "discretion": 3290,
    "somebody": 1632,
    "B.": 9708,
    "employers": 6541,
    "blankets": 14459,
    "opes": 14703,
    "like": 80,
    "Home": 13659,
    "recorder": 17068,
    "stic@@": 8838,
    "section": 698,
    "ga@@": 2498,
    "v.": 11115,
    "solutions": 3274,
    "rest@@": 10472,
    "fru@@": 6093,
    "senior": 5381,
    "EUR@@": 6851,
    "nine": 2705,
    "graduate": 12309,
    "ack@@": 5996,
    "MA": 10184,
    "regarded": 1713,
    "reliability": 6950,
    "scratched": 15831,
    "effor@@": 18803,
    "sucks": 11599,
    "interf@@": 19523,
    "stairway": 13069,
    "gods": 4634,
    "ys": 2960,
    "attr@@": 11861,
    "mechanisms": 2987,
    "departed": 13248,
    "according": 432,
    "tourism": 5248,
    "marshall": 15508,
    "circling": 14398,
    "Guy": 17016,
    "juana": 17240,
    "sieur": 14553,
    "bodies": 898,
    "Ver@@": 4892,
    "excludes": 11145,
    "buddies": 9399,
    "ium": 4463,
    "multiannual": 7579,
    "ref@@": 4016,
    "armed": 3514,
    "hitting": 9214,
    "invitation": 4754,
    "take": 135,
    "sity": 9522,
    "cheat": 13335,
    "IFRS": 9928,
    "necessary": 236,
    "C": 995,
    "eve": 7921,
    "where": 114,
    "rough": 6320,
    "UL@@": 8114,
    "bud@@": 10475,
    "carrying": 1707,
    "monitor": 2629,
    "chronic": 6940,
    "Van": 13683,
    "twice": 2386,
    "kyo": 15432,
    "assumed": 4190,
    "quis@@": 10631,
    "ISL": 19559,
    "fisc@@": 19132,
    "magic": 2894,
    "scul@@": 18788,
    "s@@": 318,
    "dical": 15033,
    "observation": 6518,
    "steve": 10747,
    "prey": 12646,
    "perceived": 9113,
    "juris@@": 18091,
    "excessive": 3605,
    "gul@@": 10169,
    "gifts": 8525,
    "believing": 8283,
    "fight": 1020,
    "infringe": 11008,
    "lor": 14124,
    "prerequisite": 10003,
    "carpet": 9276,
    "vap@@": 8778,
    "bies": 13192,
    "apers": 17550,
    "specification": 5236,
    "ang": 4030,
    "Assess@@": 19127,
    "ays": 5587,
    "period": 229,
    "sensi@@": 17339,
    "spring": 3979,
    "ice": 1520,
    "education": 1196,
    "legacy": 13758,
    "asters": 18085,
    "moment": 722,
    "Offic@@": 17865,
    "seminar": 15785,
    "severe": 2862,
    "ship": 648,
    "Dat@@": 15409,
    "answers": 4558,
    "dropping": 8564,
    "execu@@": 8638,
    "anything": 300,
    "activities": 375,
    "odo@@": 10805,
    "imperial": 11458,
    "depreci@@": 17859,
    "scanning": 15857,
    "poie@@": 17042,
    "tin@@": 4274,
    "cute": 6194,
    "arrival": 5880,
    "ment@@": 2979,
    "broken": 2186,
    "meet": 611,
    "subsidiary": 3921,
    "masters": 9328,
    "connectivity": 14170,
    "In@@": 1021,
    ",5": 5830,
    "operation": 776,
    "etheless": 18331,
    "mitting": 17637,
    "Parlia@@": 16797,
    "vigor@@": 18005,
    "territorial": 3648,
    "8@@": 134,
    "helmet": 10066,
    "secretary": 4631,
    "expressly": 4115,
    "ballo@@": 17647,
    "consultation": 2236,
    "questioning": 9033,
    "feedback": 12589,
    "clarify": 5826,
    "jeal@@": 19152,
    "/2004": 2918,
    "shud@@": 17678,
    "toast": 9702,
    "WHO": 16226,
    "consist@@": 19386,
    "IN@@": 2228,
    "dum": 8055,
    "consor@@": 17013,
    "Statute": 12030,
    "ade@@": 9663,
    "precisely": 4378,
    "angela": 16252,
    "directory": 4489,
    "ess": 3207,
    "hits": 8718,
    "whisper": 11087,
    "breaking": 5361,
    "G": 1667,
    "defen@@": 10323,
    "graphy": 10980,
    "organisations": 1156,
    "need@@": 16333,
    "cloak": 7569,
    "valley": 5604,
    "compensated": 9756,
    "eliminating": 13471,
    "bio@@": 2616,
    "inters": 13243,
    "autumn": 8585,
    "completely": 1278,
    "Also": 6556,
    "suspicion": 7252,
    "prehen@@": 18384,
    "uniform": 2555,
    "representing": 4240,
    "Dri@@": 11819,
    "OS@@": 4649,
    "announced": 3774,
    "Uh": 2982,
    "Plus": 11632,
    "transmit@@": 17852,
    "mutandis": 9939,
    "sor@@": 3527,
    "NG": 11010,
    "mirrors": 13141,
    "boiled": 16268,
    "eg@@": 2379,
    "hero@@": 13431,
    "essenti@@": 18728,
    "DE": 10253,
    "tricks": 10624,
    "agrap@@": 19450,
    "pur@@": 4715,
    "wrec@@": 17584,
    "Development": 5558,
    "climbed": 5486,
    "IU@@": 17601,
    "commodity": 12444,
    "fortune": 6767,
    "aned": 11284,
    "hurled": 16510,
    "adequ@@": 19227,
    "Quality": 16311,
    "implications": 6985,
    "vaccines": 11370,
    "triggered": 8101,
    "ember": 19296,
    "finger@@": 7321,
    "shorter": 7285,
    "assassination": 16143,
    "chicks": 9864,
    "realm": 11977,
    "challeng@@": 19219,
    "tube": 6898,
    "owner": 3202,
    "optimistic": 16945,
    "down@@": 5367,
    "neutropen@@": 19043,
    "daily": 2072,
    "c-@@": 9506,
    "watched": 2372,
    "stum@@": 12355,
    "petty": 15235,
    "tugu@@": 19358,
    "accused": 6182,
    "events": 1725,
    "his@@": 13751,
    "revenues": 5387,
    "Surveillance": 15839,
    "fastest": 15885,
    "murderer": 7829,
    "vitiated": 15156,
    "auxili@@": 18409,
    "construction": 2255,
    "ller": 13951,
    "torture": 7524,
    "by": 32,
    "opened": 1489,
    "informal": 9086,
    "vascular": 14669,
    "TE@@": 4510,
    "organise": 8038,
    "sailed": 14900,
    "bleed": 13133,
    "seminars": 11606,
    "pla@@": 13366,
    "contains": 1386,
    "minim@@": 6385,
    "estate": 4075,
    "dict@@": 11141,
    "Way@@": 14150,
    "meas@@": 18437,
    "nah": 11407,
    "pepper": 14619,
    "appearing": 12138,
    "disadvantage": 11254,
    "offence": 5832,
    "dragon": 5053,
    "dro@@": 3679,
    "weird": 2882,
    "shells": 17158,
    "Cas@@": 8573,
    "oliver": 15613,
    "War@@": 7689,
    "correc@@": 15551,
    "fires": 7247,
    "duly": 4223,
    "iran": 10408,
    "Check": 8357,
    "hed": 4593,
    "Try": 8345,
    "sara": 12043,
    "Ge@@": 4453,
    "sausage": 13235,
    "gian": 18165,
    "bever@@": 18237,
    "cops": 3271,
    "iner@@": 8231,
    "contin@@": 17258,
    "poverty": 4396,
    "arrogant": 15087,
    "stresses": 5512,
    "corp@@": 18300,
    "amend": 4400,
    "protec@@": 7997,
    "Whatever": 6392,
    "Research": 7128,
    "visited": 6616,
    "shivered": 12886,
    "default": 2872,
    "liance": 8839,
    "prevention": 3097,
    "avoid": 1512,
    "recommended": 1731,
    "welcom@@": 19409,
    "kyle": 15936,
    "buried": 4633,
    "candles": 12179,
    "underpin@@": 12036,
    "wering": 18364,
    "till": 2829,
    "ini": 9626,
    "Dis@@": 3222,
    "perfectly": 4118,
    "Would": 3288,
    "nings": 9133,
    "disappearing": 14005,
    "rib@@": 10786,
    "intentional": 14454,
    "producers": 1019,
    "(2)(b": 12852,
    "maid": 7656,
    "roman": 13449,
    "piles": 14870,
    "Ali@@": 16677,
    "apologizing": 15022,
    "exes": 19089,
    "istry": 19340,
    "sensitive": 3516,
    "DVD": 15516,
    "Vis@@": 9645,
    "train@@": 8441,
    "enligh@@": 15335,
    "accordance": 252,
    "determined": 1145,
    "answered": 3703,
    "dram@@": 15703,
    "weakness": 7189,
    "closely": 2852,
    "asmus": 12917,
    "axle": 12137,
    "spl@@": 5736,
    "insert": 5778,
    "Danny": 9550,
    "vertically": 15641,
    "rot@@": 9019,
    "compensation": 1153,
    "strengthening": 2878,
    "excessively": 11940,
    "judgment": 912,
    "mitted": 17524,
    "courtes@@": 19010,
    "audience": 6588,
    "s-": 11651,
    "FR": 11217,
    "ellers": 18439,
    "cloud": 6269,
    "rr@@": 17827,
    "alising": 9802,
    "Procedure": 4408,
    "Spe@@": 9020,
    "retar@@": 16732,
    "change": 454,
    "always": 348,
    "hour@@": 10047,
    "telecommunications": 6905,
    "tures": 4554,
    "simply": 2397,
    "kon@@": 9419,
    "charity": 10402,
    "sigh@@": 11714,
    "worl@@": 18026,
    "aza": 14875,
    "received": 869,
    "gauge": 10834,
    "other@@": 14524,
    "elded": 12983,
    "ternal": 18888,
    "eurojust": 17282,
    "Cre@@": 7054,
    "traps": 16417,
    "bloo@@": 10023,
    "salmon": 13362,
    "rebellion": 14907,
    "sque@@": 16162,
    "pay@@": 4269,
    "prescribe": 15424,
    "punishment": 7657,
    "Clin@@": 12740,
    "deton@@": 9063,
    "antine": 17575,
    "button": 3337,
    "Luxembourg": 8181,
    "furthermore": 4859,
    "mes@@": 11103,
    "singer": 12839,
    "procurement": 2682,
    "backing": 15559,
    "recipi@@": 19090,
    "ler": 1959,
    "hated": 6531,
    "slaughter": 7109,
    "c.": 8024,
    "renia": 13698,
    "mel": 12223,
    "An@@": 1637,
    "hung": 4643,
    "service": 372,
    "potassium": 10192,
    "storage": 1985,
    "Given": 5075,
    "ash@@": 4226,
    "roar": 13718,
    "object": 1915,
    "somehow": 3887,
    "F": 1643,
    "tit@@": 16245,
    "yelled": 10234,
    "Super@@": 10411,
    "decision": 188,
    "ker": 1625,
    "box@@": 16579,
    "heading": 2079,
    "bout": 18992,
    "[": 470,
    "p.@@": 12065,
    "prompt": 12282,
    "Imp@@": 17465,
    "blister": 14608,
    "cul@@": 3482,
    "mostly": 4497,
    "sales@@": 18693,
    "PRODU@@": 15197,
    "Hand@@": 16386,
    "plan@@": 5556,
    "lib@@": 17336,
    "ritual": 11499,
    "priority": 2052,
    "etine": 14026,
    "transferring": 9085,
    "answering": 6913,
    "turkish": 12246,
    "realise": 8252,
    ",": 6,
    "whether": 311,
    "comparative": 7653,
    "retail@@": 17763,
    "links": 3564,
    "ability": 1174,
    "staying": 4114,
    "lobby": 9904,
    "IBM": 13042,
    "Implementation": 13063,
    "mood": 6267,
    "onic": 4591,
    "oks": 14929,
    "radiation": 5304,
    "axis": 6850,
    "syn@@": 5183,
    "scrutiny": 9055,
    "restaur@@": 19165,
    "born": 1942,
    "enables": 5480,
    "rooms": 4216,
    "latin": 12191,
    "legis@@": 18724,
    "frequency": 2938,
    "cand@@": 11348,
    "fantas@@": 17822,
    "goat": 9881,
    "arbitr@@": 8692,
    "carcasses": 13818,
    "grass@@": 17591,
    "balanced": 4714,
    "doubted": 12039,
    "dissu@@": 18119,
    "infra@@": 15962,
    "shared": 3312,
    "Law": 3764,
    "rail": 3872,
    "drink": 1535,
    "har@@": 1596,
    "stee": 17462,
    "0@@": 26,
    "determines": 7405,
    "aler@@": 14343,
    "consequ@@": 17382,
    "owing": 9584,
    "ex@@": 1322,
    "leen": 15677,
    "smoke": 3270,
    "PI": 11984,
    "ralph": 13250,
    "As@@": 5616,
    "commands": 8484,
    "ancing": 19046,
    "http://www.ema@@": 18312,
    "intercep@@": 15589,
    "fi@@": 1407,
    "fired": 3912,
    "california": 10803,
    "dow": 12913,
    "prostitu@@": 11410,
    "temper@@": 17925,
    "hypothetical": 11920,
    "contamin@@": 16983,
    "louis": 10176,
    "ik": 14589,
    "vak": 16909,
    "roger": 14908,
    "vec@@": 17335,
    "towards": 1310,
    "catastrop@@": 17652,
    "wi@@": 2432,
    "legend": 8248,
    "tailed": 17602,
    "burial": 14486,
    "admire": 13005,
    "enix": 16604,
    "solvent": 7240,
    "tu@@": 1697,
    "sword": 2919,
    "colon@@": 7695,
    "dity": 8412,
    "containing": 1776,
    "deviation": 10996,
    "orrha@@": 17659,
    "illness": 8048,
    "gall@@": 11308,
    "potentially": 5244,
    "rian": 8403,
    "Simon": 10998,
    "que": 3269,
    "remove": 2387,
    "heroin": 14104,
    "L": 1207,
    "coerci@@": 16564,
    "kov": 13512,
    "dul@@": 9704,
    "FIN@@": 13823,
    "robo@@": 17801,
    "refused": 3453,
    "rob": 10808,
    "cancer": 3629,
    "apine": 17559,
    "linking": 10421,
    "help": 307,
    "reason@@": 17300,
    "payments": 1149,
    "suggest": 3230,
    "organisms": 6464,
    "wondering": 3919,
    "estimates": 4430,
    "someone": 378,
    "cytop@@": 15076,
    "Point": 7418,
    "achieve": 1745,
    "kinson": 15244,
    "veterin@@": 18700,
    "ninth": 14042,
    "Sur@@": 9603,
    "climbing": 10937,
    "Assem@@": 19192,
    "Marshall": 16959,
    "liability": 2162,
    "collecting": 5021,
    "cali@@": 13907,
    "straightened": 12130,
    "concomit@@": 19481,
    "cents": 9777,
    "oma": 7919,
    "donation": 12703,
    "greece": 6139,
    "Four@@": 18202,
    "entran@@": 13286,
    "horse@@": 10286,
    "farming": 6016,
    "ger@@": 4699,
    "IEC": 11578,
    "clip": 16343,
    "VE": 11248,
    "pat@@": 3387,
    "substance": 1636,
    "concei@@": 18928,
    "shi@@": 3895,
    "tight": 4442,
    "servers": 8765,
    "driving": 2368,
    "golf": 9137,
    "`@@": 18730,
    "fulfilling": 6672,
    "king@@": 10578,
    "marsh@@": 15063,
    "led": 734,
    "thir@@": 11829,
    "melt": 17045,
    "highway": 9927,
    "thes": 17680,
    "acies": 14738,
    "eria": 6442,
    "=@@": 6584,
    "ental": 17803,
    "anese": 19104,
    "istics": 17425,
    "Remove": 16033,
    "announcement": 7375,
    "lifelong": 8903,
    "arrange@@": 19166,
    "stops": 7341,
    "Steve": 11066,
    "netherlands": 4271,
    "redi@@": 18960,
    "drying": 11080,
    "exposed": 4315,
    "celebr@@": 10460,
    "quickly": 1760,
    "obe@@": 18328,
    "triple": 14546,
    "Ed@@": 11492,
    "pper@@": 18117,
    "practicing": 13075,
    "Amer@@": 18502,
    "Pri@@": 5740,
    "practice": 1175,
    "ometres": 19490,
    "Cont@@": 18438,
    "highest": 2851,
    "environ@@": 17641,
    "contribution": 1306,
    "Johnny": 10063,
    "orith@@": 19398,
    "fas@@": 13356,
    "ECD": 19446,
    "U.S.": 9856,
    "iny": 12785,
    "rence": 5341,
    "victori@@": 11996,
    "tuna": 8598,
    "States": 241,
    "Indic@@": 14100,
    "awarding": 14179,
    "judging": 14111,
    "guinea": 14963,
    "avo@@": 18116,
    "knowledge": 1193,
    "manus@@": 16606,
    "balcony": 14158,
    "swept": 10168,
    "former": 2346,
    "fore": 18216,
    "mut@@": 7334,
    "investigations": 3717,
    "layout": 12507,
    "jenny": 16798,
    "truc@@": 18051,
    "RT@@": 9568,
    "figured": 2662,
    "brow": 14890,
    "invented": 8275,
    "fossil": 11040,
    "porch": 11414,
    "acquis": 6348,
    "explosives": 9355,
    "dney": 11839,
    "underway": 17162,
    "substantiated": 8567,
    "stole": 4004,
    "yesterday": 2868,
    "cel": 13176,
    "it": 15,
    "devis@@": 17114,
    "ba@@": 3260,
    "waking": 12333,
    "incapable": 10880,
    "Co": 11152,
    "now": 139,
    "Institu@@": 17814,
    "decis@@": 12559,
    "squad@@": 18656,
    "impede": 12415,
    "premi@@": 13150,
    "maize": 10466,
    "elbow": 13029,
    "What@@": 18732,
    "Appen@@": 18738,
    "Data": 5462,
    "rul@@": 11563,
    "Son@@": 16043,
    "als": 1003,
    "mobil@@": 8826,
    "erring": 13806,
    "dim": 11118,
    "desk@@": 18344,
    "Buil@@": 17810,
    "cleared": 7162,
    "competitiveness": 2653,
    "NF@@": 16317,
    "distillation": 15126,
    "down": 136,
    "drag@@": 13735,
    "sensation": 11997,
    "shru@@": 16127,
    "skelet@@": 18204,
    "contaminated": 11247,
    "ignored": 7784,
    "cop": 3772,
    "valry": 14053,
    "Place": 14310,
    "atomic": 9676,
    "rix": 17192,
    "motorcycle": 11638,
    "looks": 1093,
    "called": 490,
    "bio": 8419,
    "prison": 2562,
    "erals": 17990,
    "ranges": 10783,
    "alized": 4829,
    "soph@@": 19506,
    ".": 5,
    "ale@@": 15046,
    "tempted": 16835,
    "although": 1321,
    "bom@@": 7091,
    "reserve": 3824,
    "galax@@": 17569,
    "orien@@": 15976,
    "annul": 11799,
    "tones": 16397,
    "Out": 10431,
    "manufacturing": 4414,
    "attacking": 10430,
    "interoperability": 5457,
    "marke@@": 11465,
    "motiv@@": 16736,
    "texts": 7411,
    "principle": 630,
    "Sch@@": 7225,
    "ens": 2591,
    "encer": 17037,
    "urity": 17956,
    "oun@@": 5585,
    "geographic": 7274,
    "inspired": 12134,
    "San": 9448,
    "fever": 6031,
    "trusts": 15763,
    "breeze": 9586,
    "loaded": 4884,
    "Duncan": 14047,
    "searching": 6331,
    "cled": 18737,
    "treasury": 10744,
    "inations": 10232,
    "EV@@": 11695,
    "ceiling": 3941,
    "emo@@": 9526,
    "don": 3729,
    "oration": 11294,
    "base@@": 18865,
    "warrior": 5690,
    "IUU": 11840,
    "jack@@": 13438,
    "Agreements": 14377,
    "truly": 4883,
    "administr@@": 19355,
    "applicable": 586,
    "Norway": 9549,
    "teries": 16858,
    "Vi@@": 3969,
    "gender": 4902,
    "essively": 18521,
    "chick": 6154,
    "public": 242,
    "raising": 4642,
    "dumping": 1869,
    "detrimental": 9717,
    "supp@@": 18258,
    "seam@@": 10405,
    "ly@@": 3475,
    "earth": 1677,
    "memorandum": 9201,
    "minors": 10083,
    "blame": 4973,
    "dys@@": 14942,
    "thro@@": 4830,
    "embrac@@": 16274,
    "instructions": 2779,
    "ude": 12798,
    "audited": 8154,
    "ou": 4539,
    "Failed": 15213,
    "deliber@@": 15268,
    "moral": 6623,
    "ility": 10635,
    "lived": 2316,
    "profession@@": 14862,
    "DD": 16552,
    "Car@@": 2155,
    "son": 487,
    "cin": 11904,
    "Appro@@": 13887,
    "diagnostic": 10357,
    "rences": 18870,
    "qualities": 10560,
    "rons": 17001,
    "begins": 7442,
    "attended": 10355,
    "onds": 18655,
    "Drag@@": 13910,
    "haul": 13351,
    "pact": 12032,
    "dex": 10360,
    "assisting": 9185,
    "Ha@@": 9770,
    "perman@@": 18784,
    "stra@@": 6104,
    "cables": 11574,
    "oners": 9888,
    "frozen": 5113,
    "simpli@@": 18199,
    "my@@": 3173,
    "wondered": 3993,
    "Majesty": 10203,
    "comply": 1101,
    "Sub": 17023,
    "curved": 15893,
    "ener@@": 9203,
    "FA": 16013,
    "dimen@@": 18425,
    "maintain": 1924,
    "macro@@": 13197,
    "Mac@@": 5597,
    "ysis": 13406,
    "doubt": 2381,
    "explicitly": 5660,
    "ame@@": 10107,
    "doubtful": 14819,
    "Remar@@": 19204,
    "Policy": 4484,
    "nes@@": 10032,
    "nostri@@": 19110,
    "invoices": 10240,
    "optical": 10647,
    "ing@@": 1548,
    "interference": 6383,
    "verth@@": 19519,
    "foresees": 12418,
    "jun@@": 8014,
    "swa@@": 18261,
    "lengthy": 13656,
    "oo@@": 13258,
    "PET": 12061,
    "omer@@": 18169,
    "satisfac@@": 17413,
    "compati@@": 18720,
    "guit@@": 17930,
    "coincidence": 9743,
    "(2": 690,
    "member@@": 17604,
    "Supp@@": 12185,
    "outweigh": 16968,
    "returns": 5395,
    "Sil@@": 6630,
    "electronics": 13167,
    "Instru@@": 18293,
    "centi@@": 10658,
    "bar@@": 1296,
    "factory": 5728,
    "urie": 12374,
    "asking": 1582,
    "bun@@": 4667,
    "some@@": 13712,
    "parliaments": 14243,
    "small@@": 17734,
    "neighbour@@": 18597,
    "hypotension": 14361,
    "chased": 14786,
    "mas": 17905,
    "tan@@": 2808,
    "Richard": 6523,
    "accidental": 11758,
    "sci@@": 17820,
    "lead": 949,
    "extr@@": 10030,
    "slipping": 16101,
    "Even@@": 15502,
    "time@@": 7193,
    "essi@@": 6428,
    "itions": 17634,
    "clubs": 10218,
    "signature": 4538,
    "influence": 2595,
    "shor@@": 8456,
    "emphasises": 14902,
    "diary": 10222,
    "testi@@": 11510,
    "inhibit@@": 18492,
    "previous": 1190,
    "dilu@@": 15037,
    "glo@@": 6651,
    "iary": 18305,
    "libri@@": 19488,
    "Communic@@": 17610,
    "Robert": 10454,
    "CL@@": 6172,
    "briefcase": 13049,
    "dai@@": 18012,
    "id@@": 3497,
    "panel": 2521,
    "stating": 7267,
    "broad": 3281,
    "irbesartan": 16523,
    "resul@@": 18131,
    "Dom@@": 13182,
    "Imag@@": 15231,
    "believable": 18614,
    "oth": 14560,
    "ters": 1701,
    "thoughts": 3511,
    "pulling": 6326,
    "Measures": 10907,
    "labelled": 11068,
    "bids": 11947,
    "lori@@": 17783,
    "chill": 10051,
    "ri": 5751,
    "voyage": 8576,
    "Multi@@": 13179,
    "rescuing": 16401,
    "conflicting": 12142,
    "Competent": 16120,
    "upper": 3940,
    "alter@@": 6809,
    "stream@@": 9983,
    "Lis@@": 18494,
    "adian": 11464,
    "D": 1089,
    "trust@@": 13892,
    "related": 557,
    "dagger": 11074,
    "speaker": 13004,
    "Anne": 17085,
    "rea": 10244,
    "cereal": 12228,
    "Vic@@": 10248,
    "bril@@": 16281,
    "flying": 3249,
    "counts": 8846,
    "chance": 1097,
    "Paragraph": 6103,
    "becca": 12760,
    "ordering": 9255,
    "verifications": 13373,
    "nat@@": 5119,
    "employees": 2272,
    "dated": 2690,
    ",@@": 627,
    "torpe@@": 14920,
    "fined": 13793,
    "dollar": 5704,
    "resist": 9686,
    "obtained": 1555,
    "MO@@": 13919,
    "projections": 8712,
    "red": 713,
    "feree": 15986,
    "uncertain@@": 19287,
    "tware": 18186,
    "attack": 1748,
    "HS@@": 11909,
    "bard": 14763,
    "awful": 7627,
    "inged": 17211,
    "Whoever": 14696,
    "countervailing": 13076,
    "societies": 7633,
    "hers": 6640,
    "throwing": 5861,
    "protru@@": 16247,
    "l.@@": 18184,
    "glittering": 15909,
    "civili@@": 17771,
    "sche": 17892,
    "asterisk": 15084,
    "scu@@": 11289,
    "IF": 10809,
    "Agre@@": 17915,
    "interruption": 9606,
    "reception": 6716,
    "esse": 11304,
    "folder": 4213,
    "lock@@": 9618,
    "PS@@": 13691,
    "icals": 17119,
    "EN.0@@": 18055,
    "discuss": 3437,
    "officials": 2727,
    "processed": 3305,
    "J@@": 689,
    "proliferation": 10495,
    "D'@@": 15854,
    "agon@@": 13536,
    "cm": 6823,
    "MENT": 6949,
    "Henry": 7241,
    "bance": 19103,
    "resum@@": 17677,
    "creat@@": 18518,
    "cep@@": 8356,
    "sessions": 9241,
    "ens@@": 6547,
    "Jane": 9847,
    "tric": 10015,
    "bal@@": 3013,
    "0": 63,
    "mediter@@": 19495,
    "clarification": 7438,
    "ables": 7521,
    "interpreting": 11832,
    "OU@@": 13551,
    "relationship": 1471,
    "daddy": 4166,
    "tho@@": 16425,
    "conservative": 13963,
    "diminished": 14742,
    "laboratories": 8238,
    "alternative": 1953,
    "fading": 15130,
    "beaten": 9138,
    "fer": 9936,
    "ef@@": 5235,
    "terrain": 15728,
    "steam": 8982,
    "certific@@": 17913,
    "demi@@": 19032,
    "Five": 7864,
    "Wh": 16324,
    "precautions": 7596,
    "spic@@": 18682,
    "ass@@": 2488,
    "contributions": 2146,
    "ird": 18160,
    "arab@@": 16678,
    "tis@@": 8118,
    "Greece": 5772,
    "scrambled": 7471,
    "envis@@": 17722,
    "benef@@": 18167,
    "movements": 5352,
    "cements": 16497,
    "exag@@": 19024,
    "organic": 4218,
    "click": 2456,
    "hatch@@": 17133,
    "format": 3257,
    "spir@@": 13597,
    "borro@@": 12330,
    "resistance": 4556,
    "chosen": 2639,
    "salt": 5725,
    "harbor": 11059,
    "versus": 10451,
    "extreme": 6784,
    "followers": 16234,
    "Almost": 13619,
    "volun@@": 19348,
    "withdrawing": 15485,
    "j@@": 717,
    "want": 127,
    "litre": 15427,
    "mono@@": 7732,
    "taken": 291,
    "empty": 2430,
    "upright": 14071,
    "kling": 13891,
    "ones": 1680,
    "fire@@": 5276,
    "acked": 7181,
    "tang@@": 18442,
    "dear": 2571,
    "shop@@": 17151,
    "iso@@": 9999,
    "well@@": 8044,
    "ere": 6797,
    "score": 7550,
    "gas@@": 7355,
    "berg": 6731,
    "b@@": 449,
    "rup": 19137,
    "con@@": 767,
    "margin@@": 17163,
    "Post": 14068,
    "pleased": 4882,
    "commitment": 2423,
    "tments": 18615,
    "Commit@@": 15134,
    "strongly": 5776,
    "killing": 2576,
    "attached": 2590,
    "expressions": 11398,
    "pt": 7016,
    "strength@@": 17606,
    "magistrate": 13981,
    "fied": 2469,
    "a": 10,
    "Win@@": 7064,
    "Be@@": 2279,
    "torn": 7765,
    "export": 1165,
    "squadron": 15994,
    "alternate": 10632,
    "flooding": 11626,
    "density": 8415,
    "sible": 9009,
    "me": 47,
    "piercing": 16041,
    "interpreted": 2936,
    "skirt": 12724,
    "thered": 12990,
    "secrets": 4920,
    "barred": 16223,
    "decade": 7486,
    "design": 1949,
    "passageway": 11082,
    "depend": 4697,
    "team": 1470,
    "CFSP": 7262,
    "subcu@@": 17728,
    "strugg@@": 18589,
    "discount": 8582,
    "stimulating": 12429,
    "bet@@": 7535,
    "patiently": 12624,
    "bull": 11065,
    "ud@@": 6901,
    "dale": 11195,
    "apartment": 2755,
    "crouched": 12923,
    "Little": 9470,
    "elly": 10269,
    "oper@@": 5650,
    "lance": 15565,
    "river": 2611,
    "fix@@": 14073,
    "ented": 14625,
    "reservo@@": 18698,
    "payment": 740,
    "inventories": 14109,
    "club": 3001,
    "ony@@": 10347,
    "hate": 2173,
    "sporting": 13988,
    "Fir@@": 13651,
    "abil@@": 15224,
    "publish": 4938,
    "fluids": 16601,
    "xi@@": 5653,
    "gaze": 5445,
    "factual": 5881,
    "favourable": 4090,
    "what@@": 12579,
    "allowances": 4067,
    "dium": 7659,
    "Pre@@": 4455,
    "benefit": 1079,
    "allowed": 1268,
    "ired": 16916,
    "fourth": 2714,
    "biocidal": 11558,
    "Chinese": 4158,
    "propos@@": 18096,
    "off": 261,
    "hydra@@": 14254,
    "anta": 18496,
    "range": 1272,
    "venti@@": 18427,
    "success": 3242,
    "relax": 6092,
    "stove": 15651,
    "scent": 8637,
    "stabilisation": 9852,
    "PV": 14887,
    "chose": 4946,
    "hiring": 15163,
    "beach": 4428,
    "uran@@": 15444,
    "prayer": 10539,
    "cautious": 11092,
    "particul@@": 16538,
    "ran": 1291,
    "Test": 12203,
    "delu@@": 13465,
    "objective": 863,
    "minorities": 15959,
    "blows": 13448,
    "sofar": 19064,
    "anic": 16009,
    "comes": 1098,
    "WTO": 5423,
    "sarcas@@": 16960,
    "surfaces": 12200,
    "know": 81,
    "stuck": 3524,
    "six@@": 17819,
    "fron@@": 7600,
    "vables": 18989,
    "plus": 3163,
    "experienced": 4084,
    "Holy": 11991,
    "ensure": 296,
    "Regional": 6603,
    "child@@": 9015,
    "evolve": 17218,
    "sitting": 1770,
    "circles": 8866,
    "authorisation": 1102,
    "haz@@": 15708,
    "pocket": 3781,
    "Center": 13944,
    "grades": 11445,
    "takeover": 15647,
    "assistant": 6292,
    "targeted": 4091,
    "upon": 851,
    "ded": 1222,
    "xation": 11454,
    "abo@@": 7590,
    ".and": 6883,
    "Cer@@": 13548,
    "card": 1988,
    "alization": 6148,
    "dra": 11513,
    "eighteen": 15938,
    "bicy@@": 16070,
    "guarded": 9757,
    "Cro@@": 7287,
    "nor": 1545,
    "Stand@@": 12544,
    "labor": 9124,
    "tual": 7989,
    "inappropriate": 7510,
    "isions": 18696,
    "date": 351,
    "inst@@": 8440,
    "Braz@@": 18399,
    "placement": 9228,
    "ose": 5112,
    "Navy": 12849,
    "deepest": 15362,
    "CF": 14020,
    "retire": 17071,
    "created": 1777,
    "stern": 10165,
    "gen": 7374,
    "ht@@": 17812,
    "Statement": 17100,
    "column": 3660,
    "shifted": 9235,
    "rab@@": 8060,
    "front": 853,
    "shire": 13329,
    "legends": 16528,
    "precious": 6747,
    "filters": 11848,
    "ah": 2306,
    "leo": 16260,
    "indul@@": 15309,
    "union": 397,
    "vo": 9312,
    "mice": 11090,
    "tten": 19159,
    "situated": 6636,
    "politic@@": 17227,
    "Eddie": 10654,
    "ond": 9947,
    "convention": 2250,
    "capsule": 10888,
    "er": 407,
    "ona": 6720,
    "haps": 19344,
    "estim@@": 17681,
    "rub@@": 8515,
    "opposing": 11196,
    "planes": 8516,
    "fluores@@": 16543,
    "probable": 10346,
    "stal@@": 4851,
    "outfit": 11346,
    "consumption": 1663,
    "court": 207,
    "mama": 10373,
    "miti@@": 17544,
    "hn@@": 14045,
    "thankyou": 10841,
    "theories": 12450,
    "refers": 3307,
    "orial": 7511,
    "shiny": 10428,
    "goal": 4823,
    "kindness": 13791,
    "tage": 16874,
    "cy": 4413,
    "enforce": 8072,
    "nuc@@": 18939,
    "obile": 12765,
    "coordinate": 6951,
    "EC@@": 2051,
    "idiot": 5122,
    "stage": 1313,
    "exchanges": 6176,
    "soup": 8748,
    "IPA": 15297,
    "aroma": 13817,
    "DEC@@": 15422,
    "rapid": 4347,
    "favourite": 9589,
    "proximity": 13277,
    "helicop@@": 19470,
    "encies": 12832,
    "Ma@@": 3061,
    "curtains": 15681,
    "hon@@": 5038,
    "brought": 745,
    "priot": 16571,
    "1@@": 30,
    "promis@@": 18366,
    "tiveness": 8100,
    "else": 645,
    "nard": 12560,
    "full": 542,
    "<@@": 18348,
    "onary": 13581,
    "venue": 12693,
    "can": 58,
    "psychi@@": 19577,
    "alpha": 8947,
    "variation": 10110,
    "Kate": 11783,
    "reinforcements": 16825,
    "domains": 14739,
    "relatives": 7937,
    "tals": 14727,
    "vo@@": 2762,
    "firearms": 14984,
    "gran@@": 6544,
    "desires": 14217,
    "attle": 12006,
    "fran@@": 3810,
    "images": 4910,
    "dentally": 17484,
    "walker": 12967,
    "less": 429,
    "tissues": 10561,
    "titles": 10382,
    "conventional": 6687,
    "corrobor@@": 15901,
    "files": 1999,
    "spectac@@": 9122,
    "establish": 1039,
    "Fran@@": 4632,
    "belief": 7722,
    "there@@": 6163,
    "vement": 13349,
    "Dan": 13827,
    "immovable": 9003,
    "iss@@": 9197,
    "dou@@": 7362,
    "ance@@": 11081,
    "e--": 12885,
    "dream": 2193,
    "memories": 5090,
    "DG@@": 9181,
    "wr@@": 7821,
    "NRAs": 15558,
    "resembled": 15383,
    "cover": 819,
    "elsewhere": 6142,
    "AM": 9502,
    "johnny": 9820,
    "locally": 11755,
    "mile@@": 14551,
    "incidents": 11060,
    "olanzapine": 13693,
    "closure": 5143,
    "essness": 14504,
    "er'": 9315,
    "contrain@@": 14778,
    "haven": 15119,
    "qualified": 3532,
    "lywood": 16942,
    "shapes": 9121,
    "lungs": 7792,
    "Undertaking": 9853,
    "foreigner": 16114,
    "holy": 5470,
    "sibility": 12017,
    "nik": 15006,
    "sou@@": 8803,
    "sed": 2362,
    "democr@@": 17573,
    "above@@": 19228,
    "fireplace": 13109,
    "intervene": 8378,
    "eous": 7447,
    "sever@@": 11022,
    "difficulty": 4742,
    "gathered": 5434,
    "nb@@": 16944,
    "sivity": 15324,
    "ould": 17802,
    "ribavir@@": 19084,
    "light": 447,
    "revoc@@": 17377,
    "Christian": 13125,
    "rently": 10795,
    "LATION": 18626,
    "authority": 388,
    "spite": 5196,
    "ey@@": 10109,
    "prosecutors": 12940,
    "golden": 4896,
    "Joint": 3382,
    "appren@@": 17708,
    "healthcare": 4870,
    "bells": 16371,
    "ril": 16810,
    "withdrew": 11994,
    "USA": 6723,
    "-@@": 616,
    "payable": 5025,
    "TED": 12926,
    "thri@@": 8568,
    "mad@@": 5289,
    "BE": 11086,
    "varieties": 7291,
    "president": 1793,
    "enshrined": 11312,
    "xious": 17985,
    "ston": 5911,
    "system@@": 8222,
    "GE": 13822,
    "Technical": 9360,
    "ford": 4081,
    "ew": 13158,
    "stakeholders": 2584,
    "Oh": 647,
    "hh": 12838,
    "Body": 15556,
    "T": 931,
    "OTC": 15440,
    "keeps": 5085,
    "amie": 13909,
    "employment": 966,
    "hn": 11791,
    "eager": 10461,
    "mines": 7551,
    "Iran": 9977,
    "schedule": 4573,
    "ds": 1016,
    "stressed": 6857,
    "aster@@": 17994,
    "bassad@@": 17912,
    "sounded": 6609,
    "vor@@": 5963,
    "Tro@@": 16610,
    "separ@@": 6757,
    "mum@@": 16813,
    "newspaper": 7261,
    "lover": 7671,
    "ristian": 19417,
    "gib@@": 12889,
    "collar": 10567,
    "spas@@": 16975,
    "fulfill": 13298,
    "pins": 15482,
    "he": 41,
    "ristmas": 19567,
    ")(b": 17091,
    "destroy": 2641,
    "vic": 10467,
    "Ireland": 5691,
    "because": 174,
    "candy": 8047,
    "postpone": 12908,
    "sophisticated": 10164,
    "anti": 1363,
    "ensures": 4519,
    "ordination": 9205,
    "rather": 1061,
    "ne": 2832,
    "Dex@@": 15760,
    "radi@@": 4101,
    "apparently": 4989,
    "offended": 16173,
    "loyment": 18648,
    "emed": 18067,
    "remain@@": 19367,
    "exhau@@": 18284,
    "table": 662,
    "yar@@": 9482,
    "ms.": 16389,
    "effective": 731,
    "sty": 6974,
    "ight": 4645,
    "literature": 9643,
    "mexico": 10322,
    "ooh": 9193,
    "proven": 7126,
    "untie": 13462,
    "ands": 13306,
    "oak": 12982,
    "bacteria": 9715,
    "moist": 17208,
    "dening": 12009,
    "recognized": 5539,
    "simil@@": 17422,
    "plainti@@": 18810,
    "feasi@@": 19486,
    "listened": 5867,
    "Indeed": 5713,
    "exciting": 8777,
    "el": 1476,
    "assembly": 5039,
    "engineers": 12400,
    "Admir@@": 18848,
    "actu@@": 10729,
    "ans": 1260,
    "therapy": 2417,
    "million": 669,
    "conversion": 4734,
    "bania": 13723,
    "clue": 7838,
    "segment": 7243,
    "ner": 2478,
    "lux@@": 17239,
    "null": 14232,
    "phenomena": 14790,
    "harb@@": 18392,
    "hedge": 14646,
    "stabbed": 8834,
    "therapist": 16435,
    "students": 3545,
    "seph": 12044,
    "Cen@@": 12404,
    "therapeutic": 6873,
    "ampli@@": 15101,
    "EEAS": 12490,
    "infectious": 14159,
    "poor@@": 19161,
    "Whoa": 13936,
    "formal": 2367,
    "worship": 15887,
    "constituents": 13502,
    "Russians": 16345,
    "inequalities": 14944,
    "ships": 1807,
    "CP": 10463,
    "insult": 11902,
    "air@@": 2419,
    "conceived": 17132,
    "but": 50,
    "submits": 2844,
    "swap": 11858,
    "onto": 2507,
    "enabling": 4681,
    "sacred": 8310,
    "doc@@": 6276,
    "en@@": 444,
    "pop": 8630,
    "Del@@": 7032,
    "properties": 3360,
    "tention": 17617,
    "lactic": 13932,
    "bie": 6091,
    "anal@@": 14547,
    "black": 940,
    "Huh": 12857,
    "indicators": 2763,
    "lers": 6512,
    "spatial": 8393,
    "While": 3330,
    "accuse": 14288,
    "inib": 10738,
    "plain@@": 13648,
    "pot@@": 17719,
    "assertions": 13357,
    "expose": 11316,
    "select": 2487,
    "savings": 4175,
    "rip": 8341,
    "raft": 10284,
    "cuts": 6216,
    "You@@": 16461,
    "needs": 692,
    "COMP": 13830,
    "dismis@@": 17684,
    "mid-@@": 13614,
    "opinions": 3519,
    "practices": 1597,
    "tray": 9413,
    "ferences": 16772,
    "weal@@": 18506,
    "Harry": 4445,
    "allowing": 3339,
    "trun@@": 15288,
    "Aunt": 14643,
    "persu@@": 13479,
    "rs.": 19553,
    "tool@@": 15789,
    "tised": 14766,
    "aggressive": 10102,
    "d.": 8489,
    "KGB": 16466,
    "historical": 5291,
    "before": 151,
    "grass": 4852,
    "appraisal": 7715,
    "TS": 4488,
    "dae": 14557,
    "cowboy": 14252,
    "stronger": 4099,
    "railway": 3986,
    "originally": 5493,
    "continue": 952,
    "gun@@": 4276,
    "skins": 13700,
    "las": 12099,
    "car": 599,
    "serious": 986,
    "canceled": 11220,
    "enza": 18802,
    "unlawfully": 12743,
    "Med@@": 15869,
    "wed": 4001,
    "UR@@": 4945,
    "overdose": 8507,
    "dock": 9012,
    "incorporated": 5257,
    "welcome": 2968,
    "rela@@": 8624,
    "agend@@": 17920,
    "assem@@": 11919,
    "zol@@": 16742,
    "staring": 4292,
    "attemp@@": 19333,
    "vent": 10746,
    "traditional": 3048,
    "cheated": 13207,
    "option": 1718,
    "anne": 8802,
    "recast": 16648,
    "ION": 17150,
    "REGULATION": 6571,
    "refre@@": 18576,
    "Latin": 13715,
    "hou@@": 8752,
    "easily": 2543,
    "seated": 9014,
    "encl@@": 18806,
    "enia": 11673,
    "wards": 5277,
    "AN": 10494,
    "global@@": 18578,
    "ich": 4704,
    "Administration": 12103,
    "Community": 418,
    "edonia": 15476,
    "terrorist": 5079,
    "grandfather": 6353,
    "operative": 5797,
    "fib@@": 18561,
    "plenty": 5084,
    "rael": 18670,
    "champ@@": 18565,
    "integration": 2257,
    "jurisdiction": 1342,
    "Zo@@": 11967,
    "identity": 3021,
    "pus": 11734,
    "innovations": 14974,
    "cattle": 6650,
    "Add": 11088,
    "infrastructures": 6390,
    "continued": 1719,
    "arma@@": 14584,
    "ingredi@@": 19210,
    "punish": 12369,
    "esses": 7021,
    "PD@@": 12204,
    "database": 2286,
    "HR": 8934,
    "graphic": 8973,
    "united": 1729,
    "requires": 1436,
    "Method": 16205,
    "paying": 2822,
    "presi@@": 16863,
    "extending": 7414,
    "phr@@": 14566,
    "rigorous": 15672,
    "deficiencies": 7345,
    "brings": 5148,
    "formalities": 7249,
    "scales": 12222,
    "copy": 2293,
    "arrog@@": 17826,
    "XP": 15662,
    "Maria": 16643,
    "intends": 5290,
    "Anyone": 13193,
    "ative": 2552,
    "river@@": 14465,
    "role": 1060,
    "bear@@": 12125,
    "May@@": 8309,
    "fli@@": 18037,
    "ed": 503,
    "il": 2691,
    "surance": 18775,
    "bases": 7738,
    "CRR": 16592,
    "ust": 7211,
    "irrit@@": 9542,
    "traitor": 12984,
    "ridic@@": 18140,
    "urinary": 16714,
    "pac@@": 8141,
    "essence": 5129,
    "gry": 18944,
    "deficits": 12905,
    "modified": 3635,
    "encompasses": 12013,
    "Moreover": 2544,
    "demonstrating": 8654,
    "CFP": 13844,
    "imbalance": 14587,
    "daniel": 9966,
    "warfare": 15442,
    "thread": 9145,
    "quota": 3268,
    "minutes": 746,
    "foster": 7470,
    "prior": 1403,
    "pounds": 6452,
    "explosive": 10436,
    "urgent": 5017,
    "ryanair": 16485,
    "jah": 14385,
    "restra@@": 9078,
    "governs": 13478,
    "Central": 5223,
    "ub@@": 5141,
    "Ul@@": 14348,
    "whatsoever": 13043,
    "phil@@": 9986,
    "complemented": 10819,
    "worlds": 6065,
    "guests": 6074,
    "obsessed": 11127,
    "certificate": 1598,
    "T-@@": 10940,
    "dit": 10822,
    "Registry": 13249,
    "villages": 13804,
    "atter": 15154,
    "Iraq": 11502,
    "practically": 6384,
    "gens": 15640,
    "refund": 4050,
    "comfortable": 4467,
    "voy@@": 13705,
    "read@@": 5972,
    "liberal": 14508,
    "adapt": 5178,
    "switzerland": 9517,
    "at": 42,
    "mic@@": 4925,
    "postal": 7157,
    "Brazil": 13667,
    "td": 13162,
    "vom@@": 18535,
    "anc@@": 15303,
    "minary": 17639,
    "Impact": 15414,
    "adequate": 1904,
    "R": 1368,
    "spor@@": 8285,
    "liquor": 10295,
    "stench": 15199,
    "ulty": 15243,
    "Ric@@": 10504,
    "grasp": 15507,
    "onazole": 14528,
    "fights": 11263,
    "EI@@": 6871,
    "mide": 16097,
    "clo@@": 3899,
    "coast@@": 16369,
    "hand@@": 3598,
    "sole": 4611,
    "bury": 6443,
    "City": 5829,
    "research@@": 17299,
    "graphs": 15797,
    "agr@@": 5520,
    "resources": 785,
    "attracted": 9782,
    "paperwork": 9363,
    "ous@@": 5706,
    "sof@@": 8512,
    "posit@@": 18158,
    "wear": 2887,
    "mens": 12279,
    "fice": 18667,
    "pan@@": 2515,
    "over@@": 1035,
    "numerous": 4768,
    "giving": 1655,
    "Baron": 17201,
    "format@@": 17897,
    "Want": 10826,
    "health@@": 17711,
    "slowed": 12178,
    "ject": 15396,
    "prayed": 15128,
    "pursuant": 897,
    "uri": 13535,
    "sum@@": 6567,
    "egi@@": 19162,
    "aires": 16768,
    "rescued": 8993,
    "groups": 1280,
    "agencies": 2912,
    "incre@@": 12845,
    "May": 2215,
    "ease": 7477,
    "Gl@@": 15972,
    "spell": 5724,
    "alin": 14904,
    "/2009": 3539,
    "respects": 7000,
    "inger": 5980,
    "cig@@": 17914,
    "atia": 19220,
    "threw": 3421,
    "highlight": 9531,
    "ell@@": 3284,
    "cube": 16727,
    "sound": 1132,
    "circulation": 5001,
    "fulfils": 7700,
    "Region": 13625,
    "favoured": 14058,
    "row": 3042,
    "Tim@@": 15548,
    "ential": 12528,
    "RC": 18340,
    "candle": 12600,
    "abor@@": 10053,
    "ai": 2094,
    "adings": 19225,
    "ometer": 11382,
    "metres": 6647,
    "pursued": 4208,
    "Brother": 15269,
    "expan@@": 16323,
    "aph@@": 7855,
    "lit@@": 3838,
    "lor@@": 6436,
    "von": 12794,
    "ps": 1593,
    "resident": 3280,
    "outline": 10759,
    "concessions": 8580,
    "essly": 9416,
    "nd": 8647,
    "penalties": 4482,
    "biodiesel": 11906,
    "ances": 5349,
    "expe@@": 16503,
    "Chem@@": 14302,
    "ouring": 10662,
    "place@@": 17983,
    "whose": 953,
    "emotional": 7258,
    "jan": 12640,
    "Jacob": 14885,
    "ana": 2948,
    "circus": 13087,
    "should": 75,
    "diameter": 7234,
    "erroneous": 7318,
    "contractors": 8845,
    "micrograms": 15109,
    "anim@@": 9074,
    "intraven@@": 17870,
    "indicated": 1360,
    "medi@@": 4318,
    "post": 1441,
    "cause": 1416,
    "prominent": 13530,
    "PP@@": 4701,
    "diment": 11383,
    "jesus": 6565,
    "este@@": 17910,
    "hollywood": 16762,
    "backwards": 11999,
    "ney": 3685,
    "is@@": 779,
    "Greek": 5987,
    "Ara@@": 15066,
    "background": 3231,
    "branches": 5697,
    "exported": 5027,
    "lend": 11415,
    "thousand": 2480,
    "Descri@@": 18017,
    "cely": 12793,
    "My@@": 9324,
    "orna@@": 16073,
    "handles": 16574,
    "cautiously": 9496,
    "fiable": 7462,
    "tangible": 10788,
    "There": 409,
    "REQU@@": 16641,
    "Ki@@": 10029,
    "graduation": 14327,
    "Howard": 14839,
    "analytical": 7288,
    "Some": 2246,
    "racy": 16887,
    "Prague": 15960,
    "acle": 16209,
    "unprece@@": 19430,
    "sergeant": 5607,
    "aeroplane": 15721,
    "distortion": 6069,
    "crum@@": 9204,
    "harass@@": 17595,
    "knees": 4868,
    "forum": 7019,
    "casting": 15617,
    "ptian": 15638,
    "directive": 355,
    "thomas": 9599,
    "legally": 3934,
    "jer@@": 9192,
    "Comb@@": 13684,
    "defin@@": 18854,
    "frame": 4375,
    "pissed": 8813,
    "itabine": 15622,
    "dysfunction": 13857,
    "touches": 16483,
    "Wiz@@": 15912,
    "asing": 12192,
    "plat@@": 5295,
    "quietly": 6513,
    "author": 9079,
    "bastard": 5730,
    "entieth": 19449,
    "mor@@": 1690,
    "inser@@": 8557,
    "carni@@": 15795,
    "shareholder": 7862,
    "indicating": 4755,
    "bag@@": 11311,
    "micro": 5526,
    "leaned": 4750,
    "despite": 2879,
    "increase": 614,
    "electoral": 13270,
    "accident": 2542,
    "bad@@": 10703,
    "aten": 18955,
    "neither": 2697,
    "quarterly": 11013,
    "commander": 3645,
    "Excell@@": 16954,
    "wreck@@": 19557,
    "pointed": 1674,
    "readable": 15536,
    "profloxacin": 16600,
    "lays": 3860,
    "flock": 15294,
    "ilian": 15778,
    "shol@@": 19059,
    "nov@@": 8445,
    "counc@@": 14272,
    "Pap@@": 13136,
    "overwhel@@": 16801,
    "interconnection": 10906,
    "Everything": 5565,
    "bi@@": 1380,
    "shocked": 11412,
    "chop@@": 7990,
    "int@@": 11806,
    "crying": 5469,
    "cook": 5719,
    "surprised": 3171,
    "automated": 11803,
    "fault": 3069,
    "divergent": 15944,
    "incineration": 15798,
    "here": 111,
    "processes": 2687,
    "Miles": 8685,
    "isers": 12688,
    "answer": 891,
    "With@@": 18386,
    "bad": 687,
    "hole": 2565,
    "cinem@@": 17536,
    "interest": 532,
    "crept": 14648,
    "gon@@": 9380,
    "flesh": 4256,
    "isk": 17571,
    "victi@@": 18798,
    "Por@@": 8099,
    "submission": 3028,
    "surprise": 3458,
    "boot": 8483,
    "computers": 5592,
    "necessity": 7435,
    "d'@@": 8214,
    "contracts": 1250,
    "Ph@@": 7453,
    "depen@@": 7639,
    "weir@@": 13419,
    "twenty": 2841,
    "ultimate": 7522,
    "moments": 5335,
    "tangle": 13403,
    "et@@": 1991,
    "favorite": 4525,
    "Rule": 7777,
    "arian": 7760,
    "adorable": 14132,
    "jam@@": 9342,
    "reviewing": 7257,
    "metal@@": 17385,
    "iest": 10204,
    "uncertainties": 13208,
    "increased": 943,
    "bother": 5115,
    "celona": 16808,
    "disgu@@": 17626,
    "Mama": 13593,
    "mind": 608,
    "instruction": 9570,
    "east": 3192,
    "Tob@@": 16816,
    "adverti@@": 10670,
    "excited": 6201,
    "disbur@@": 8728,
    "xes": 6693,
    "sly": 17959,
    "incentive": 5227,
    "colonel": 5869,
    "chase": 7745,
    "concept": 2547,
    "need": 178,
    "extensive": 5203,
    "X": 2899,
    "permissions": 11473,
    "hoo@@": 5685,
    "bee": 11505,
    "meeting": 902,
    "give": 246,
    "bourg": 17568,
    "tiny": 3460,
    "get@@": 16142,
    "destined": 10000,
    "geome@@": 15292,
    "urs@@": 18559,
    "july": 2718,
    "wardly": 12645,
    "Col@@": 4457,
    "olympic": 15439,
    "ayed": 12827,
    "tom@@": 3100,
    "My": 720,
    "sterdam": 13252,
    "shall": 64,
    "award": 2901,
    "inity": 14719,
    "thood": 14632,
    "Convention": 2774,
    "accountable": 15430,
    "marshal": 13802,
    "Ukraine": 9132,
    "discour@@": 11956,
    "subsequently": 3565,
    "detention": 7835,
    "Number": 7400,
    "borders": 4719,
    "across": 832,
    "ambul@@": 18421,
    "reven@@": 17877,
    "reduction": 1048,
    "Friday": 9942,
    "ffs": 7011,
    "loop": 10552,
    "hypothe@@": 18541,
    "pe@@": 937,
    "gradu@@": 16243,
    "changing": 3223,
    "IT@@": 4722,
    "dual": 8620,
    "named": 2744,
    "High": 5024,
    "tfully": 15064,
    "drey": 15949,
    "seen": 514,
    "tren@@": 17535,
    "Ham@@": 7850,
    "capacity": 834,
    "Categ@@": 18736,
    "GNI": 11381,
    "disclosed": 6319,
    "loan": 2412,
    "cluster": 9479,
    "remembered": 3221,
    "degre@@": 19252,
    "corresponds": 5489,
    "ated": 572,
    "cir@@": 17649,
    "Angel@@": 17795,
    "hist@@": 14818,
    "EP": 12314,
    "proteins": 11517,
    "thema@@": 19021,
    "bring": 781,
    "nothin'": 12879,
    "humanitarian": 6972,
    "chy": 8669,
    "trem@@": 9126,
    "heaven": 5261,
    "confident": 9286,
    "sampled": 6889,
    "land": 783,
    "work@@": 3381,
    "unlaw@@": 17863,
    "discounts": 13423,
    "ratios": 14767,
    "fit": 3254,
    "``": 12980,
    "accordingly": 3238,
    "Regarding": 12448,
    "min": 6338,
    "bothered": 10319,
    "gains": 6618,
    "ili@@": 8868,
    ".euro@@": 19208,
    "rick": 9261,
    "sphe@@": 19366,
    "ghtened": 17977,
    "acknowledged": 6271,
    "ecosystem": 14261,
    "tales": 11128,
    "alu@@": 10252,
    "sement": 10985,
    "lean": 7192,
    "dried": 5894,
    "anks": 9509,
    "poured": 8948,
    "sub": 2374,
    "propag@@": 10171,
    "adoption": 1504,
    "sest": 19351,
    "porte@@": 18210,
    "Against": 15602,
    "Integr@@": 14542,
    "da": 1977,
    "routing": 15217,
    "ific@@": 14141,
    "vigilance": 11717,
    "whir@@": 10845,
    "Fisheries": 12154,
    "EF@@": 5229,
    "pill@@": 18482,
    "oph@@": 8277,
    "waters": 3184,
    "thu@@": 9652,
    "possess": 11506,
    "Windows": 5189,
    "specialised": 5320,
    "pow@@": 11392,
    "ache": 11788,
    "affili@@": 17471,
    "claimant": 9543,
    "preservation": 8087,
    "puzzled": 13484,
    "root": 6789,
    "liness": 16656,
    "fing@@": 18193,
    "gl@@": 2747,
    "exacerb@@": 8705,
    "Thor@@": 16646,
    "National": 3697,
    "Ralph": 13573,
    "threaten": 10146,
    "society": 1275,
    "superse@@": 18612,
    "religi@@": 17755,
    "Enforcement": 16431,
    "variable": 5266,
    "Gal@@": 8358,
    "baseline": 6540,
    "stic": 9900,
    "vital": 5921,
    "shri@@": 10532,
    "lads": 16145,
    "cough@@": 12329,
    "monial": 17901,
    "anticip@@": 12758,
    "Mr": 2926,
    "CE@@": 7588,
    "underlines": 12303,
    "ind@@": 16487,
    "importer": 6615,
    "considered": 427,
    "sandy": 14192,
    "obstac@@": 19493,
    "oe@@": 18532,
    "Secondly": 8364,
    "word@@": 17533,
    "defendant": 2757,
    "glow": 7800,
    "dynamic": 5916,
    "MAN": 14741,
    "teness": 18717,
    "Ts": 16515,
    "mith": 18641,
    "fairness": 13852,
    "pride": 6509,
    "financial": 243,
    "halluc@@": 11916,
    "personality": 7137,
    "kee@@": 17982,
    "interviews": 11271,
    "borrower": 15697,
    "ret": 12080,
    "leakage": 11194,
    "commission": 154,
    "evil": 2722,
    "signatures": 14593,
    "rigor@@": 17798,
    "Start": 11257,
    "PROC@@": 18570,
    "AL": 2817,
    "pursu@@": 17872,
    "prosecution": 7358,
    "char@@": 3520,
    "prudent": 9614,
    "ality": 3026,
    "risky": 10418,
    "kin": 3457,
    "weakened": 14687,
    "challenging": 9619,
    "ade": 1968,
    "What": 208,
    "twin": 11119,
    "revising": 15169,
    "methodological": 16637,
    "Tex@@": 18246,
    "liant": 18767,
    "decades": 5548,
    "hideous": 12498,
    "proceeds": 8402,
    "subsidised": 11583,
    "gated": 8070,
    "ign@@": 8498,
    "Anna": 12762,
    "inspec@@": 15280,
    "methodo@@": 19260,
    "cott@@": 18769,
    "councils": 14732,
    "foul": 16237,
    "tful": 18124,
    "impu@@": 9935,
    "worldwide": 6741,
    "bed@@": 9381,
    "cheeks": 9445,
    "Inte@@": 9519,
    "ar": 1017,
    "ticular": 14572,
    "elect": 15950,
    "cutting": 4877,
    "intervener": 9529,
    "arith@@": 16022,
    "warned": 6810,
    "symbols": 8633,
    "articles": 1399,
    "stir@@": 18324,
    "continent": 11266,
    "bearing": 4231,
    "subjects": 3656,
    "kilo@@": 18657,
    "aerop@@": 17953,
    "cooperating": 5167,
    "Bre@@": 6489,
    "university": 4298,
    "ray": 4782,
    "nit@@": 5157,
    "entirety": 8292,
    "owe": 4874,
    "rec@@": 2736,
    "fan": 5485,
    "stre@@": 5754,
    "our": 160,
    "receives": 6330,
    "pal": 10215,
    "Contr@@": 10219,
    "mapping": 15519,
    "contrac@@": 17622,
    "cing": 3596,
    "implied": 12974,
    "certainly": 2235,
    "uring": 8021,
    "Egypt": 15002,
    "II": 964,
    "slowly": 2290,
    "bound": 2667,
    "Ano@@": 19180,
    "contract": 789,
    "'m": 65,
    "dramatic": 11451,
    "dope": 13253,
    "ruler": 14136,
    "threats": 5794,
    "weigh@@": 16629,
    "contradic@@": 8471,
    "status": 1405,
    "if": 51,
    "ES@@": 2945,
    "rented": 10396,
    "believe": 535,
    "manufacture": 4871,
    "ously": 2823,
    "basis": 283,
    "complied": 4956,
    "thing": 276,
    "proposals": 1710,
    "Unfortunately": 11277,
    "tisation": 7983,
    "tob@@": 18134,
    "ely": 3589,
    "divisions": 10503,
    "travels": 16007,
    "M": 1413,
    "oline": 11360,
    "auth@@": 18983,
    "sticking": 10606,
    "ambiguous": 14174,
    "ST@@": 5887,
    "acce@@": 10394,
    "fried": 12359,
    "caused": 1624,
    "osis": 15668,
    "rain@@": 7071,
    "War": 8158,
    "Luke": 12786,
    "competition": 668,
    "threatening": 6671,
    "achieved": 1694,
    "dealers": 12525,
    "horri@@": 9668,
    "cam": 11701,
    "ised": 2421,
    "accommodation": 6966,
    "bles": 6010,
    "promoted": 7112,
    "ACs": 14615,
    "Tom@@": 15649,
    "U@@": 1005,
    "fen@@": 9211,
    "microphone": 13835,
    "indirect": 3638,
    "Eric": 13287,
    "ati@@": 3864,
    "glycaemia": 17993,
    "dealer": 9456,
    "S@@": 209,
    "Captain": 3504,
    "ion@@": 7425,
    "gro": 17787,
    "keen": 15248,
    "uno@@": 12441,
    "ascertain": 6445,
    "shooting": 4541,
    "hairs": 16833,
    "TO": 7205,
    "facing": 4918,
    "filament": 12928,
    "by@@": 4723,
    "imer": 16965,
    "imagined": 6736,
    "directors": 6347,
    "claiming": 7582,
    "distinguishing": 14169,
    "keep": 434,
    "xml": 10446,
    "str@@": 2468,
    "machinery": 4776,
    "white": 959,
    "Incre@@": 12027,
    "disguise": 14025,
    "tering": 4987,
    "St@@": 1972,
    "tar": 8822,
    "OM": 11801,
    "ft": 3909,
    "recovering": 12054,
    "taneous": 14476,
    "color": 3412,
    "fulness": 7720,
    "sions": 2990,
    "FOR": 6752,
    "recommends": 4796,
    "presumed": 8305,
    "derivatives": 7742,
    "none": 2189,
    "tr@@": 1627,
    "ies": 1706,
    "there": 69,
    "windshield": 16685,
    "lox@@": 15534,
    "ours": 2930,
    "policies": 1184,
    "soon": 694,
    "termost": 19139,
    "Commissioner": 14505,
    "etary": 7308,
    "nations": 5311,
    "metabolite": 14205,
    "ext@@": 11158,
    "atinib": 12575,
    "guideline": 13115,
    "elec": 14926,
    "fox": 13058,
    "contro@@": 14334,
    "andre@@": 18189,
    "gies": 9310,
    "mont": 11188,
    "tually": 13044,
    "conflict": 2994,
    "birth@@": 11749,
    "prophecy": 15850,
    "seeks": 5425,
    "[3": 14683,
    "ails": 14663,
    "(1)(c": 10753,
    "uling": 11100,
    "colour": 4141,
    "embarrass@@": 19329,
    "interro@@": 10415,
    "physic@@": 15488,
    "jealous": 8157,
    "clark": 11859,
    "garia": 19343,
    "di@@": 564,
    "deple@@": 12880,
    "imagine": 2594,
    "bledore": 16095,
    "bench": 8486,
    "fell": 1749,
    "Fourth": 13487,
    "located": 2007,
    "alileo": 12014,
    "country": 404,
    "They": 309,
    "include": 715,
    "IA@@": 8775,
    "writ@@": 17946,
    "myself": 969,
    "honey": 2424,
    "recor@@": 19508,
    "degradation": 10776,
    "suspects": 10195,
    "doctors": 5087,
    "Acc@@": 18088,
    "dignity": 8827,
    "matching": 9199,
    "alcoho@@": 19509,
    "place": 217,
    "BV": 15472,
    "hatch": 8501,
    "certificates": 3323,
    "Land@@": 14550,
    "previ@@": 18846,
    "express": 3858,
    "Gover@@": 16480,
    "impacts": 5377,
    "derers": 15586,
    "AME": 18703,
    "plate": 4418,
    "monu@@": 13759,
    "headquarters": 6113,
    "omi": 14866,
    "hunting": 5567,
    "zy": 8094,
    "2": 94,
    "Her@@": 4780,
    "currently": 1772,
    "stac@@": 17597,
    "Each": 3049,
    "compensatory": 9478,
    "stab": 13230,
    "makes": 1012,
    "chin": 7047,
    "EDF": 7369,
    "gave": 721,
    "MM@@": 16303,
    "specifically": 2734,
    "melting": 17081,
    "tack@@": 17656,
    "gay": 5318,
    "stored": 3963,
    "Somebody": 9421,
    "hinder": 15654,
    "remainder": 6656,
    "glass": 1875,
    "ami": 9215,
    "scan": 9724,
    "ied": 17507,
    "senate": 14787,
    "shoot": 2481,
    "Dr": 11471,
    "Special": 5981,
    "snapped": 8293,
    "sense": 1430,
    "uals": 15658,
    "belie@@": 18650,
    "elapsed": 9374,
    "involve": 3770,
    "le": 1018,
    "tis": 3153,
    "division": 3837,
    "imum": 19518,
    "cadmi@@": 16269,
    "ain": 5285,
    "l.": 16172,
    "reimbursement": 5237,
    "switching": 9682,
    "diversi@@": 12628,
    "rid": 2889,
    "molecu@@": 16748,
    "variables": 10039,
    "Me": 7519,
    "accel@@": 19566,
    "gger": 15291,
    "foreign": 1498,
    "phyto@@": 16815,
    "sequ@@": 8406,
    "manifest": 6219,
    "sy@@": 3981,
    "pregn@@": 14852,
    "FBl": 10638,
    "endeavour": 7898,
    "missed": 3277,
    "drow@@": 17141,
    "starving": 9849,
    "toward": 1733,
    "defaul@@": 17012,
    "ived": 16387,
    "tie": 3804,
    "impartial": 15031,
    "\"": 28,
    "coke": 10601,
    "sw@@": 3965,
    "spun": 9776,
    "newspapers": 10237,
    "helps": 4683,
    "STE@@": 15665,
    "Appropriations": 8865,
    "hex@@": 15450,
    "confers": 9564,
    "hy": 9131,
    "regulations": 1686,
    "addi@@": 8370,
    "slovakia": 14822,
    "construc@@": 14919,
    "allevi@@": 13876,
    "Contact": 14705,
    "mark": 956,
    "dissemin@@": 9660,
    "ambush": 13025,
    "shaped": 6634,
    "pression": 10881,
    "whis@@": 10273,
    "dants": 10325,
    "worm@@": 18390,
    "duplication": 13394,
    "implementation": 507,
    "alty": 7776,
    "quie@@": 17804,
    "Conference": 12042,
    "presence": 2152,
    "path@@": 4006,
    "infec@@": 11395,
    "addy": 17720,
    "rhoea": 19189,
    "Nothing": 4666,
    "tailored": 16139,
    "talking": 732,
    "dismantling": 15965,
    "holiday": 7669,
    "flows": 3896,
    "randomised": 14086,
    "olet": 18525,
    "mored": 18787,
    "ues": 7836,
    "bones": 4673,
    "nationality": 4450,
    "password": 5185,
    "pay": 606,
    "sins": 11877,
    "la": 3130,
    "lau@@": 9294,
    "campaign@@": 18322,
    "sidewalk": 12727,
    "computer": 1236,
    "CEN": 10282,
    "He": 166,
    "desi@@": 18592,
    "tain": 7383,
    "upgrad@@": 18515,
    "India": 7013,
    "thr@@": 6372,
    "Argu@@": 14899,
    "municipal": 8771,
    "hot": 1746,
    "conclusive": 15846,
    "offici@@": 17341,
    "subparagraph": 1998,
    "art": 2116,
    "ar@@": 591,
    "restrictions": 2336,
    "fes@@": 15145,
    "nutrition": 8033,
    "details": 1874,
    "complic@@": 14258,
    "itary": 10523,
    "gal@@": 4047,
    "religion": 6866,
    "saint": 10163,
    "psych@@": 13077,
    "damage": 1511,
    "diploma": 15714,
    "fem@@": 10691,
    "initiating": 6145,
    "statistics": 2881,
    "convincing": 8911,
    "educated": 12696,
    "marry": 3344,
    "loudly": 15522,
    "Grand@@": 10768,
    "overlapping": 15620,
    ".1": 9326,
    "wanting": 6596,
    "Partnership": 9366,
    "launching": 10620,
    "adolescents": 8716,
    "night": 340,
    "shou@@": 17631,
    "cement": 6032,
    "exploited": 12670,
    "declares": 15812,
    "quarter": 3592,
    "aff@@": 6081,
    "Leg@@": 17731,
    "aligned": 8758,
    "Beli@@": 18332,
    "Fisher@@": 18942,
    "admir@@": 9251,
    "shipments": 12357,
    "lands@@": 17297,
    "ano@@": 9184,
    "extremely": 4266,
    "pe": 5142,
    "dressed": 3795,
    "individually": 5491,
    "mend@@": 19276,
    "gasoline": 12239,
    "city": 918,
    "tility": 16514,
    "improvement": 3204,
    "Nevertheless": 7410,
    "monary": 19063,
    "descriptions": 12346,
    "skeletal": 14467,
    "southern": 6066,
    "consolidate": 16662,
    "dizzy": 15223,
    "crawl": 13610,
    "episodes": 13370,
    "absorption": 6848,
    "independent": 1572,
    "missions": 5386,
    "carried": 436,
    "TT": 13948,
    "que@@": 6310,
    "Sun": 15365,
    "proto@@": 12541,
    "radius": 10155,
    "zan": 14922,
    "pump@@": 16879,
    "embas@@": 18406,
    "IV": 2654,
    "corpse": 5744,
    "hotel": 2593,
    "famous": 4606,
    "luke": 12221,
    "would": 76,
    "Roger": 14077,
    "worded": 12297,
    "advocates": 13590,
    "EST": 13265,
    "sliding": 13934,
    "renew@@": 17737,
    "upri@@": 19116,
    "dreaming": 9343,
    "episo@@": 19284,
    "balance": 1397,
    "aa@@": 17515,
    "combustion": 8677,
    "annum": 14501,
    "prospec@@": 11729,
    "Up@@": 10489,
    "host": 2941,
    "(1)(a": 7429,
    "ems": 8945,
    "foref@@": 13903,
    "certified": 5416,
    "january": 2343,
    "gram@@": 13829,
    "talented": 12815,
    "stroke": 8665,
    "anu@@": 10736,
    "IP@@": 4466,
    "contr@@": 5506,
    "Vo@@": 7404,
    "simul@@": 9165,
    "sucker": 11850,
    "skipper": 13083,
    "ides": 7239,
    "itted": 9534,
    "EU@@": 3747,
    "ots": 13482,
    "distribute": 11187,
    "understand@@": 17359,
    "kissed": 7005,
    "penis": 11365,
    "ci": 16683,
    "renewed": 6881,
    "edi": 11338,
    "hil@@": 6318,
    "Foun@@": 18785,
    "enab@@": 19143,
    "yle": 7840,
    "relative": 3798,
    "wastes": 15790,
    "oriented": 8079,
    "GOC": 10800,
    "tasks": 1817,
    "tess": 13710,
    "deterioration": 6870,
    "sett@@": 15688,
    "reversed": 16104,
    "fe@@": 1947,
    "icks": 8691,
    "EEA": 2429,
    "ins": 1948,
    "Mexico": 10307,
    "consensus": 6879,
    "Where@@": 17978,
    "committed": 1936,
    "Certain": 14376,
    "oms": 6264,
    "wild": 3353,
    "transposition": 7824,
    "Gran@@": 9769,
    "reimbur@@": 16925,
    "credit": 954,
    "grabbed": 6268,
    "prince": 5089,
    "numer@@": 9620,
    "lantern": 16682,
    "ep@@": 4290,
    "possi@@": 18631,
    "arc@@": 8690,
    "discre@@": 12573,
    "Territ@@": 15413,
    "men@@": 2358,
    "regul@@": 6761,
    "drivers": 6587,
    "flash@@": 18215,
    "elimin@@": 18563,
    "subsequent": 2466,
    "critical": 3730,
    "dividen@@": 16576,
    "tatto@@": 12398,
    "introduce": 3085,
    "dragged": 6250,
    "Put": 5733,
    "ready": 1034,
    "eta": 16837,
    "acquisition": 3604,
    "Paragrap@@": 17878,
    "Spain": 4432,
    "chi": 13178,
    "tion": 1031,
    "content": 1137,
    "evaluation": 1251,
    "tax@@": 10853,
    "catalo@@": 12618,
    "with": 24,
    "person": 360,
    "injuries": 8125,
    "prosecutor": 7399,
    "Lon@@": 18002,
    "proportion@@": 17944,
    "examining": 5979,
    "offen@@": 17196,
    "holi@@": 18477,
    "total@@": 13858,
    "horizontal": 4907,
    "produc@@": 5851,
    "inia": 15538,
    "chi@@": 3326,
    "exposure": 2029,
    "mly": 11449,
    "twin@@": 15807,
    "mant": 17960,
    "ges@@": 12801,
    "estive": 15419,
    "tender": 2427,
    "supposedly": 15048,
    "ISSION": 19182,
    "ckets": 12543,
    "darkness": 3237,
    "jane": 9602,
    "drives": 9057,
    "defeat": 7052,
    "ases": 6124,
    "hal@@": 3444,
    "inquiry": 10422,
    "tes@@": 6968,
    "coded": 16215,
    "souls": 8143,
    "parent": 2460,
    "doll": 12025,
    "kim": 12131,
    "EPA": 11305,
    "enz@@": 11259,
    "toy": 8726,
    "distr@@": 8394,
    "hesitate": 16151,
    "demon@@": 14375,
    "road@@": 9685,
    "straight@@": 19303,
    "granted": 678,
    "increas@@": 19378,
    "medical": 1634,
    "alties": 15358,
    "photograp@@": 8077,
    "to@@": 884,
    "azz": 13639,
    "licen@@": 11419,
    "drum": 14901,
    "aly@@": 12979,
    "u@@": 579,
    "ay": 2168,
    "silently": 7719,
    "cle@@": 5186,
    "port": 2050,
    "Serv@@": 18536,
    "exploring": 11515,
    "None": 7312,
    "ep": 5020,
    "ADR": 8468,
    "otherapy": 18400,
    "lawyer": 2261,
    "fami@@": 19199,
    "thering": 17758,
    "recipe": 14571,
    "ali@@": 2138,
    "limiting": 6046,
    "penetrated": 14797,
    "vir": 8092,
    "outta": 10268,
    "genes": 13671,
    "risk": 345,
    "measurement": 4187,
    "generate": 6847,
    "uniformly": 16504,
    "resistant": 9327,
    "Nav@@": 17998,
    "weather": 4351,
    "guarantees": 2784,
    "double": 2371,
    "Monitoring": 10224,
    "MS": 4069,
    "ning": 2402,
    "Ross": 16739,
    "claim": 990,
    "engines": 4779,
    "aces": 13140,
    "technologies": 2281,
    "king": 815,
    "premis@@": 18422,
    "passing": 4789,
    "wiz@@": 18877,
    "innov@@": 17362,
    "BSE": 14464,
    "pers@@": 12289,
    "chole@@": 18751,
    "volunteer": 11990,
    "versal": 11436,
    "dema": 18795,
    "inadmissibility": 12608,
    "stairs": 4270,
    "co": 1086,
    "rights": 463,
    "transpose": 15880,
    "Agreement": 1461,
    "fucking": 1191,
    "who": 102,
    "known": 774,
    "liams": 14401,
    "lovers": 12956,
    "christ@@": 12773,
    "colours": 11918,
    "avoi@@": 18166,
    "achievements": 9998,
    "tackle": 9150,
    "dry@@": 17217,
    "unidenti@@": 16001,
    "adata": 16474,
    "hour": 1265,
    "6": 143,
    "dele@@": 17441,
    "chur@@": 9793,
    "sud@@": 18007,
    "demand": 1845,
    "tying": 13456,
    "boarding": 10078,
    "phal@@": 12451,
    "peace@@": 12403,
    "deployment": 5823,
    "ous": 900,
    "hierarch@@": 17729,
    "withstand": 15238,
    "ators": 2315,
    "lift": 5476,
    "comprise": 7789,
    "productivity": 5383,
    "diff@@": 11438,
    "enhance": 4204,
    "appeti@@": 18804,
    "fisheries": 2999,
    "mighty": 8819,
    "elling": 5422,
    "victory": 5986,
    "must": 113,
    "confidentiality": 5154,
    "visit": 2536,
    "altered": 5193,
    "glob@@": 11062,
    "Conclu@@": 17464,
    "substitute": 7863,
    "MEN@@": 10272,
    "luc@@": 4751,
    "containers": 6535,
    "rative": 10781,
    "wore": 5897,
    "capture": 5849,
    "ques": 15632,
    "component": 2906,
    "relates": 4263,
    "burnt": 11167,
    "hotels": 13763,
    "added": 1100,
    "nia": 6287,
    "paintings": 10004,
    "stayed": 4039,
    "offline": 14676,
    "instituted": 16096,
    "spear": 13492,
    "guest": 5681,
    "played": 2767,
    "ss": 4098,
    "time": 93,
    "punc@@": 13750,
    "waiter": 16216,
    "ancestors": 9728,
    "children": 619,
    "programme": 493,
    "EC": 279,
    "believ@@": 18389,
    "Nobody": 7354,
    "recalled": 6658,
    "ffled": 14832,
    "intu@@": 15255,
    "breakdown": 6737,
    "pure": 4953,
    "arises": 7858,
    "orbit": 9176,
    "carbon@@": 12890,
    "aging": 4545,
    "exchanged": 7024,
    "video": 3051,
    "Estonia": 16293,
    "auxiliary": 8039,
    "mentary": 6730,
    "onally": 18035,
    "washed": 7158,
    "tryin": 6507,
    "kers": 2650,
    "vas": 18443,
    "delete": 5224,
    "elements": 1486,
    "efficiently": 9234,
    "TEU": 12257,
    "studies": 1154,
    "Gol@@": 9799,
    "initiative": 2166,
    "TRAN@@": 16976,
    "OC": 9116,
    "NG@@": 13038,
    "helped": 2777,
    "query": 10376,
    "extingu@@": 11079,
    "stant": 16350,
    "managed": 2267,
    "psycho": 13467,
    "rat@@": 6304,
    "fundamentally": 14655,
    "America": 3825,
    "scout": 14382,
    "maturity": 6313,
    "b": 287,
    "rier": 18135,
    "deck": 4470,
    "vials": 16427,
    "enhancing": 8130,
    "peri@@": 5598,
    "ox@@": 5057,
    "yan@@": 10065,
    "cam@@": 3950,
    "breeding": 6824,
    "army": 2311,
    "merchandis@@": 19381,
    "phasing": 16361,
    "peer": 10490,
    "kong": 12966,
    "leu@@": 12011,
    "Alex": 10093,
    "lasting": 6663,
    "classic": 9198,
    "bolt": 11198,
    "dign@@": 11116,
    "whist@@": 11242,
    "slippery": 16791,
    "business": 480,
    "abolition": 11487,
    "convergence": 6183,
    "cursor": 14512,
    "charge": 1331,
    "philos@@": 18404,
    "industries": 4838,
    "ghtening": 11330,
    "dump": 8230,
    "course": 543,
    "guards": 3917,
    "lithuania": 16236,
    "opted": 11480,
    "gastro@@": 18675,
    "mainly": 2489,
    "dence": 11309,
    "tracted": 16034,
    "rested": 10791,
    "stare": 10414,
    "alph": 19578,
    "intere@@": 17364,
    "Manu@@": 18807,
    "consult": 4689,
    "acquainted": 14161,
    "supposes": 19361,
    "stores": 9581,
    "cann@@": 14044,
    "inspect": 15588,
    "CAT": 18836,
    "zed": 2663,
    "induc@@": 10129,
    "fee": 3392,
    "ribavirin": 15866,
    "recognise": 5602,
    "dominated": 14035,
    "scho@@": 18744,
    "scar@@": 4140,
    "ferential": 18947,
    "whatare": 11932,
    "incin@@": 18885,
    "ession": 14613,
    "turnover": 3937,
    "ari@@": 2656,
    "start@@": 14367,
    "ogle": 19483,
    "creates": 5452,
    "e.": 15159,
    "aching": 6460,
    "insurer": 16135,
    "rings": 7328,
    "stimul@@": 12997,
    "his": 56,
    "disposal": 3122,
    "timate": 19193,
    "Dear": 12909,
    "television": 4056,
    "SR": 17773,
    "Ty@@": 6771,
    "caref@@": 18970,
    "fted": 9161,
    "ager": 7912,
    "abu@@": 18540,
    "angrily": 16847,
    "Risk": 14176,
    "genetically": 9707,
    "eagle": 13848,
    "crack": 7599,
    "Six": 10283,
    "jeff": 15056,
    "wit@@": 6373,
    "requirements": 394,
    "leader@@": 18286,
    "Date": 6969,
    "overview": 6801,
    "hier@@": 19093,
    "Phi@@": 11235,
    "yester@@": 19365,
    "disaster": 6158,
    "whip": 12976,
    "senti@@": 9841,
    "dator": 12372,
    "vacation": 6820,
    "bankrupt": 9579,
    "Pas@@": 16284,
    "auc@@": 8895,
    "glomer@@": 14289,
    "wrath": 15526,
    "d@@": 363,
    "whe@@": 11174,
    "ffered": 18860,
    "bushes": 11938,
    "alerts": 11374,
    "bleeding": 4809,
    "bubble": 11816,
    "PE@@": 17101,
    "LA": 13053,
    "institutions": 856,
    "Safety": 7506,
    "trac@@": 6111,
    "aked": 8545,
    "utter": 13021,
    "as": 31,
    "gative": 18544,
    "juvenile": 14157,
    "jerk": 6086,
    "causes": 4363,
    "smoking": 5618,
    "harmful": 5579,
    "aver@@": 11634,
    "taxation": 3141,
    "key@@": 7769,
    "Denmark": 7812,
    "lazy": 14253,
    "weighed": 10444,
    "transpor@@": 11646,
    "aged": 2966,
    "sely": 6546,
    "Experi@@": 16972,
    "worm": 9902,
    "bara": 12518,
    "prescription": 7645,
    "continues": 4675,
    "allory": 15118,
    "phan@@": 11552,
    "element": 2486,
    "criterion": 3160,
    "Ram@@": 13442,
    "labor@@": 18517,
    "graphics": 11575,
    "Secre@@": 16857,
    "undercover": 14106,
    "ey": 2860,
    "burst": 6798,
    "calling": 2188,
    "decisions": 913,
    "contingent": 11522,
    "Eu@@": 13382,
    "resolution": 2278,
    "spiritual": 10820,
    "govern@@": 17402,
    "Kim": 12085,
    "fort@@": 18074,
    "tear": 6273,
    "ombudsman": 15825,
    "God": 1288,
    "bre@@": 3397,
    "generators": 15922,
    "gang@@": 11136,
    "tionally": 5351,
    "witness": 3197,
    "River": 12635,
    "overlap": 14656,
    "restrial": 19188,
    "appetite": 10596,
    "vomit": 16587,
    "roof@@": 10086,
    "Over": 8051,
    "spiral": 16840,
    "yield": 7103,
    "inv@@": 4623,
    "auditing": 8968,
    "vard": 13689,
    "tree": 2750,
    "kar@@": 5243,
    "compared": 1409,
    "Things": 13584,
    "Jim": 8979,
    "from": 44,
    "socks": 13020,
    "arom@@": 18622,
    "cour@@": 6324,
    "shift": 5121,
    "meaning": 1055,
    "Tuesday": 16470,
    "banking": 3454,
    "industrial": 2187,
    "nursery": 15561,
    "rine": 14049,
    "Ly@@": 11206,
    "survive": 3806,
    "flowers": 4709,
    "catho@@": 16862,
    "essels": 18779,
    "unable": 3261,
    "'t@@": 12604,
    "sophistic@@": 18894,
    "dosage": 6155,
    "asted": 9958,
    "appropriations": 2383,
    "knee": 7283,
    "charging": 6569,
    "Hmm": 12506,
    "paid": 711,
    "quick@@": 17383,
    "du": 12370,
    "Le@@": 1896,
    "subsidies": 5202,
    "cols": 18739,
    "ax": 6659,
    "A.": 5957,
    "Sud@@": 19368,
    "pending": 4638,
    "al": 588,
    "mar": 9741,
    "rus@@": 7939,
    "computer@@": 18275,
    "ants": 2351,
    "around": 316,
    "udine": 18893,
    "residues": 8426,
    "pole": 9350,
    "trustee": 11386,
    "anger": 3791,
    "pour": 11459,
    "kg": 2205,
    "label": 3386,
    "excipients": 12861,
    "attributes": 11737,
    "just": 92,
    "consul@@": 7373,
    "clou@@": 11854,
    "Tower": 16475,
    "servants": 5040,
    "unduly": 11772,
    "tub": 9134,
    "les": 1143,
    "Panel": 15494,
    "preserved": 7811,
    "structure": 1531,
    "compatibility": 3509,
    "scal@@": 7902,
    "ord@@": 4070,
    "complicated": 5066,
    "cord": 9508,
    "heated": 12339,
    "destroying": 8884,
    "sartan": 16741,
    "cho@@": 3945,
    "na@@": 2113,
    "gets": 1540,
    "pretend": 5252,
    "leased": 16141,
    "Furthermore": 2534,
    "Pitt": 16522,
    "ined": 3862,
    "leak": 11637,
    "up": 83,
    "discover": 7801,
    "bidding": 14752,
    "vitamins": 16735,
    "producer": 1951,
    "this": 38,
    "tasted": 14146,
    "stories": 3846,
    "deep@@": 17675,
    "stlin": 11130,
    "radar": 9313,
    "committee": 676,
    "expected": 1078,
    "zar@@": 17443,
    "scholar@@": 18230,
    "move": 907,
    "betray": 13354,
    "k@@": 278,
    "sacrificed": 11426,
    "quotas": 4549,
    "tangled": 17207,
    "Prime": 13740,
    "Rec@@": 5018,
    "Comman@@": 17817,
    "fin": 15178,
    "afternoon": 3256,
    "seven": 1849,
    "Bs": 13017,
    "disturbed": 10478,
    "soc@@": 19312,
    "'@@": 1431,
    "pane": 15535,
    "TA@@": 4097,
    "atlan@@": 17046,
    "Auditors": 11336,
    "abolished": 10372,
    "faced": 4449,
    "pie": 6927,
    "terror@@": 19331,
    "sens@@": 15993,
    "strations": 12557,
    "creatinine": 14930,
    "PRE@@": 17173,
    "cetax@@": 19269,
    "uses": 2023,
    "aisle": 14513,
    "eleven": 11031,
    "criminal": 1574,
    "tic": 1293,
    "Loo@@": 18768,
    "ounts": 17750,
    "thetic": 17303,
    "mamm@@": 14326,
    "experiments": 9359,
    "asis": 10694,
    "aven@@": 9158,
    "derive": 13466,
    "liberalisation": 10392,
    "continuity": 7384,
    "drug": 2524,
    "Saturday": 10230,
    "perfection": 16530,
    "Rules": 4523,
    "sale": 1747,
    "operational": 1527,
    "wide": 1538,
    "fla@@": 4847,
    "bastards": 10214,
    "perfec@@": 17839,
    "diabe@@": 19274,
    "ha": 4148,
    "promote": 1837,
    "bagg@@": 19428,
    "sne@@": 9217,
    "ole": 4377,
    "assium": 19098,
    "football": 5497,
    "Explan@@": 18014,
    "remains": 2101,
    "flow@@": 17393,
    "asting": 10804,
    "agony": 13533,
    "servant": 6376,
    "Enter": 11286,
    "crush": 7207,
    "/": 259,
    "esti@@": 10064,
    "responsi@@": 17886,
    "andrew": 16265,
    "are": 40,
    "Gre@@": 6008,
    "pattern": 4999,
    "gain@@": 17593,
    "flew": 4582,
    "campai@@": 19545,
    "Due": 11025,
    "t(s": 10170,
    "Jimmy": 9170,
    "butcher": 17152,
    "egy": 19549,
    "choose": 1865,
    "driver": 2328,
    "daughters": 10267,
    "formatting": 15227,
    "bour@@": 7827,
    "poul@@": 17588,
    "wayne": 16491,
    "portuguese": 9095,
    "hat": 4629,
    "Finnish": 16489,
    "pressive": 12665,
    "COM(@@": 6520,
    "yi@@": 13030,
    "friendly": 4364,
    "pically": 18949,
    "Twenty": 16331,
    "ros": 16391,
    "And": 173,
    "admissible": 6853,
    "extracts": 15625,
    "reliance": 13391,
    "bulgaria": 9558,
    "significantly": 2120,
    "wai@@": 5630,
    "amusement": 14976,
    "shop": 3347,
    "skim@@": 14634,
    "lied": 4020,
    "odds": 9879,
    "Sever@@": 19015,
    "demons": 9119,
    "activeness": 19505,
    "devo@@": 15351,
    "wo": 625,
    "analy@@": 5687,
    "deduc@@": 8756,
    "clock": 6933,
    "urges": 9052,
    "policeman": 8208,
    "volcan@@": 11814,
    "za": 4668,
    "instantly": 13388,
    "pyrami@@": 12405,
    "bike": 10216,
    "deman@@": 19201,
    "weaker": 12698,
    "re": 988,
    "simon": 11014,
    "worthless": 16607,
    "Great": 4747,
    "colum@@": 17390,
    "lately": 6583,
    "FBI": 6381,
    "erly": 10847,
    "secrec@@": 19441,
    "mistaken": 8307,
    "officially": 5613,
    "testify": 7998,
    "Alice": 13266,
    "turning": 3615,
    "acre": 13543,
    "revenge": 6863,
    "AW@@": 13139,
    "printed": 4814,
    "commitments": 1898,
    "entit@@": 18244,
    "logs": 10825,
    "making": 637,
    "fair": 1716,
    "moreover": 2370,
    "cers": 9521,
    "identities": 16987,
    "ffic@@": 17614,
    "Current": 16891,
    "proposing": 9225,
    "differ": 6612,
    "walks": 7314,
    "letter": 1173,
    "simplifying": 12252,
    "betr@@": 17542,
    "supervision": 2944,
    "mid@@": 4976,
    "undering": 18533,
    "inea": 17576,
    "state": 205,
    "adduced": 14341,
    "ents": 3753,
    "gluc@@": 13417,
    "chil@@": 6885,
    "Hen@@": 12783,
    "slender": 12186,
    "uled": 15576,
    "EL@@": 3984,
    "seemingly": 15371,
    "wine": 2035,
    "cler@@": 8781,
    "gas": 1162,
    "hesitation": 17034,
    "whatever": 1266,
    "MI": 10993,
    "inter": 1432,
    "grazing": 17002,
    "pump": 7690,
    "appen@@": 13161,
    "po@@": 975,
    "roland": 13509,
    "excreted": 10520,
    "Form": 12973,
    "kra@@": 13884,
    "delay": 2227,
    "aggreg@@": 9824,
    "fits": 9764,
    "sol@@": 3368,
    "get": 105,
    "below": 919,
    "chan@@": 4427,
    "controlling": 5984,
    "bass": 15293,
    "Bir@@": 15016,
    "ab": 9287,
    "malign@@": 17683,
    "laid": 442,
    "Ke@@": 4970,
    "frame@@": 18451,
    "Back@@": 18176,
    "deceased": 9339,
    "Doctor": 7412,
    "arities": 10521,
    "undoubtedly": 8400,
    "american": 3056,
    "ion'": 15715,
    "mentioned": 1248,
    "dev@@": 7809,
    "ca@@": 1523,
    "Brus@@": 19026,
    "awesome": 7576,
    "sey": 6323,
    "caine": 18760,
    "steal": 4348,
    "tests": 1599,
    "atoes": 16674,
    "relations": 2549,
    "Dum@@": 13641,
    "requi@@": 19385,
    "sheets": 5941,
    "dazz@@": 14826,
    "anticipated": 7300,
    "nally": 17214,
    "cking": 7640,
    "patch": 8156,
    "corn": 8447,
    "iron": 3792,
    "server": 2165,
    "aco": 17228,
    "patients": 531,
    "Life": 10238,
    "roc@@": 17521,
    "Flo@@": 16471,
    "definitely": 3620,
    "philosophy": 13251,
    "Phil@@": 13598,
    "lins": 11435,
    "battlefield": 15605,
    "fists": 16083,
    "breached": 12247,
    "holidays": 9279,
    "jumped": 7119,
    "register": 2597,
    "ations'": 15038,
    "lion": 4757,
    "ACP": 5962,
    "postponed": 12235,
    "assum@@": 19492,
    "essions": 12176,
    "livia": 17098,
    "mixing": 12594,
    "duel": 15367,
    "stain": 8451,
    "preparing": 3748,
    "dynam@@": 10199,
    "apple": 7692,
    "seizures": 11520,
    "defend": 5069,
    "Oper@@": 6638,
    "viron@@": 19533,
    "counterparty": 10778,
    "rash": 9114,
    "fun@@": 4957,
    "gation": 6896,
    "farmer": 6545,
    "umber": 14482,
    "residence": 1962,
    "PC": 7178,
    "Hill": 16372,
    "gar": 5343,
    "forming": 4804,
    "concomitantly": 15853,
    "syrup": 15631,
    "fortunately": 16915,
    "ke": 1652,
    "retro@@": 7635,
    "we": 45,
    "putting": 3065,
    "klin": 10250,
    "Actually": 6282,
    "saying": 946,
    "ier": 5192,
    "redun@@": 19537,
    "identifiable": 12428,
    "annual": 923,
    "Croatia": 11811,
    "racks": 18434,
    "ber@@": 1859,
    "extrem@@": 18898,
    "ragged": 16775,
    "inine": 17434,
    "unexpected": 6812,
    "after": 171,
    "IC": 5195,
    "floor": 1509,
    "foregoing": 5316,
    "Believe": 16089,
    "boston": 15001,
    "goods": 670,
    "zones": 5958,
    "TE": 10918,
    "pes@@": 16537,
    "annex@@": 18776,
    "denom@@": 12479,
    "offensive": 12505,
    "witnessed": 7740,
    "arts": 8759,
    "God@@": 12782,
    "Every": 3848,
    "cou@@": 6213,
    "MEAS@@": 14779,
    "inhibitors": 7559,
    "kl@@": 17883,
    "anut": 17242,
    "tenance": 15571,
    "Sel@@": 14016,
    "Small": 12811,
    "EA@@": 6570,
    "humble": 15963,
    "notify": 2457,
    "aly": 16042,
    "cat": 3732,
    "pical": 17823,
    "CA": 7930,
    "insufficient": 4059,
    "mass@@": 8552,
    "mol@@": 4893,
    "enced": 17815,
    "allas": 14761,
    "ross": 14127,
    "dred": 18071,
    "reactions": 2303,
    "sen": 4685,
    "machine": 1989,
    "shortcomings": 5398,
    "represents": 3662,
    "applic@@": 17072,
    "Rem@@": 13131,
    "gab@@": 9623,
    "means": 282,
    "outputs": 12733,
    "cetaxel": 18923,
    "borrow": 8065,
    "rendered": 11810,
    "ff": 3037,
    "its": 101,
    "honestly": 6011,
    "suggestions": 11411,
    "government": 706,
    "anch@@": 17809,
    "countries'": 15907,
    "diction": 15890,
    "emerging": 5900,
    "grim": 11009,
    "drew": 4367,
    "voluntarily": 11021,
    "omin@@": 8121,
    "level@@": 12550,
    "Tun@@": 14688,
    "jewelry": 12060,
    "mb@@": 17605,
    "Strategic": 15172,
    "ocean": 4572,
    "mex@@": 18603,
    "swore": 10354,
    "Advocate": 13299,
    "orange": 6109,
    "establishment": 1435,
[...]
